{
  "version": "1.0",
  "truncation": null,
  "padding": null,
  "added_tokens": [
    {
      "id": 0,
      "content": "<pad>",
      "single_word": false,
      "lstrip": false,
      "rstrip": false,
      "normalized": false,
      "special": true
    },
    {
      "id": 1,
      "content": "<unk>",
      "single_word": false,
      "lstrip": false,
      "rstrip": false,
      "normalized": false,
      "special": true
    },
    {
      "id": 2,
      "content": "<bos>",
      "single_word": false,
      "lstrip": false,
      "rstrip": false,
      "normalized": false,
      "special": true
    },
    {
      "id": 3,
      "content": "<eos>",
      "single_word": false,
      "lstrip": false,
      "rstrip": false,
      "normalized": false,
      "special": true
    }
  ],
  "normalizer": {
    "type": "Sequence",
    "normalizers": [
      {
        "type": "NFD"
      },
      {
        "type": "StripAccents"
      },
      {
        "type": "Lowercase"
      },
      {
        "type": "NFC"
      }
    ]
  },
  "pre_tokenizer": {
    "type": "Whitespace"
  },
  "post_processor": null,
  "decoder": null,
  "model": {
    "type": "BPE",
    "dropout": null,
    "unk_token": "<unk>",
    "continuing_subword_prefix": null,
    "end_of_word_suffix": null,
    "fuse_unk": false,
    "byte_fallback": false,
    "ignore_merges": false,
    "vocab": {
      "<pad>": 0,
      "<unk>": 1,
      "<bos>": 2,
      "<eos>": 3,
      "!": 4,
      "\"": 5,
      "$": 6,
      "%": 7,
      "&": 8,
      "'": 9,
      "(": 10,
      ")": 11,
      "+": 12,
      ",": 13,
      "-": 14,
      ".": 15,
      "/": 16,
      "0": 17,
      "1": 18,
      "2": 19,
      "3": 20,
      "4": 21,
      "5": 22,
      "6": 23,
      "7": 24,
      "8": 25,
      "9": 26,
      ":": 27,
      ";": 28,
      "?": 29,
      "a": 30,
      "b": 31,
      "c": 32,
      "d": 33,
      "e": 34,
      "f": 35,
      "g": 36,
      "h": 37,
      "i": 38,
      "j": 39,
      "k": 40,
      "l": 41,
      "m": 42,
      "n": 43,
      "o": 44,
      "p": 45,
      "q": 46,
      "r": 47,
      "s": 48,
      "t": 49,
      "u": 50,
      "v": 51,
      "w": 52,
      "x": 53,
      "y": 54,
      "z": 55,
      "~": 56,
      "«": 57,
      "­": 58,
      "»": 59,
      "œ": 60,
      "а": 61,
      "с": 62,
      "​": 63,
      "‐": 64,
      "–": 65,
      "‘": 66,
      "’": 67,
      "…": 68,
      "‽": 69,
      "₂": 70,
      "€": 71,
      "ou": 72,
      "re": 73,
      "es": 74,
      "en": 75,
      "on": 76,
      "ai": 77,
      "he": 78,
      "le": 79,
      "an": 80,
      "er": 81,
      "in": 82,
      "to": 83,
      "is": 84,
      "de": 85,
      "as": 86,
      "qu": 87,
      "te": 88,
      "you": 89,
      "me": 90,
      "ne": 91,
      "the": 92,
      "th": 93,
      "ar": 94,
      "at": 95,
      "ve": 96,
      "il": 97,
      "je": 98,
      "se": 99,
      "ous": 100,
      "it": 101,
      "ce": 102,
      "que": 103,
      "or": 104,
      "ent": 105,
      "la": 106,
      "al": 107,
      "et": 108,
      "est": 109,
      "ing": 110,
      "pas": 111,
      "ais": 112,
      "vous": 113,
      "au": 114,
      "ch": 115,
      "ie": 116,
      "no": 117,
      "tu": 118,
      "ro": 119,
      "un": 120,
      "tom": 121,
      "our": 122,
      "su": 123,
      "co": 124,
      "do": 125,
      "pe": 126,
      "be": 127,
      "ave": 128,
      "us": 129,
      "ait": 130,
      "ant": 131,
      "res": 132,
      "di": 133,
      "oi": 134,
      "ri": 135,
      "li": 136,
      "wh": 137,
      "we": 138,
      "ver": 139,
      "les": 140,
      "ke": 141,
      "ment": 142,
      "av": 143,
      "tr": 144,
      "ay": 145,
      "el": 146,
      "so": 147,
      "out": 148,
      "ap": 149,
      "of": 150,
      "ti": 151,
      "mp": 152,
      "don": 153,
      "ux": 154,
      "are": 155,
      "that": 156,
      "con": 157,
      "si": 158,
      "am": 159,
      "par": 160,
      "go": 161,
      "lo": 162,
      "ho": 163,
      "ac": 164,
      "ld": 165,
      "nous": 166,
      "for": 167,
      "pour": 168,
      "all": 169,
      "son": 170,
      "ge": 171,
      "ter": 172,
      "ain": 173,
      "une": 174,
      "ab": 175,
      "st": 176,
      "ren": 177,
      "ion": 178,
      "ad": 179,
      "ur": 180,
      "ci": 181,
      "have": 182,
      "and": 183,
      "gh": 184,
      "this": 185,
      "pl": 186,
      "pen": 187,
      "tre": 188,
      "was": 189,
      "can": 190,
      "my": 191,
      "mo": 192,
      "mon": 193,
      "du": 194,
      "elle": 195,
      "po": 196,
      "ll": 197,
      "your": 198,
      "ma": 199,
      "fe": 200,
      "what": 201,
      "ut": 202,
      "ir": 203,
      "ans": 204,
      "des": 205,
      "pro": 206,
      "vo": 207,
      "she": 208,
      "ould": 209,
      "ca": 210,
      "che": 211,
      "now": 212,
      "com": 213,
      "ons": 214,
      "aire": 215,
      "hi": 216,
      "ght": 217,
      "man": 218,
      "suis": 219,
      "did": 220,
      "ien": 221,
      "one": 222,
      "not": 223,
      "wi": 224,
      "want": 225,
      "bo": 226,
      "ed": 227,
      "mar": 228,
      "ten": 229,
      "per": 230,
      "quel": 231,
      "oir": 232,
      "qui": 233,
      "mes": 234,
      "thing": 235,
      "pre": 236,
      "der": 237,
      "with": 238,
      "very": 239,
      "ure": 240,
      "like": 241,
      "faire": 242,
      "lu": 243,
      "ex": 244,
      "ler": 245,
      "know": 246,
      "here": 247,
      "tout": 248,
      "ly": 249,
      "ser": 250,
      "ta": 251,
      "ill": 252,
      "ok": 253,
      "dans": 254,
      "his": 255,
      "ted": 256,
      "they": 257,
      "ink": 258,
      "cu": 259,
      "ag": 260,
      "ble": 261,
      "ther": 262,
      "dre": 263,
      "plus": 264,
      "how": 265,
      "sur": 266,
      "pr": 267,
      "him": 268,
      "sa": 269,
      "fait": 270,
      "cho": 271,
      "veux": 272,
      "fi": 273,
      "ple": 274,
      "ven": 275,
      "jus": 276,
      "any": 277,
      "cou": 278,
      "some": 279,
      "ille": 280,
      "get": 281,
      "moi": 282,
      "vr": 283,
      "etre": 284,
      "wor": 285,
      "jour": 286,
      "day": 287,
      "her": 288,
      "dis": 289,
      "vi": 290,
      "fo": 291,
      "think": 292,
      "ard": 293,
      "etes": 294,
      "ation": 295,
      "comp": 296,
      "avec": 297,
      "end": 298,
      "quoi": 299,
      "see": 300,
      "ils": 301,
      "there": 302,
      "mer": 303,
      "sh": 304,
      "age": 305,
      "tte": 306,
      "ine": 307,
      "bien": 308,
      "lle": 309,
      "temp": 310,
      "ue": 311,
      "time": 312,
      "if": 313,
      "pu": 314,
      "lui": 315,
      "ong": 316,
      "ses": 317,
      "ouve": 318,
      "etait": 319,
      "tres": 320,
      "gr": 321,
      "dit": 322,
      "avez": 323,
      "iez": 324,
      "about": 325,
      "ts": 326,
      "od": 327,
      "up": 328,
      "let": 329,
      "ate": 330,
      "mb": 331,
      "pense": 332,
      "temps": 333,
      "will": 334,
      "able": 335,
      "vou": 336,
      "ig": 337,
      "fu": 338,
      "sont": 339,
      "dr": 340,
      "ck": 341,
      "por": 342,
      "ces": 343,
      "sais": 344,
      "ont": 345,
      "ite": 346,
      "mis": 347,
      "ang": 348,
      "mais": 349,
      "way": 350,
      "fin": 351,
      "had": 352,
      "ni": 353,
      "lais": 354,
      "cette": 355,
      "votre": 356,
      "ete": 357,
      "just": 358,
      "ici": 359,
      "ye": 360,
      "didn": 361,
      "say": 362,
      "ally": 363,
      "hap": 364,
      "tes": 365,
      "main": 366,
      "has": 367,
      "tro": 368,
      "ouv": 369,
      "toi": 370,
      "ase": 371,
      "were": 372,
      "would": 373,
      "peux": 374,
      "every": 375,
      "arri": 376,
      "af": 377,
      "tou": 378,
      "ton": 379,
      "use": 380,
      "mary": 381,
      "fro": 382,
      "imp": 383,
      "lie": 384,
      "come": 385,
      "ance": 386,
      "air": 387,
      "vrai": 388,
      "person": 389,
      "ds": 390,
      "could": 391,
      "avoir": 392,
      "min": 393,
      "ail": 394,
      "why": 395,
      "should": 396,
      "jam": 397,
      "mi": 398,
      "beau": 399,
      "pourquoi": 400,
      "pres": 401,
      "ry": 402,
      "chose": 403,
      "pi": 404,
      "iere": 405,
      "pris": 406,
      "ked": 407,
      "work": 408,
      "need": 409,
      "dent": 410,
      "ner": 411,
      "going": 412,
      "long": 413,
      "hel": 414,
      "look": 415,
      "tell": 416,
      "dire": 417,
      "alk": 418,
      "jo": 419,
      "las": 420,
      "jamais": 421,
      "by": 422,
      "bon": 423,
      "pren": 424,
      "good": 425,
      "who": 426,
      "men": 427,
      "sor": 428,
      "pla": 429,
      "fer": 430,
      "car": 431,
      "more": 432,
      "fri": 433,
      "comment": 434,
      "ep": 435,
      "ied": 436,
      "where": 437,
      "when": 438,
      "vie": 439,
      "train": 440,
      "does": 441,
      "gar": 442,
      "trav": 443,
      "rais": 444,
      "from": 445,
      "voir": 446,
      "mmes": 447,
      "cer": 448,
      "ought": 449,
      "gi": 450,
      "read": 451,
      "coup": 452,
      "aller": 453,
      "sto": 454,
      "cela": 455,
      "br": 456,
      "mme": 457,
      "part": 458,
      "gent": 459,
      "dy": 460,
      "vis": 461,
      "ens": 462,
      "got": 463,
      "aime": 464,
      "ssi": 465,
      "nu": 466,
      "cr": 467,
      "help": 468,
      "red": 469,
      "than": 470,
      "take": 471,
      "aut": 472,
      "cro": 473,
      "please": 474,
      "new": 475,
      "arrive": 476,
      "vraiment": 477,
      "quelque": 478,
      "oun": 479,
      "avons": 480,
      "friend": 481,
      "ish": 482,
      "mu": 483,
      "tion": 484,
      "stu": 485,
      "elles": 486,
      "pare": 487,
      "puis": 488,
      "ak": 489,
      "fr": 490,
      "asse": 491,
      "wn": 492,
      "really": 493,
      "ide": 494,
      "but": 495,
      "heure": 496,
      "gu": 497,
      "jours": 498,
      "spe": 499,
      "ret": 500,
      "bes": 501,
      "mus": 502,
      "cher": 503,
      "rent": 504,
      "ors": 505,
      "been": 506,
      "tous": 507,
      "appe": 508,
      "ange": 509,
      "liv": 510,
      "ree": 511,
      "seu": 512,
      "aid": 513,
      "sel": 514,
      "never": 515,
      "hu": 516,
      "sed": 517,
      "dif": 518,
      "lement": 519,
      "proble": 520,
      "bu": 521,
      "cour": 522,
      "ack": 523,
      "bus": 524,
      "peut": 525,
      "ey": 526,
      "ger": 527,
      "fa": 528,
      "ting": 529,
      "pere": 530,
      "cle": 531,
      "sommes": 532,
      "peu": 533,
      "talk": 534,
      "aine": 535,
      "too": 536,
      "lit": 537,
      "ise": 538,
      "something": 539,
      "personne": 540,
      "ache": 541,
      "sure": 542,
      "oin": 543,
      "besoin": 544,
      "sent": 545,
      "alle": 546,
      "aux": 547,
      "mat": 548,
      "bre": 549,
      "va": 550,
      "mor": 551,
      "beaucoup": 552,
      "home": 553,
      "happen": 554,
      "right": 555,
      "ol": 556,
      "travail": 557,
      "ire": 558,
      "sou": 559,
      "iture": 560,
      "ct": 561,
      "ions": 562,
      "avant": 563,
      "make": 564,
      "much": 565,
      "vais": 566,
      "int": 567,
      "feel": 568,
      "devr": 569,
      "ph": 570,
      "rien": 571,
      "parti": 572,
      "quelqu": 573,
      "comme": 574,
      "fais": 575,
      "eat": 576,
      "book": 577,
      "sem": 578,
      "leur": 579,
      "vien": 580,
      "ded": 581,
      "parler": 582,
      "wo": 583,
      "cor": 584,
      "conn": 585,
      "quest": 586,
      "inte": 587,
      "ins": 588,
      "ty": 589,
      "self": 590,
      "mal": 591,
      "trop": 592,
      "ants": 593,
      "meme": 594,
      "maison": 595,
      "ound": 596,
      "deux": 597,
      "thought": 598,
      "sup": 599,
      "row": 600,
      "lot": 601,
      "ante": 602,
      "nouve": 603,
      "money": 604,
      "pouv": 605,
      "atten": 606,
      "oc": 607,
      "aimer": 608,
      "avait": 609,
      "argent": 610,
      "back": 611,
      "bet": 612,
      "core": 613,
      "ful": 614,
      "ers": 615,
      "etais": 616,
      "body": 617,
      "avais": 618,
      "fois": 619,
      "sit": 620,
      "anything": 621,
      "wat": 622,
      "monde": 623,
      "vu": 624,
      "try": 625,
      "love": 626,
      "quand": 627,
      "toujours": 628,
      "last": 629,
      "encore": 630,
      "ic": 631,
      "porte": 632,
      "pet": 633,
      "tot": 634,
      "care": 635,
      "ieux": 636,
      "faut": 637,
      "soit": 638,
      "won": 639,
      "enf": 640,
      "ction": 641,
      "ild": 642,
      "pose": 643,
      "other": 644,
      "jou": 645,
      "off": 646,
      "passe": 647,
      "om": 648,
      "aient": 649,
      "give": 650,
      "ough": 651,
      "nee": 652,
      "prendre": 653,
      "lez": 654,
      "eu": 655,
      "may": 656,
      "met": 657,
      "fore": 658,
      "ople": 659,
      "must": 660,
      "ame": 661,
      "ouse": 662,
      "under": 663,
      "people": 664,
      "arre": 665,
      "autre": 666,
      "again": 667,
      "entre": 668,
      "ess": 669,
      "tement": 670,
      "went": 671,
      "stand": 672,
      "cau": 673,
      "ra": 674,
      "made": 675,
      "ves": 676,
      "pay": 677,
      "tent": 678,
      "ence": 679,
      "tele": 680,
      "quelle": 681,
      "clo": 682,
      "py": 683,
      "voiture": 684,
      "cole": 685,
      "chez": 686,
      "belie": 687,
      "laisse": 688,
      "aimerais": 689,
      "venir": 690,
      "doesn": 691,
      "ese": 692,
      "many": 693,
      "jap": 694,
      "tor": 695,
      "ars": 696,
      "dois": 697,
      "mande": 698,
      "dev": 699,
      "sion": 700,
      "impor": 701,
      "speak": 702,
      "aussi": 703,
      "cre": 704,
      "tle": 705,
      "old": 706,
      "plan": 707,
      "combien": 708,
      "ning": 709,
      "ouvez": 710,
      "pri": 711,
      "stay": 712,
      "believe": 713,
      "pon": 714,
      "room": 715,
      "enten": 716,
      "tur": 717,
      "juste": 718,
      "told": 719,
      "emp": 720,
      "wr": 721,
      "hier": 722,
      "grand": 723,
      "sho": 724,
      "interes": 725,
      "aider": 726,
      "ob": 727,
      "din": 728,
      "lis": 729,
      "anger": 730,
      "over": 731,
      "pouvez": 732,
      "cert": 733,
      "simp": 734,
      "mainten": 735,
      "happy": 736,
      "them": 737,
      "cri": 738,
      "connais": 739,
      "fam": 740,
      "ach": 741,
      "bro": 742,
      "pend": 743,
      "play": 744,
      "ind": 745,
      "better": 746,
      "maintenant": 747,
      "stop": 748,
      "house": 749,
      "ouver": 750,
      "night": 751,
      "semble": 752,
      "ati": 753,
      "appre": 754,
      "after": 755,
      "child": 756,
      "paren": 757,
      "kes": 758,
      "down": 759,
      "said": 760,
      "mber": 761,
      "ready": 762,
      "put": 763,
      "tru": 764,
      "only": 765,
      "port": 766,
      "ways": 767,
      "etu": 768,
      "job": 769,
      "toutes": 770,
      "cha": 771,
      "plait": 772,
      "essay": 773,
      "today": 774,
      "diffi": 775,
      "demande": 776,
      "before": 777,
      "cie": 778,
      "apres": 779,
      "scho": 780,
      "aur": 781,
      "still": 782,
      "phone": 783,
      "school": 784,
      "well": 785,
      "hui": 786,
      "father": 787,
      "gre": 788,
      "tant": 789,
      "whi": 790,
      "mag": 791,
      "always": 792,
      "pensais": 793,
      "contre": 794,
      "hab": 795,
      "aujour": 796,
      "aujourd": 797,
      "king": 798,
      "donne": 799,
      "ole": 800,
      "leave": 801,
      "hand": 802,
      "ja": 803,
      "low": 804,
      "rendre": 805,
      "ures": 806,
      "change": 807,
      "ester": 808,
      "notre": 809,
      "livre": 810,
      "orrow": 811,
      "moment": 812,
      "sis": 813,
      "ft": 814,
      "gen": 815,
      "star": 816,
      "pos": 817,
      "yez": 818,
      "ned": 819,
      "occu": 820,
      "commen": 821,
      "hav": 822,
      "nes": 823,
      "eng": 824,
      "trouve": 825,
      "marie": 826,
      "sp": 827,
      "dec": 828,
      "pie": 829,
      "voulez": 830,
      "hur": 831,
      "late": 832,
      "live": 833,
      "parents": 834,
      "ek": 835,
      "seul": 836,
      "little": 837,
      "ston": 838,
      "regar": 839,
      "ever": 840,
      "cul": 841,
      "fai": 842,
      "deja": 843,
      "question": 844,
      "table": 845,
      "alone": 846,
      "ms": 847,
      "mieux": 848,
      "boston": 849,
      "two": 850,
      "yester": 851,
      "yesterday": 852,
      "ique": 853,
      "keep": 854,
      "tez": 855,
      "oub": 856,
      "everything": 857,
      "vent": 858,
      "reg": 859,
      "week": 860,
      "assez": 861,
      "call": 862,
      "urs": 863,
      "anc": 864,
      "wait": 865,
      "dog": 866,
      "doing": 867,
      "hear": 868,
      "mand": 869,
      "fir": 870,
      "reme": 871,
      "vers": 872,
      "ecole": 873,
      "hard": 874,
      "venu": 875,
      "auc": 876,
      "ture": 877,
      "sans": 878,
      "tra": 879,
      "fas": 880,
      "happened": 881,
      "cont": 882,
      "ear": 883,
      "leep": 884,
      "ity": 885,
      "voul": 886,
      "cus": 887,
      "mbre": 888,
      "understand": 889,
      "sait": 890,
      "lors": 891,
      "demain": 892,
      "ense": 893,
      "ask": 894,
      "cident": 895,
      "fut": 896,
      "chien": 897,
      "parle": 898,
      "friends": 899,
      "cat": 900,
      "drink": 901,
      "devrais": 902,
      "saw": 903,
      "place": 904,
      "simplement": 905,
      "hed": 906,
      "pourr": 907,
      "bonne": 908,
      "tomorrow": 909,
      "aille": 910,
      "anted": 911,
      "find": 912,
      "aide": 913,
      "sens": 914,
      "poli": 915,
      "into": 916,
      "came": 917,
      "bou": 918,
      "toute": 919,
      "vre": 920,
      "left": 921,
      "vit": 922,
      "bed": 923,
      "ami": 924,
      "cent": 925,
      "most": 926,
      "ff": 927,
      "inter": 928,
      "meet": 929,
      "enough": 930,
      "accident": 931,
      "gens": 932,
      "wanted": 933,
      "homme": 934,
      "mere": 935,
      "isn": 936,
      "ign": 937,
      "sorry": 938,
      "enfants": 939,
      "deci": 940,
      "ze": 941,
      "ceci": 942,
      "surpris": 943,
      "xt": 944,
      "manger": 945,
      "sing": 946,
      "even": 947,
      "savoir": 948,
      "ried": 949,
      "wer": 950,
      "gir": 951,
      "desole": 952,
      "fac": 953,
      "ped": 954,
      "pt": 955,
      "nuit": 956,
      "cal": 957,
      "asked": 958,
      "point": 959,
      "probleme": 960,
      "ez": 961,
      "mine": 962,
      "fun": 963,
      "str": 964,
      "nothing": 965,
      "mother": 966,
      "petit": 967,
      "dres": 968,
      "these": 969,
      "cons": 970,
      "ris": 971,
      "heures": 972,
      "buy": 973,
      "veu": 974,
      "diffe": 975,
      "girl": 976,
      "away": 977,
      "ru": 978,
      "vos": 979,
      "partir": 980,
      "rest": 981,
      "rite": 982,
      "done": 983,
      "ele": 984,
      "rer": 985,
      "amer": 986,
      "cause": 987,
      "ado": 988,
      "run": 989,
      "soir": 990,
      "tri": 991,
      "ager": 992,
      "ince": 993,
      "hope": 994,
      "etudi": 995,
      "next": 996,
      "acher": 997,
      "souv": 998,
      "ary": 999,
      "repon": 1000,
      "plu": 1001,
      "fre": 1002,
      "chau": 1003,
      "cet": 1004,
      "montre": 1005,
      "mind": 1006,
      "cas": 1007,
      "op": 1008,
      "erre": 1009,
      "engl": 1010,
      "life": 1011,
      "fel": 1012,
      "voudr": 1013,
      "remember": 1014,
      "voy": 1015,
      "door": 1016,
      "viens": 1017,
      "dro": 1018,
      "being": 1019,
      "side": 1020,
      "habit": 1021,
      "jet": 1022,
      "ffe": 1023,
      "first": 1024,
      "ved": 1025,
      "bor": 1026,
      "ier": 1027,
      "dern": 1028,
      "ssible": 1029,
      "bles": 1030,
      "trois": 1031,
      "watch": 1032,
      "anyone": 1033,
      "occupe": 1034,
      "pho": 1035,
      "illes": 1036,
      "rez": 1037,
      "die": 1038,
      "pain": 1039,
      "sleep": 1040,
      "aurais": 1041,
      "chance": 1042,
      "their": 1043,
      "problem": 1044,
      "rou": 1045,
      "quit": 1046,
      "rencontre": 1047,
      "mil": 1048,
      "demand": 1049,
      "everyone": 1050,
      "quelques": 1051,
      "cap": 1052,
      "lic": 1053,
      "pret": 1054,
      "ali": 1055,
      "mange": 1056,
      "croire": 1057,
      "wrong": 1058,
      "prie": 1059,
      "things": 1060,
      "cess": 1061,
      "conse": 1062,
      "jeun": 1063,
      "faites": 1064,
      "igno": 1065,
      "soon": 1066,
      "certain": 1067,
      "show": 1068,
      "photo": 1069,
      "dou": 1070,
      "open": 1071,
      "busy": 1072,
      "children": 1073,
      "non": 1074,
      "espere": 1075,
      "aise": 1076,
      "ros": 1077,
      "fon": 1078,
      "boy": 1079,
      "fat": 1080,
      "ight": 1081,
      "ose": 1082,
      "franc": 1083,
      "win": 1084,
      "took": 1085,
      "without": 1086,
      "soyez": 1087,
      "trouver": 1088,
      "act": 1089,
      "bi": 1090,
      "dur": 1091,
      "choses": 1092,
      "english": 1093,
      "entendu": 1094,
      "ky": 1095,
      "voulais": 1096,
      "fille": 1097,
      "rench": 1098,
      "french": 1099,
      "three": 1100,
      "heureux": 1101,
      "nouveau": 1102,
      "lar": 1103,
      "heard": 1104,
      "tel": 1105,
      "veut": 1106,
      "gave": 1107,
      "ches": 1108,
      "teacher": 1109,
      "coun": 1110,
      "mit": 1111,
      "rain": 1112,
      "œur": 1113,
      "condu": 1114,
      "bad": 1115,
      "attent": 1116,
      "present": 1117,
      "sorti": 1118,
      "derniere": 1119,
      "fort": 1120,
      "sat": 1121,
      "seen": 1122,
      "sois": 1123,
      "anglais": 1124,
      "idee": 1125,
      "clas": 1126,
      "kind": 1127,
      "lang": 1128,
      "rester": 1129,
      "water": 1130,
      "name": 1131,
      "dio": 1132,
      "amis": 1133,
      "accor": 1134,
      "japan": 1135,
      "yet": 1136,
      "couldn": 1137,
      "japon": 1138,
      "ques": 1139,
      "suppose": 1140,
      "raison": 1141,
      "big": 1142,
      "dor": 1143,
      "reste": 1144,
      "lost": 1145,
      "ale": 1146,
      "dri": 1147,
      "used": 1148,
      "francais": 1149,
      "cl": 1150,
      "teur": 1151,
      "telle": 1152,
      "ats": 1153,
      "sec": 1154,
      "police": 1155,
      "id": 1156,
      "vite": 1157,
      "telephone": 1158,
      "same": 1159,
      "gla": 1160,
      "war": 1161,
      "ande": 1162,
      "years": 1163,
      "pendant": 1164,
      "walk": 1165,
      "looking": 1166,
      "important": 1167,
      "eau": 1168,
      "beg": 1169,
      "wed": 1170,
      "questions": 1171,
      "idea": 1172,
      "emb": 1173,
      "tired": 1174,
      "pic": 1175,
      "produ": 1176,
      "vois": 1177,
      "wish": 1178,
      "aper": 1179,
      "seule": 1180,
      "ies": 1181,
      "cham": 1182,
      "ath": 1183,
      "vez": 1184,
      "ily": 1185,
      "found": 1186,
      "quer": 1187,
      "ju": 1188,
      "lear": 1189,
      "utes": 1190,
      "turn": 1191,
      "already": 1192,
      "its": 1193,
      "lun": 1194,
      "nez": 1195,
      "nom": 1196,
      "depuis": 1197,
      "donner": 1198,
      "best": 1199,
      "rap": 1200,
      "answer": 1201,
      "nombre": 1202,
      "sig": 1203,
      "prob": 1204,
      "light": 1205,
      "eas": 1206,
      "hon": 1207,
      "suc": 1208,
      "lles": 1209,
      "mau": 1210,
      "yourself": 1211,
      "morning": 1212,
      "ital": 1213,
      "doc": 1214,
      "jusqu": 1215,
      "minutes": 1216,
      "someone": 1217,
      "piece": 1218,
      "sister": 1219,
      "acce": 1220,
      "mettre": 1221,
      "while": 1222,
      "ber": 1223,
      "cold": 1224,
      "merci": 1225,
      "days": 1226,
      "matter": 1227,
      "lorsque": 1228,
      "bla": 1229,
      "boi": 1230,
      "study": 1231,
      "peur": 1232,
      "party": 1233,
      "appreci": 1234,
      "dez": 1235,
      "led": 1236,
      "prefe": 1237,
      "dra": 1238,
      "haven": 1239,
      "chambre": 1240,
      "az": 1241,
      "ecri": 1242,
      "tour": 1243,
      "youn": 1244,
      "pourrais": 1245,
      "great": 1246,
      "meille": 1247,
      "etr": 1248,
      "exp": 1249,
      "ving": 1250,
      "reve": 1251,
      "dejeun": 1252,
      "femme": 1253,
      "cile": 1254,
      "often": 1255,
      "bit": 1256,
      "around": 1257,
      "ations": 1258,
      "crit": 1259,
      "student": 1260,
      "ignore": 1261,
      "afr": 1262,
      "den": 1263,
      "knew": 1264,
      "wasn": 1265,
      "avantage": 1266,
      "ated": 1267,
      "na": 1268,
      "uses": 1269,
      "might": 1270,
      "mpe": 1271,
      "indre": 1272,
      "married": 1273,
      "sera": 1274,
      "arr": 1275,
      "eg": 1276,
      "aie": 1277,
      "less": 1278,
      "proch": 1279,
      "brother": 1280,
      "rappe": 1281,
      "lire": 1282,
      "compren": 1283,
      "pouvons": 1284,
      "accord": 1285,
      "mise": 1286,
      "fau": 1287,
      "sau": 1288,
      "once": 1289,
      "miere": 1290,
      "difficile": 1291,
      "adore": 1292,
      "dejeuner": 1293,
      "val": 1294,
      "fete": 1295,
      "prof": 1296,
      "comple": 1297,
      "thank": 1298,
      "contin": 1299,
      "perdu": 1300,
      "afraid": 1301,
      "moins": 1302,
      "arrete": 1303,
      "listen": 1304,
      "fatig": 1305,
      "imag": 1306,
      "fast": 1307,
      "char": 1308,
      "aren": 1309,
      "myself": 1310,
      "crois": 1311,
      "far": 1312,
      "set": 1313,
      "attention": 1314,
      "ished": 1315,
      "nice": 1316,
      "leurs": 1317,
      "rions": 1318,
      "illez": 1319,
      "cted": 1320,
      "davantage": 1321,
      "coming": 1322,
      "letter": 1323,
      "retard": 1324,
      "souvent": 1325,
      "few": 1326,
      "util": 1327,
      "year": 1328,
      "stupi": 1329,
      "tard": 1330,
      "such": 1331,
      "commence": 1332,
      "hour": 1333,
      "else": 1334,
      "lat": 1335,
      "swi": 1336,
      "etaient": 1337,
      "times": 1338,
      "gry": 1339,
      "bat": 1340,
      "fil": 1341,
      "sujet": 1342,
      "achete": 1343,
      "matin": 1344,
      "difficul": 1345,
      "gare": 1346,
      "uni": 1347,
      "expe": 1348,
      "getting": 1349,
      "kyo": 1350,
      "ville": 1351,
      "semaine": 1352,
      "lon": 1353,
      "since": 1354,
      "mala": 1355,
      "food": 1356,
      "inst": 1357,
      "penses": 1358,
      "sy": 1359,
      "ste": 1360,
      "dites": 1361,
      "impres": 1362,
      "fall": 1363,
      "ages": 1364,
      "talking": 1365,
      "oublie": 1366,
      "acheter": 1367,
      "swim": 1368,
      "pourrait": 1369,
      "secret": 1370,
      "mort": 1371,
      "aucun": 1372,
      "glad": 1373,
      "mean": 1374,
      "vient": 1375,
      "retour": 1376,
      "hurt": 1377,
      "ef": 1378,
      "exam": 1379,
      "looks": 1380,
      "jouer": 1381,
      "apprecie": 1382,
      "ref": 1383,
      "autres": 1384,
      "iste": 1385,
      "possible": 1386,
      "wants": 1387,
      "travailler": 1388,
      "sortir": 1389,
      "sant": 1390,
      "hor": 1391,
      "travaille": 1392,
      "mir": 1393,
      "early": 1394,
      "another": 1395,
      "full": 1396,
      "ken": 1397,
      "sun": 1398,
      "jeune": 1399,
      "ech": 1400,
      "coute": 1401,
      "ious": 1402,
      "write": 1403,
      "conque": 1404,
      "beauti": 1405,
      "longtemps": 1406,
      "voudrais": 1407,
      "face": 1408,
      "frere": 1409,
      "passer": 1410,
      "sui": 1411,
      "because": 1412,
      "fatigue": 1413,
      "00": 1414,
      "bas": 1415,
      "yeux": 1416,
      "chaque": 1417,
      "voi": 1418,
      "young": 1419,
      "presque": 1420,
      "beautiful": 1421,
      "bought": 1422,
      "velo": 1423,
      "books": 1424,
      "danger": 1425,
      "gros": 1426,
      "habitu": 1427,
      "nour": 1428,
      "dont": 1429,
      "cket": 1430,
      "doctor": 1431,
      "hate": 1432,
      "dix": 1433,
      "sons": 1434,
      "feu": 1435,
      "vice": 1436,
      "break": 1437,
      "dinner": 1438,
      "which": 1439,
      "nis": 1440,
      "confi": 1441,
      "joy": 1442,
      "real": 1443,
      "word": 1444,
      "imme": 1445,
      "own": 1446,
      "true": 1447,
      "tenir": 1448,
      "died": 1449,
      "nei": 1450,
      "arriver": 1451,
      "veuillez": 1452,
      "tellement": 1453,
      "sol": 1454,
      "enfant": 1455,
      "smo": 1456,
      "lt": 1457,
      "conv": 1458,
      "everybody": 1459,
      "aucune": 1460,
      "ding": 1461,
      "esse": 1462,
      "plain": 1463,
      "lettre": 1464,
      "writ": 1465,
      "vue": 1466,
      "toire": 1467,
      "ges": 1468,
      "grande": 1469,
      "alement": 1470,
      "sante": 1471,
      "hotel": 1472,
      "hun": 1473,
      "lent": 1474,
      "infor": 1475,
      "forget": 1476,
      "nouvelle": 1477,
      "tried": 1478,
      "devriez": 1479,
      "oked": 1480,
      "enjoy": 1481,
      "sez": 1482,
      "cin": 1483,
      "gag": 1484,
      "pat": 1485,
      "ani": 1486,
      "choi": 1487,
      "journee": 1488,
      "sœur": 1489,
      "cafe": 1490,
      "world": 1491,
      "bir": 1492,
      "gne": 1493,
      "vac": 1494,
      "almost": 1495,
      "pensez": 1496,
      "entendre": 1497,
      "necess": 1498,
      "exper": 1499,
      "partie": 1500,
      "heureuse": 1501,
      "regarde": 1502,
      "cti": 1503,
      "uit": 1504,
      "fol": 1505,
      "prends": 1506,
      "wonder": 1507,
      "hors": 1508,
      "cours": 1509,
      "cut": 1510,
      "gue": 1511,
      "sus": 1512,
      "knows": 1513,
      "art": 1514,
      "diction": 1515,
      "both": 1516,
      "careful": 1517,
      "semb": 1518,
      "station": 1519,
      "felt": 1520,
      "cout": 1521,
      "ile": 1522,
      "toge": 1523,
      "together": 1524,
      "sk": 1525,
      "ances": 1526,
      "vas": 1527,
      "tete": 1528,
      "coffe": 1529,
      "tennis": 1530,
      "porter": 1531,
      "ot": 1532,
      "those": 1533,
      "ience": 1534,
      "livres": 1535,
      "sal": 1536,
      "doit": 1537,
      "rentre": 1538,
      "savez": 1539,
      "head": 1540,
      "vol": 1541,
      "coffee": 1542,
      "ball": 1543,
      "trus": 1544,
      "aw": 1545,
      "ments": 1546,
      "wouldn": 1547,
      "attend": 1548,
      "fini": 1549,
      "meeting": 1550,
      "dress": 1551,
      "differen": 1552,
      "satis": 1553,
      "gone": 1554,
      "sous": 1555,
      "ycle": 1556,
      "diate": 1557,
      "petite": 1558,
      "tal": 1559,
      "etiez": 1560,
      "visit": 1561,
      "senti": 1562,
      "iser": 1563,
      "alors": 1564,
      "chat": 1565,
      "famille": 1566,
      "joue": 1567,
      "ather": 1568,
      "nat": 1569,
      "med": 1570,
      "seems": 1571,
      "tonight": 1572,
      "soi": 1573,
      "yer": 1574,
      "illa": 1575,
      "allons": 1576,
      "propos": 1577,
      "atient": 1578,
      "essayer": 1579,
      "ank": 1580,
      "anymore": 1581,
      "turned": 1582,
      "each": 1583,
      "devoir": 1584,
      "lier": 1585,
      "immediate": 1586,
      "allez": 1587,
      "laissez": 1588,
      "mauvais": 1589,
      "tee": 1590,
      "cuis": 1591,
      "attendre": 1592,
      "arreter": 1593,
      "prepare": 1594,
      "histoire": 1595,
      "family": 1596,
      "prefere": 1597,
      "bure": 1598,
      "ist": 1599,
      "chant": 1600,
      "verite": 1601,
      "luck": 1602,
      "devons": 1603,
      "started": 1604,
      "langu": 1605,
      "sour": 1606,
      "finished": 1607,
      "situ": 1608,
      "bl": 1609,
      "annee": 1610,
      "sm": 1611,
      "bureau": 1612,
      "marche": 1613,
      "serais": 1614,
      "pru": 1615,
      "spend": 1616,
      "cook": 1617,
      "ferme": 1618,
      "looked": 1619,
      "truth": 1620,
      "decis": 1621,
      "bic": 1622,
      "garcon": 1623,
      "medi": 1624,
      "sug": 1625,
      "televis": 1626,
      "doll": 1627,
      "prison": 1628,
      "working": 1629,
      "bout": 1630,
      "free": 1631,
      "likes": 1632,
      "ainsi": 1633,
      "bag": 1634,
      "lait": 1635,
      "ente": 1636,
      "maniere": 1637,
      "accep": 1638,
      "serai": 1639,
      "trou": 1640,
      "fier": 1641,
      "importe": 1642,
      "voyage": 1643,
      "offi": 1644,
      "takes": 1645,
      "decide": 1646,
      "refu": 1647,
      "wife": 1648,
      "sage": 1649,
      "ained": 1650,
      ".\"": 1651,
      "ps": 1652,
      "ussi": 1653,
      "plais": 1654,
      "anybody": 1655,
      "tance": 1656,
      "iness": 1657,
      "devez": 1658,
      "lau": 1659,
      "advis": 1660,
      "demander": 1661,
      "enne": 1662,
      "sick": 1663,
      "fig": 1664,
      "dispose": 1665,
      "vivre": 1666,
      "eyes": 1667,
      "bicycle": 1668,
      "fit": 1669,
      "ran": 1670,
      "colle": 1671,
      "avor": 1672,
      "termine": 1673,
      "sort": 1674,
      "learn": 1675,
      "pian": 1676,
      "vieux": 1677,
      "colere": 1678,
      "medec": 1679,
      "contr": 1680,
      "posit": 1681,
      "close": 1682,
      "voulait": 1683,
      "pretty": 1684,
      "savais": 1685,
      "key": 1686,
      "different": 1687,
      "cur": 1688,
      "favor": 1689,
      "nobody": 1690,
      "col": 1691,
      "dir": 1692,
      "pub": 1693,
      "nor": 1694,
      "ute": 1695,
      "ateau": 1696,
      "teste": 1697,
      "shouldn": 1698,
      "easy": 1699,
      "test": 1700,
      "ced": 1701,
      "celui": 1702,
      "nos": 1703,
      "weather": 1704,
      "six": 1705,
      "quiconque": 1706,
      "derni": 1707,
      "impo": 1708,
      "ames": 1709,
      "serait": 1710,
      "compte": 1711,
      "having": 1712,
      "restaur": 1713,
      "ecrire": 1714,
      "malade": 1715,
      "loi": 1716,
      "ene": 1717,
      "tokyo": 1718,
      "trouv": 1719,
      "mier": 1720,
      "lunch": 1721,
      "boire": 1722,
      "comprends": 1723,
      "figure": 1724,
      "usu": 1725,
      "app": 1726,
      "dow": 1727,
      "logi": 1728,
      "quite": 1729,
      "personnes": 1730,
      "reading": 1731,
      "essaye": 1732,
      "start": 1733,
      "waiting": 1734,
      "four": 1735,
      "ordin": 1736,
      "cote": 1737,
      "amie": 1738,
      "regarder": 1739,
      "nager": 1740,
      "union": 1741,
      "acti": 1742,
      "excus": 1743,
      "television": 1744,
      "ensemble": 1745,
      "nourr": 1746,
      "ace": 1747,
      "sil": 1748,
      "lique": 1749,
      "exact": 1750,
      "guy": 1751,
      "connait": 1752,
      "window": 1753,
      "situation": 1754,
      "hair": 1755,
      "ellement": 1756,
      "high": 1757,
      "trying": 1758,
      "rough": 1759,
      "tombe": 1760,
      "poser": 1761,
      "makes": 1762,
      "comprendre": 1763,
      "froid": 1764,
      "feeling": 1765,
      "reux": 1766,
      "deteste": 1767,
      "assis": 1768,
      "apprendre": 1769,
      "longer": 1770,
      "ferais": 1771,
      "ener": 1772,
      "near": 1773,
      "belle": 1774,
      "venue": 1775,
      "decision": 1776,
      "fils": 1777,
      "actu": 1778,
      "mot": 1779,
      "bring": 1780,
      "pouvoir": 1781,
      "film": 1782,
      "lou": 1783,
      "conduire": 1784,
      "alth": 1785,
      "suff": 1786,
      "appro": 1787,
      "terri": 1788,
      "agree": 1789,
      "endro": 1790,
      "suppo": 1791,
      "obli": 1792,
      "fish": 1793,
      "xi": 1794,
      "envie": 1795,
      "wear": 1796,
      "devrions": 1797,
      "fen": 1798,
      "reas": 1799,
      "exac": 1800,
      "seem": 1801,
      "visite": 1802,
      "intent": 1803,
      "boulot": 1804,
      "drive": 1805,
      "piano": 1806,
      "nourriture": 1807,
      "har": 1808,
      "til": 1809,
      "ward": 1810,
      "respe": 1811,
      "fire": 1812,
      "premier": 1813,
      "corre": 1814,
      "ade": 1815,
      "em": 1816,
      "worry": 1817,
      "affaire": 1818,
      "lieu": 1819,
      "guess": 1820,
      "restaurant": 1821,
      "bar": 1822,
      "ident": 1823,
      "mour": 1824,
      "iller": 1825,
      "journ": 1826,
      "autant": 1827,
      "road": 1828,
      "bientot": 1829,
      "drai": 1830,
      "seulement": 1831,
      "ameri": 1832,
      "ny": 1833,
      "pap": 1834,
      "tv": 1835,
      "vin": 1836,
      "ennu": 1837,
      "attr": 1838,
      "ghter": 1839,
      "caught": 1840,
      "small": 1841,
      "net": 1842,
      "pass": 1843,
      "chin": 1844,
      "bois": 1845,
      "prit": 1846,
      "lives": 1847,
      "pourriez": 1848,
      "cli": 1849,
      "cine": 1850,
      "ecrit": 1851,
      "spo": 1852,
      "town": 1853,
      "until": 1854,
      "sive": 1855,
      "advice": 1856,
      "chemin": 1857,
      "iens": 1858,
      "japanese": 1859,
      "impression": 1860,
      "reussi": 1861,
      "solu": 1862,
      "alled": 1863,
      "broke": 1864,
      "loin": 1865,
      "cial": 1866,
      "mois": 1867,
      "cuse": 1868,
      "midi": 1869,
      "reunion": 1870,
      "terre": 1871,
      "surprised": 1872,
      "opin": 1873,
      "confiance": 1874,
      "vir": 1875,
      "mission": 1876,
      "reponse": 1877,
      "students": 1878,
      "trust": 1879,
      "fou": 1880,
      "idio": 1881,
      "ras": 1882,
      "ss": 1883,
      "aban": 1884,
      "ables": 1885,
      "desolee": 1886,
      "difficult": 1887,
      "trouble": 1888,
      "advised": 1889,
      "sures": 1890,
      "diner": 1891,
      "class": 1892,
      "inform": 1893,
      "called": 1894,
      "story": 1895,
      "consci": 1896,
      "rapide": 1897,
      "probable": 1898,
      "sum": 1899,
      "dream": 1900,
      "ecout": 1901,
      "iner": 1902,
      "mets": 1903,
      "yours": 1904,
      "serious": 1905,
      "fic": 1906,
      "equi": 1907,
      "thinking": 1908,
      "mains": 1909,
      "ative": 1910,
      "hurry": 1911,
      "regard": 1912,
      "professe": 1913,
      "chan": 1914,
      "amment": 1915,
      "penser": 1916,
      "stupid": 1917,
      "cked": 1918,
      "resu": 1919,
      "trans": 1920,
      "laisser": 1921,
      "music": 1922,
      "devrait": 1923,
      "erreur": 1924,
      "appreciate": 1925,
      "bur": 1926,
      "hot": 1927,
      "movie": 1928,
      "minute": 1929,
      "endroit": 1930,
      "intention": 1931,
      "cry": 1932,
      "noon": 1933,
      "discu": 1934,
      "clean": 1935,
      "pays": 1936,
      "medecin": 1937,
      "gs": 1938,
      "ient": 1939,
      "chi": 1940,
      "content": 1941,
      "shor": 1942,
      "playing": 1943,
      "facile": 1944,
      "cs": 1945,
      "chine": 1946,
      "ateur": 1947,
      "exactement": 1948,
      "ieur": 1949,
      "contro": 1950,
      "forgot": 1951,
      "himself": 1952,
      "pleure": 1953,
      "mistake": 1954,
      "picture": 1955,
      "ake": 1956,
      "bil": 1957,
      "rece": 1958,
      "aires": 1959,
      "ating": 1960,
      "hours": 1961,
      "position": 1962,
      "zed": 1963,
      "pouvais": 1964,
      "dormir": 1965,
      "angry": 1966,
      "month": 1967,
      "premiere": 1968,
      "miss": 1969,
      "eating": 1970,
      "refle": 1971,
      "ago": 1972,
      "pons": 1973,
      "uf": 1974,
      "through": 1975,
      "rir": 1976,
      "manque": 1977,
      "meilleur": 1978,
      "grow": 1979,
      "super": 1980,
      "chois": 1981,
      "radio": 1982,
      "dollars": 1983,
      "office": 1984,
      "dau": 1985,
      "vert": 1986,
      "discus": 1987,
      "prix": 1988,
      "glas": 1989,
      "recu": 1990,
      "leve": 1991,
      "pois": 1992,
      "cheveux": 1993,
      "sign": 1994,
      "gest": 1995,
      "ping": 1996,
      "esp": 1997,
      "indi": 1998,
      "secon": 1999,
      "business": 2000,
      "shop": 2001,
      "catch": 2002,
      "chaus": 2003,
      "fell": 2004,
      "dernier": 2005,
      "pes": 2006,
      "dom": 2007,
      "says": 2008,
      "number": 2009,
      "etudier": 2010,
      "reason": 2011,
      "sac": 2012,
      "dessus": 2013,
      "hip": 2014,
      "souh": 2015,
      "follow": 2016,
      "thir": 2017,
      "aupar": 2018,
      "popu": 2019,
      "promis": 2020,
      "musique": 2021,
      "plutot": 2022,
      "professeur": 2023,
      "auparavant": 2024,
      "adu": 2025,
      "exce": 2026,
      "puisse": 2027,
      "aurait": 2028,
      "continu": 2029,
      "suffis": 2030,
      "hat": 2031,
      "then": 2032,
      "resse": 2033,
      "verre": 2034,
      "tire": 2035,
      "ticket": 2036,
      "mari": 2037,
      "arrived": 2038,
      "type": 2039,
      "opinion": 2040,
      "dead": 2041,
      "itu": 2042,
      "apo": 2043,
      "peuvent": 2044,
      "against": 2045,
      "interesting": 2046,
      "rencontrer": 2047,
      "kis": 2048,
      "mas": 2049,
      "vant": 2050,
      "ition": 2051,
      "saying": 2052,
      "cinq": 2053,
      "exactly": 2054,
      "aite": 2055,
      "rich": 2056,
      "prin": 2057,
      "anne": 2058,
      "kept": 2059,
      "quiet": 2060,
      "hands": 2061,
      "somme": 2062,
      "amus": 2063,
      "agre": 2064,
      "supposed": 2065,
      "bab": 2066,
      "lli": 2067,
      "ains": 2068,
      "finish": 2069,
      "news": 2070,
      "homework": 2071,
      "oblige": 2072,
      "snow": 2073,
      "park": 2074,
      "clu": 2075,
      "eux": 2076,
      "fix": 2077,
      "nouvelles": 2078,
      "emplo": 2079,
      "begin": 2080,
      "prochaine": 2081,
      "dehors": 2082,
      "agit": 2083,
      "pleu": 2084,
      "fumer": 2085,
      "trip": 2086,
      "experience": 2087,
      "daughter": 2088,
      "ctu": 2089,
      "game": 2090,
      "marcher": 2091,
      "five": 2092,
      "company": 2093,
      "decided": 2094,
      "journal": 2095,
      "summer": 2096,
      "leav": 2097,
      "atre": 2098,
      "tomber": 2099,
      "hold": 2100,
      "front": 2101,
      "born": 2102,
      "convain": 2103,
      "health": 2104,
      "site": 2105,
      "living": 2106,
      "hit": 2107,
      "nent": 2108,
      "ably": 2109,
      "ched": 2110,
      "curite": 2111,
      "payer": 2112,
      "afternoon": 2113,
      "usually": 2114,
      "ron": 2115,
      "deli": 2116,
      "parce": 2117,
      "comes": 2118,
      "quick": 2119,
      "prenez": 2120,
      "safe": 2121,
      "appele": 2122,
      "ive": 2123,
      "sen": 2124,
      "wal": 2125,
      "foot": 2126,
      "case": 2127,
      "aimes": 2128,
      "chante": 2129,
      "poin": 2130,
      "interested": 2131,
      "chaud": 2132,
      "country": 2133,
      "reco": 2134,
      "tely": 2135,
      "prete": 2136,
      "classe": 2137,
      "nombreux": 2138,
      "immediatement": 2139,
      "city": 2140,
      "weren": 2141,
      "stre": 2142,
      "chercher": 2143,
      "pouvait": 2144,
      "devoirs": 2145,
      "impossible": 2146,
      "wine": 2147,
      "zz": 2148,
      "deal": 2149,
      "ites": 2150,
      "law": 2151,
      "tree": 2152,
      "etrange": 2153,
      "baby": 2154,
      "sav": 2155,
      "peine": 2156,
      "rend": 2157,
      "desor": 2158,
      "taking": 2159,
      "compl": 2160,
      "courage": 2161,
      "entrer": 2162,
      "univer": 2163,
      "ming": 2164,
      "uter": 2165,
      "invit": 2166,
      "rendu": 2167,
      "box": 2168,
      "emploi": 2169,
      "gener": 2170,
      "repondre": 2171,
      "capable": 2172,
      "fenetre": 2173,
      "hau": 2174,
      "ination": 2175,
      "rope": 2176,
      "lio": 2177,
      "intelli": 2178,
      "?\"": 2179,
      "fus": 2180,
      "patient": 2181,
      "ttes": 2182,
      "meur": 2183,
      "att": 2184,
      "ork": 2185,
      "trave": 2186,
      "conven": 2187,
      "moy": 2188,
      "promise": 2189,
      "faim": 2190,
      "blesse": 2191,
      "utiliser": 2192,
      "information": 2193,
      "equipe": 2194,
      "ki": 2195,
      "sider": 2196,
      "sty": 2197,
      "rappelle": 2198,
      "later": 2199,
      "blo": 2200,
      "york": 2201,
      "tic": 2202,
      "force": 2203,
      "cannot": 2204,
      "prend": 2205,
      "cherche": 2206,
      "ctionne": 2207,
      "large": 2208,
      "discuter": 2209,
      "ban": 2210,
      "concert": 2211,
      "propre": 2212,
      "venez": 2213,
      "girlfriend": 2214,
      "japonais": 2215,
      "instant": 2216,
      "bri": 2217,
      "dar": 2218,
      "reconnais": 2219,
      "making": 2220,
      "dispo": 2221,
      "clear": 2222,
      "lorsqu": 2223,
      "date": 2224,
      "pou": 2225,
      "pau": 2226,
      "tun": 2227,
      "suit": 2228,
      "suite": 2229,
      "consider": 2230,
      "cade": 2231,
      "computer": 2232,
      "funny": 2233,
      "respon": 2234,
      "lowed": 2235,
      "cloth": 2236,
      "prudent": 2237,
      "probablement": 2238,
      "dest": 2239,
      "ls": 2240,
      "rai": 2241,
      "cost": 2242,
      "become": 2243,
      "president": 2244,
      "prise": 2245,
      "prochain": 2246,
      "securite": 2247,
      "peau": 2248,
      "vide": 2249,
      "clock": 2250,
      "fully": 2251,
      "short": 2252,
      "len": 2253,
      "poi": 2254,
      "repare": 2255,
      "ises": 2256,
      "commencer": 2257,
      "produit": 2258,
      "continue": 2259,
      "habitude": 2260,
      "excuses": 2261,
      "hal": 2262,
      "land": 2263,
      "pa": 2264,
      "changer": 2265,
      "appris": 2266,
      "manche": 2267,
      "needs": 2268,
      "numer": 2269,
      "build": 2270,
      "smoking": 2271,
      "chanter": 2272,
      "cte": 2273,
      "whe": 2274,
      "team": 2275,
      "tenu": 2276,
      "sorte": 2277,
      "cru": 2278,
      "appeler": 2279,
      "genre": 2280,
      "probably": 2281,
      "apologi": 2282,
      "swe": 2283,
      "vont": 2284,
      "arme": 2285,
      "ieuse": 2286,
      "unk": 2287,
      "ignor": 2288,
      "surprise": 2289,
      "dge": 2290,
      "order": 2291,
      "respons": 2292,
      "accomp": 2293,
      "check": 2294,
      "dition": 2295,
      "join": 2296,
      "eaten": 2297,
      "watching": 2298,
      "birth": 2299,
      "street": 2300,
      "gun": 2301,
      "ling": 2302,
      "naire": 2303,
      "save": 2304,
      "oud": 2305,
      "souci": 2306,
      "woman": 2307,
      "attends": 2308,
      "shoes": 2309,
      "count": 2310,
      "dance": 2311,
      "flo": 2312,
      "tea": 2313,
      "sub": 2314,
      "illed": 2315,
      "touch": 2316,
      "airs": 2317,
      "works": 2318,
      "lation": 2319,
      "anni": 2320,
      "riche": 2321,
      "prote": 2322,
      "problemes": 2323,
      "langue": 2324,
      "completement": 2325,
      "dark": 2326,
      "veille": 2327,
      "excuse": 2328,
      "affai": 2329,
      "garde": 2330,
      "magas": 2331,
      "neige": 2332,
      "laugh": 2333,
      "cœur": 2334,
      "pous": 2335,
      "sci": 2336,
      "remar": 2337,
      "tente": 2338,
      "pleas": 2339,
      "words": 2340,
      "certaine": 2341,
      "occupee": 2342,
      "refuse": 2343,
      "rapidement": 2344,
      "outside": 2345,
      "conside": 2346,
      "hosp": 2347,
      "essaie": 2348,
      "strong": 2349,
      "30": 2350,
      "band": 2351,
      "invite": 2352,
      "arti": 2353,
      "org": 2354,
      "ween": 2355,
      "lose": 2356,
      "comm": 2357,
      "message": 2358,
      "changed": 2359,
      "etudiants": 2360,
      "souviens": 2361,
      "necessaire": 2362,
      "hind": 2363,
      "mur": 2364,
      "mien": 2365,
      "envir": 2366,
      "death": 2367,
      "ass": 2368,
      "ared": 2369,
      "prefer": 2370,
      "guit": 2371,
      "maybe": 2372,
      "expect": 2373,
      "difference": 2374,
      "desormais": 2375,
      "obe": 2376,
      "etions": 2377,
      "robe": 2378,
      "behind": 2379,
      "offer": 2380,
      "amou": 2381,
      "bruit": 2382,
      "charge": 2383,
      "choix": 2384,
      "affaires": 2385,
      "fie": 2386,
      "paper": 2387,
      "riere": 2388,
      "det": 2389,
      "arbre": 2390,
      "ette": 2391,
      "machine": 2392,
      "explain": 2393,
      "worth": 2394,
      "grou": 2395,
      "ferai": 2396,
      "craz": 2397,
      "honne": 2398,
      "clothes": 2399,
      "flow": 2400,
      "gy": 2401,
      "sound": 2402,
      "aig": 2403,
      "teau": 2404,
      "entend": 2405,
      "ush": 2406,
      "absent": 2407,
      "move": 2408,
      "viendra": 2409,
      "simple": 2410,
      "breakfast": 2411,
      "gagne": 2412,
      "favorite": 2413,
      "cit": 2414,
      "kill": 2415,
      "mait": 2416,
      "deb": 2417,
      "quatre": 2418,
      "avion": 2419,
      "sole": 2420,
      "concer": 2421,
      "polit": 2422,
      "perdre": 2423,
      "proud": 2424,
      "special": 2425,
      "voulons": 2426,
      "amies": 2427,
      "public": 2428,
      "result": 2429,
      "numero": 2430,
      "base": 2431,
      "plein": 2432,
      "needed": 2433,
      "etudie": 2434,
      "hungry": 2435,
      "chaussures": 2436,
      "quickly": 2437,
      "crazy": 2438,
      "bebe": 2439,
      "poste": 2440,
      "etranger": 2441,
      "imagine": 2442,
      "vacances": 2443,
      "ecoute": 2444,
      "smar": 2445,
      "decou": 2446,
      "somebody": 2447,
      "endor": 2448,
      "ifie": 2449,
      "garder": 2450,
      "occas": 2451,
      "stayed": 2452,
      "hospital": 2453,
      "amp": 2454,
      "dden": 2455,
      "kid": 2456,
      "pun": 2457,
      "revoir": 2458,
      "became": 2459,
      "termin": 2460,
      "fect": 2461,
      "store": 2462,
      "celle": 2463,
      "ayez": 2464,
      "soin": 2465,
      "lived": 2466,
      "plaisir": 2467,
      "suffisamment": 2468,
      "cise": 2469,
      "aies": 2470,
      "mesure": 2471,
      "appelle": 2472,
      "plane": 2473,
      "route": 2474,
      "lune": 2475,
      "mou": 2476,
      "paid": 2477,
      "scare": 2478,
      "onne": 2479,
      "laquelle": 2480,
      "coat": 2481,
      "sions": 2482,
      "guerre": 2483,
      "handle": 2484,
      "idiot": 2485,
      "annivers": 2486,
      "19": 2487,
      "fasse": 2488,
      "pied": 2489,
      "teach": 2490,
      "ceux": 2491,
      "song": 2492,
      "cip": 2493,
      "desc": 2494,
      "preten": 2495,
      "taken": 2496,
      "shot": 2497,
      "chanson": 2498,
      "cy": 2499,
      "fine": 2500,
      "ieres": 2501,
      "between": 2502,
      "building": 2503,
      "line": 2504,
      "rue": 2505,
      "ates": 2506,
      "ater": 2507,
      "dimanche": 2508,
      "river": 2509,
      "goes": 2510,
      "abil": 2511,
      "deser": 2512,
      "gram": 2513,
      "others": 2514,
      "rather": 2515,
      "interessant": 2516,
      "enseign": 2517,
      "voudriez": 2518,
      "devenir": 2519,
      "along": 2520,
      "confe": 2521,
      "sometimes": 2522,
      "finally": 2523,
      "france": 2524,
      "older": 2525,
      "examen": 2526,
      "american": 2527,
      "pleurer": 2528,
      "half": 2529,
      "magasin": 2530,
      "fur": 2531,
      "hes": 2532,
      "div": 2533,
      "cir": 2534,
      "possi": 2535,
      "mage": 2536,
      "derriere": 2537,
      "known": 2538,
      "viol": 2539,
      "upset": 2540,
      "pick": 2541,
      "bru": 2542,
      "weekend": 2543,
      "heart": 2544,
      "language": 2545,
      "invi": 2546,
      "asleep": 2547,
      "ira": 2548,
      "perfect": 2549,
      "veulent": 2550,
      "ordinateur": 2551,
      "econ": 2552,
      "empe": 2553,
      "sense": 2554,
      "tain": 2555,
      "dece": 2556,
      "ast": 2557,
      "itie": 2558,
      "paris": 2559,
      "moindre": 2560,
      "exer": 2561,
      "taxi": 2562,
      "finalement": 2563,
      "stopped": 2564,
      "earth": 2565,
      "nombreuses": 2566,
      "expli": 2567,
      "netto": 2568,
      "gard": 2569,
      "ines": 2570,
      "vetement": 2571,
      "libre": 2572,
      "drunk": 2573,
      "bras": 2574,
      "viendr": 2575,
      "traver": 2576,
      "montrer": 2577,
      "rouge": 2578,
      "began": 2579,
      "rentrer": 2580,
      "suggest": 2581,
      "reflech": 2582,
      "wel": 2583,
      "vole": 2584,
      "derange": 2585,
      "succes": 2586,
      "success": 2587,
      "illage": 2588,
      "cuisine": 2589,
      "lucky": 2590,
      "invited": 2591,
      "camer": 2592,
      "pped": 2593,
      "sc": 2594,
      "tall": 2595,
      "lever": 2596,
      "lequel": 2597,
      "inno": 2598,
      "tures": 2599,
      "rire": 2600,
      "appare": 2601,
      "loves": 2602,
      "mots": 2603,
      "gets": 2604,
      "shut": 2605,
      "ttez": 2606,
      "devant": 2607,
      "dictionary": 2608,
      "dictionnaire": 2609,
      "convenient": 2610,
      "soleil": 2611,
      "killed": 2612,
      "mad": 2613,
      "rela": 2614,
      "ature": 2615,
      "coin": 2616,
      "parfois": 2617,
      "plans": 2618,
      "irai": 2619,
      "fight": 2620,
      "speaking": 2621,
      "embarr": 2622,
      "studying": 2623,
      "choice": 2624,
      "figured": 2625,
      "anniversaire": 2626,
      "rejou": 2627,
      "reser": 2628,
      "whate": 2629,
      "accu": 2630,
      "aimez": 2631,
      "racon": 2632,
      "emprun": 2633,
      "animal": 2634,
      "nature": 2635,
      "kids": 2636,
      "whatever": 2637,
      "ei": 2638,
      "filles": 2639,
      "gie": 2640,
      "siez": 2641,
      "arm": 2642,
      "note": 2643,
      "beer": 2644,
      "resou": 2645,
      "trait": 2646,
      "amour": 2647,
      "extre": 2648,
      "missed": 2649,
      "whole": 2650,
      "stood": 2651,
      "conseil": 2652,
      "succe": 2653,
      "casse": 2654,
      "rote": 2655,
      "voyez": 2656,
      "lumiere": 2657,
      "expen": 2658,
      "paye": 2659,
      "spent": 2660,
      "regret": 2661,
      "milk": 2662,
      "milli": 2663,
      "boite": 2664,
      "symp": 2665,
      "whether": 2666,
      "occasion": 2667,
      "œil": 2668,
      "tory": 2669,
      "tue": 2670,
      "donna": 2671,
      "hop": 2672,
      "wash": 2673,
      "promen": 2674,
      "camp": 2675,
      "boss": 2676,
      "voulu": 2677,
      "furent": 2678,
      "terrible": 2679,
      "ecouter": 2680,
      "vetements": 2681,
      "expensive": 2682,
      "cation": 2683,
      "font": 2684,
      "oise": 2685,
      "depe": 2686,
      "atte": 2687,
      "ject": 2688,
      "antes": 2689,
      "parlez": 2690,
      "courir": 2691,
      "chapeau": 2692,
      "mourir": 2693,
      "apologize": 2694,
      "birthday": 2695,
      "camera": 2696,
      "ba": 2697,
      "biere": 2698,
      "rav": 2699,
      "wrote": 2700,
      "report": 2701,
      "esca": 2702,
      "tile": 2703,
      "absolu": 2704,
      "lying": 2705,
      "seriez": 2706,
      "disap": 2707,
      "viv": 2708,
      "compor": 2709,
      "seeing": 2710,
      "carte": 2711,
      "ounds": 2712,
      "europe": 2713,
      "conseille": 2714,
      "expected": 2715,
      "resoudre": 2716,
      "extreme": 2717,
      "ness": 2718,
      "savait": 2719,
      "assure": 2720,
      "jeu": 2721,
      "noti": 2722,
      "hommes": 2723,
      "manteau": 2724,
      "persu": 2725,
      "worked": 2726,
      "croy": 2727,
      "happening": 2728,
      "vienne": 2729,
      "tort": 2730,
      "gagner": 2731,
      "im": 2732,
      "beach": 2733,
      "apporte": 2734,
      "brought": 2735,
      "correct": 2736,
      "dence": 2737,
      "fair": 2738,
      "fail": 2739,
      "gres": 2740,
      "oper": 2741,
      "tas": 2742,
      "um": 2743,
      "sold": 2744,
      "forme": 2745,
      "ged": 2746,
      "bot": 2747,
      "cup": 2748,
      "worried": 2749,
      "pire": 2750,
      "plage": 2751,
      "vieille": 2752,
      "drinking": 2753,
      "droit": 2754,
      "thanks": 2755,
      "divor": 2756,
      "card": 2757,
      "iques": 2758,
      "libr": 2759,
      "venus": 2760,
      "faisait": 2761,
      "donnez": 2762,
      "enseig": 2763,
      "accept": 2764,
      "black": 2765,
      "annees": 2766,
      "complain": 2767,
      "rejouis": 2768,
      "tren": 2769,
      "vaut": 2770,
      "reali": 2771,
      "austr": 2772,
      "lies": 2773,
      "choose": 2774,
      "mistakes": 2775,
      "pluie": 2776,
      "convince": 2777,
      "scared": 2778,
      "trente": 2779,
      "hy": 2780,
      "rare": 2781,
      "remp": 2782,
      "nove": 2783,
      "cake": 2784,
      "ouvrir": 2785,
      "famil": 2786,
      "broken": 2787,
      "travers": 2788,
      "running": 2789,
      "demanda": 2790,
      "bib": 2791,
      "honest": 2792,
      "respect": 2793,
      "cadeau": 2794,
      "hopital": 2795,
      "cles": 2796,
      "gout": 2797,
      "ore": 2798,
      "leg": 2799,
      "cele": 2800,
      "rice": 2801,
      "appar": 2802,
      "connu": 2803,
      "songe": 2804,
      "mid": 2805,
      "telling": 2806,
      "problems": 2807,
      "court": 2808,
      "faisons": 2809,
      "attraper": 2810,
      "10": 2811,
      "sance": 2812,
      "slow": 2813,
      "noise": 2814,
      "traite": 2815,
      "donc": 2816,
      "sible": 2817,
      "parc": 2818,
      "allu": 2819,
      "llent": 2820,
      "agne": 2821,
      "crying": 2822,
      "souhait": 2823,
      "intelligent": 2824,
      "dange": 2825,
      "ice": 2826,
      "riv": 2827,
      "tran": 2828,
      "tiens": 2829,
      "dons": 2830,
      "commande": 2831,
      "preter": 2832,
      "faute": 2833,
      "writing": 2834,
      "pointed": 2835,
      "fied": 2836,
      "jard": 2837,
      "vaise": 2838,
      "teen": 2839,
      "attra": 2840,
      "alles": 2841,
      "forward": 2842,
      "adresse": 2843,
      "proposition": 2844,
      "finir": 2845,
      "mauvaise": 2846,
      "ship": 2847,
      "intro": 2848,
      "inconvenient": 2849,
      "top": 2850,
      "cop": 2851,
      "feriez": 2852,
      "spect": 2853,
      "facon": 2854,
      "happens": 2855,
      "rapport": 2856,
      "stupide": 2857,
      "dangerous": 2858,
      "patron": 2859,
      "walked": 2860,
      "ecr": 2861,
      "devenu": 2862,
      "sell": 2863,
      "autor": 2864,
      "ieurs": 2865,
      "gere": 2866,
      "proche": 2867,
      "future": 2868,
      "helped": 2869,
      "attendu": 2870,
      "speaks": 2871,
      "dogs": 2872,
      "strange": 2873,
      "painting": 2874,
      "sunday": 2875,
      "college": 2876,
      "actually": 2877,
      "attrape": 2878,
      "bres": 2879,
      "mment": 2880,
      "sti": 2881,
      "amuse": 2882,
      "parviens": 2883,
      "cana": 2884,
      "liked": 2885,
      "compris": 2886,
      "arretez": 2887,
      "closed": 2888,
      "crime": 2889,
      "famous": 2890,
      "fond": 2891,
      "presenter": 2892,
      "meilleure": 2893,
      "necessary": 2894,
      "talked": 2895,
      "emmen": 2896,
      "reparer": 2897,
      "appareil": 2898,
      "effe": 2899,
      "gas": 2900,
      "sad": 2901,
      "village": 2902,
      "serez": 2903,
      "entr": 2904,
      "romp": 2905,
      "weight": 2906,
      "abo": 2907,
      "evening": 2908,
      "smoke": 2909,
      "shopping": 2910,
      "riviere": 2911,
      "bateau": 2912,
      "sang": 2913,
      "ug": 2914,
      "ero": 2915,
      "theor": 2916,
      "sudden": 2917,
      "tions": 2918,
      "ply": 2919,
      "poor": 2920,
      "photos": 2921,
      "during": 2922,
      "durant": 2923,
      "neigh": 2924,
      "cam": 2925,
      "fle": 2926,
      "gateau": 2927,
      "nation": 2928,
      "sme": 2929,
      "ouvr": 2930,
      "quis": 2931,
      "tuer": 2932,
      "ride": 2933,
      "quels": 2934,
      "likely": 2935,
      "willing": 2936,
      "stor": 2937,
      "plupart": 2938,
      "swimming": 2939,
      "poids": 2940,
      "ues": 2941,
      "repas": 2942,
      "restez": 2943,
      "sentir": 2944,
      "allee": 2945,
      "vouloir": 2946,
      "girls": 2947,
      "quitter": 2948,
      "fonctionne": 2949,
      "dormi": 2950,
      "effr": 2951,
      "wearing": 2952,
      "second": 2953,
      "recog": 2954,
      "detail": 2955,
      "jardin": 2956,
      "smi": 2957,
      "scre": 2958,
      "seat": 2959,
      "cated": 2960,
      "visi": 2961,
      "interesse": 2962,
      "written": 2963,
      "poisson": 2964,
      "either": 2965,
      "fleurs": 2966,
      "rhu": 2967,
      "reti": 2968,
      "memor": 2969,
      "als": 2970,
      "chris": 2971,
      "address": 2972,
      "cute": 2973,
      "shir": 2974,
      "visage": 2975,
      "autour": 2976,
      "blame": 2977,
      "rappeler": 2978,
      "expliquer": 2979,
      "cts": 2980,
      "plo": 2981,
      "heav": 2982,
      "iles": 2983,
      "noir": 2984,
      "const": 2985,
      "projet": 2986,
      "dise": 2987,
      "grap": 2988,
      "impro": 2989,
      "match": 2990,
      "amed": 2991,
      "showed": 2992,
      "talent": 2993,
      "garden": 2994,
      "mail": 2995,
      "pur": 2996,
      "tie": 2997,
      "ined": 2998,
      "theque": 2999,
      "cite": 3000,
      "fool": 3001,
      "aged": 3002,
      "given": 3003,
      "list": 3004,
      "econo": 3005,
      "biblio": 3006,
      "introdu": 3007,
      "flu": 3008,
      "lla": 3009,
      "ane": 3010,
      "chair": 3011,
      "cool": 3012,
      "tient": 3013,
      "plusieurs": 3014,
      "couple": 3015,
      "gentil": 3016,
      "habite": 3017,
      "occuper": 3018,
      "embras": 3019,
      "completely": 3020,
      "library": 3021,
      "bibliotheque": 3022,
      "bais": 3023,
      "mign": 3024,
      "utile": 3025,
      "esper": 3026,
      "least": 3027,
      "ilo": 3028,
      "chou": 3029,
      "roman": 3030,
      "parap": 3031,
      "stairs": 3032,
      "power": 3033,
      "femmes": 3034,
      "distance": 3035,
      "anges": 3036,
      "impatient": 3037,
      "entreprise": 3038,
      "suivre": 3039,
      "voici": 3040,
      "bati": 3041,
      "rep": 3042,
      "esprit": 3043,
      "invol": 3044,
      "dered": 3045,
      "ash": 3046,
      "rendez": 3047,
      "desk": 3048,
      "women": 3049,
      "obje": 3050,
      "auriez": 3051,
      "chiens": 3052,
      "erreurs": 3053,
      "kyoto": 3054,
      "normal": 3055,
      "thirty": 3056,
      "flowers": 3057,
      "possibil": 3058,
      "recogni": 3059,
      "œuf": 3060,
      "speech": 3061,
      "tableau": 3062,
      "solve": 3063,
      "satisfait": 3064,
      "medicine": 3065,
      "conscience": 3066,
      "sommeil": 3067,
      "pleuvoir": 3068,
      "leaving": 3069,
      "smell": 3070,
      "hus": 3071,
      "lf": 3072,
      "maux": 3073,
      "nai": 3074,
      "nie": 3075,
      "sle": 3076,
      "tasse": 3077,
      "itch": 3078,
      "lac": 3079,
      "alite": 3080,
      "aug": 3081,
      "serieuse": 3082,
      "faite": 3083,
      "dressed": 3084,
      "constru": 3085,
      "elect": 3086,
      "alive": 3087,
      "conseils": 3088,
      "clair": 3089,
      "warm": 3090,
      "vingt": 3091,
      "reveille": 3092,
      "environ": 3093,
      "blu": 3094,
      "liez": 3095,
      "ption": 3096,
      "ring": 3097,
      "umbre": 3098,
      "argu": 3099,
      "sever": 3100,
      "newsp": 3101,
      "loved": 3102,
      "champ": 3103,
      "contact": 3104,
      "rules": 3105,
      "fonde": 3106,
      "ctive": 3107,
      "amoureux": 3108,
      "storm": 3109,
      "husband": 3110,
      "eche": 3111,
      "moun": 3112,
      "sounds": 3113,
      "oue": 3114,
      "anci": 3115,
      "neuf": 3116,
      "vecu": 3117,
      "ief": 3118,
      "trac": 3119,
      "cks": 3120,
      "joindre": 3121,
      "ciel": 3122,
      "refus": 3123,
      "rhume": 3124,
      "doub": 3125,
      "lend": 3126,
      "oncle": 3127,
      "uncle": 3128,
      "rencon": 3129,
      "rends": 3130,
      "mode": 3131,
      "voit": 3132,
      "bother": 3133,
      "nervous": 3134,
      "appel": 3135,
      "souff": 3136,
      "etudiant": 3137,
      "certains": 3138,
      "doute": 3139,
      "boyfriend": 3140,
      "keys": 3141,
      "connaitre": 3142,
      "glasses": 3143,
      "espoir": 3144,
      "amusant": 3145,
      "bank": 3146,
      "yes": 3147,
      "envo": 3148,
      "noel": 3149,
      "sucre": 3150,
      "ford": 3151,
      "due": 3152,
      "promes": 3153,
      "selves": 3154,
      "glass": 3155,
      "club": 3156,
      "bill": 3157,
      "evi": 3158,
      "rup": 3159,
      "anche": 3160,
      "depend": 3161,
      "quant": 3162,
      "mention": 3163,
      "acros": 3164,
      "monte": 3165,
      "temper": 3166,
      "fera": 3167,
      "supporter": 3168,
      "risque": 3169,
      "sentiment": 3170,
      "tranqu": 3171,
      "electri": 3172,
      "across": 3173,
      "aded": 3174,
      "bons": 3175,
      "da": 3176,
      "eut": 3177,
      "rate": 3178,
      "tante": 3179,
      "oui": 3180,
      "tempe": 3181,
      "aviez": 3182,
      "tique": 3183,
      "abroad": 3184,
      "luie": 3185,
      "pron": 3186,
      "cesse": 3187,
      "joke": 3188,
      "regles": 3189,
      "voyager": 3190,
      "lication": 3191,
      "learned": 3192,
      "listening": 3193,
      "ski": 3194,
      "papier": 3195,
      "convaincu": 3196,
      "dangereux": 3197,
      "parapluie": 3198,
      "umbrella": 3199,
      "tempete": 3200,
      "cache": 3201,
      "lise": 3202,
      "mettez": 3203,
      "white": 3204,
      "avance": 3205,
      "tir": 3206,
      "monta": 3207,
      "seras": 3208,
      "choco": 3209,
      "vendre": 3210,
      "vies": 3211,
      "hasn": 3212,
      "sors": 3213,
      "fermer": 3214,
      "frappe": 3215,
      "oppor": 3216,
      "quitte": 3217,
      "egalement": 3218,
      "vacation": 3219,
      "contrar": 3220,
      "floor": 3221,
      "article": 3222,
      "disappointed": 3223,
      "ctement": 3224,
      "native": 3225,
      "etats": 3226,
      "unis": 3227,
      "ries": 3228,
      "tage": 3229,
      "garcons": 3230,
      "entretenir": 3231,
      "liste": 3232,
      "pieds": 3233,
      "calme": 3234,
      "smart": 3235,
      "involved": 3236,
      "cieux": 3237,
      "owe": 3238,
      "ambit": 3239,
      "forts": 3240,
      "pommes": 3241,
      "danser": 3242,
      "travai": 3243,
      "brou": 3244,
      "particu": 3245,
      "sleeping": 3246,
      "opened": 3247,
      "explo": 3248,
      "agreed": 3249,
      "succeed": 3250,
      "bath": 3251,
      "edu": 3252,
      "jure": 3253,
      "ram": 3254,
      "deten": 3255,
      "etage": 3256,
      "passee": 3257,
      "avis": 3258,
      "traf": 3259,
      "apart": 3260,
      "condition": 3261,
      "mons": 3262,
      "survi": 3263,
      "carefully": 3264,
      "bord": 3265,
      "utilise": 3266,
      "grosse": 3267,
      "empecher": 3268,
      "traffic": 3269,
      "rase": 3270,
      "taille": 3271,
      "erais": 3272,
      "triste": 3273,
      "dure": 3274,
      "post": 3275,
      "servi": 3276,
      "whose": 3277,
      "ouvert": 3278,
      "magaz": 3279,
      "cats": 3280,
      "certaines": 3281,
      "medica": 3282,
      "organ": 3283,
      "terminer": 3284,
      "borrow": 3285,
      "haut": 3286,
      "lance": 3287,
      "tmas": 3288,
      "wai": 3289,
      "yons": 3290,
      "enir": 3291,
      "held": 3292,
      "vered": 3293,
      "passed": 3294,
      "ely": 3295,
      "propres": 3296,
      "somewhere": 3297,
      "voix": 3298,
      "kiss": 3299,
      "christmas": 3300,
      "several": 3301,
      "page": 3302,
      "uve": 3303,
      "dedans": 3304,
      "enter": 3305,
      "stri": 3306,
      "cancer": 3307,
      "pocket": 3308,
      "ounded": 3309,
      "wood": 3310,
      "empor": 3311,
      "regardez": 3312,
      "amerique": 3313,
      "boys": 3314,
      "imagination": 3315,
      "accepter": 3316,
      "guys": 3317,
      "spoke": 3318,
      "recei": 3319,
      "opportun": 3320,
      "aver": 3321,
      "gg": 3322,
      "gri": 3323,
      "salle": 3324,
      "recent": 3325,
      "inten": 3326,
      "sept": 3327,
      "avions": 3328,
      "apple": 3329,
      "lock": 3330,
      "cier": 3331,
      "waste": 3332,
      "monter": 3333,
      "serieux": 3334,
      "discours": 3335,
      "compet": 3336,
      "price": 3337,
      "jeunes": 3338,
      "dirait": 3339,
      "continuer": 3340,
      "lunettes": 3341,
      "rencontres": 3342,
      "waited": 3343,
      "bal": 3344,
      "cla": 3345,
      "gif": 3346,
      "rasse": 3347,
      "send": 3348,
      "ul": 3349,
      "vest": 3350,
      "ended": 3351,
      "means": 3352,
      "nement": 3353,
      "lake": 3354,
      "belong": 3355,
      "accus": 3356,
      "admi": 3357,
      "program": 3358,
      "vivent": 3359,
      "mbres": 3360,
      "sentence": 3361,
      "mariee": 3362,
      "driving": 3363,
      "honte": 3364,
      "horri": 3365,
      "ctions": 3366,
      "scient": 3367,
      "bille": 3368,
      "mie": 3369,
      "wall": 3370,
      "lead": 3371,
      "incre": 3372,
      "debut": 3373,
      "quie": 3374,
      "thre": 3375,
      "lay": 3376,
      "chats": 3377,
      "lions": 3378,
      "web": 3379,
      "urgent": 3380,
      "compre": 3381,
      "carry": 3382,
      "vieil": 3383,
      "asseoir": 3384,
      "eleve": 3385,
      "easily": 3386,
      "impressed": 3387,
      "prepared": 3388,
      "america": 3389,
      "solution": 3390,
      "shirt": 3391,
      "fs": 3392,
      "gro": 3393,
      "hang": 3394,
      "nage": 3395,
      "arret": 3396,
      "ilt": 3397,
      "allowed": 3398,
      "lir": 3399,
      "conne": 3400,
      "acle": 3401,
      "fortable": 3402,
      "mate": 3403,
      "mark": 3404,
      "service": 3405,
      "longue": 3406,
      "crains": 3407,
      "credit": 3408,
      "hardly": 3409,
      "eleves": 3410,
      "douleur": 3411,
      "attendais": 3412,
      "mariage": 3413,
      "pauvre": 3414,
      "baseball": 3415,
      "slept": 3416,
      "ilement": 3417,
      "jack": 3418,
      "spr": 3419,
      "vain": 3420,
      "annu": 3421,
      "verrou": 3422,
      "parole": 3423,
      "moved": 3424,
      "hiver": 3425,
      "compter": 3426,
      "arrives": 3427,
      "huit": 3428,
      "courant": 3429,
      "souvenir": 3430,
      "phon": 3431,
      "drole": 3432,
      "biz": 3433,
      "signifie": 3434,
      "population": 3435,
      "promised": 3436,
      "certainement": 3437,
      "commun": 3438,
      "guitar": 3439,
      "effray": 3440,
      "ahead": 3441,
      "cure": 3442,
      "pir": 3443,
      "twi": 3444,
      "mee": 3445,
      "arch": 3446,
      "sul": 3447,
      "ressemble": 3448,
      "allait": 3449,
      "coupe": 3450,
      "presente": 3451,
      "bonnes": 3452,
      "idees": 3453,
      "connaissez": 3454,
      "facilement": 3455,
      "harder": 3456,
      "travel": 3457,
      "novel": 3458,
      "ifier": 3459,
      "mite": 3460,
      "chac": 3461,
      "socie": 3462,
      "vote": 3463,
      "marier": 3464,
      "permis": 3465,
      "dispu": 3466,
      "thinks": 3467,
      "earlier": 3468,
      "dieu": 3469,
      "glace": 3470,
      "retourner": 3471,
      "fatiguee": 3472,
      "animaux": 3473,
      "feelings": 3474,
      "itude": 3475,
      "reconnaissant": 3476,
      "relax": 3477,
      "twice": 3478,
      "aero": 3479,
      "cense": 3480,
      "rel": 3481,
      "reli": 3482,
      "remerci": 3483,
      "chaise": 3484,
      "sight": 3485,
      "gover": 3486,
      "permission": 3487,
      "sert": 3488,
      "viande": 3489,
      "selon": 3490,
      "essayez": 3491,
      "syste": 3492,
      "immediately": 3493,
      "discussion": 3494,
      "enseignant": 3495,
      "reflechir": 3496,
      "emprunter": 3497,
      "eye": 3498,
      "gouver": 3499,
      "iers": 3500,
      "tar": 3501,
      "winter": 3502,
      "aiment": 3503,
      "heur": 3504,
      "era": 3505,
      "inside": 3506,
      "depen": 3507,
      "seven": 3508,
      "diplo": 3509,
      "avoc": 3510,
      "coucher": 3511,
      "herself": 3512,
      "dispar": 3513,
      "grat": 3514,
      "affe": 3515,
      "afford": 3516,
      "importance": 3517,
      "staying": 3518,
      "posse": 3519,
      "fault": 3520,
      "reussir": 3521,
      "universite": 3522,
      "moyen": 3523,
      "stylo": 3524,
      "lant": 3525,
      "pai": 3526,
      "decu": 3527,
      "asser": 3528,
      "qua": 3529,
      "suici": 3530,
      "liar": 3531,
      "admit": 3532,
      "boat": 3533,
      "serve": 3534,
      "vious": 3535,
      "maines": 3536,
      "crow": 3537,
      "phrase": 3538,
      "crimin": 3539,
      "shower": 3540,
      "soiree": 3541,
      "control": 3542,
      "discuss": 3543,
      "leaves": 3544,
      "ignorais": 3545,
      "accused": 3546,
      "million": 3547,
      "batiment": 3548,
      "tranquille": 3549,
      "bizarre": 3550,
      "gence": 3551,
      "hn": 3552,
      "meat": 3553,
      "thous": 3554,
      "lable": 3555,
      "tune": 3556,
      "convers": 3557,
      "chemise": 3558,
      "expres": 3559,
      "john": 3560,
      "fruit": 3561,
      "course": 3562,
      "sity": 3563,
      "oublier": 3564,
      "vouliez": 3565,
      "interieur": 3566,
      "conseilla": 3567,
      "walking": 3568,
      "habituellement": 3569,
      "wonderful": 3570,
      "satisfied": 3571,
      "cooking": 3572,
      "color": 3573,
      "ennuis": 3574,
      "excellent": 3575,
      "banque": 3576,
      "debarr": 3577,
      "heavy": 3578,
      "envoye": 3579,
      "societe": 3580,
      "cting": 3581,
      "ghed": 3582,
      "nav": 3583,
      "wake": 3584,
      "yen": 3585,
      "redu": 3586,
      "asking": 3587,
      "sue": 3588,
      "acquis": 3589,
      "rence": 3590,
      "feed": 3591,
      "tax": 3592,
      "cule": 3593,
      "pleut": 3594,
      "worse": 3595,
      "portes": 3596,
      "airport": 3597,
      "foreign": 3598,
      "gene": 3599,
      "pictures": 3600,
      "dente": 3601,
      "london": 3602,
      "londres": 3603,
      "responsable": 3604,
      "welcome": 3605,
      "innocent": 3606,
      "temperature": 3607,
      "sse": 3608,
      "sie": 3609,
      "sand": 3610,
      "sport": 3611,
      "sky": 3612,
      "vint": 3613,
      "zo": 3614,
      "enty": 3615,
      "auche": 3616,
      "rige": 3617,
      "avaient": 3618,
      "apparti": 3619,
      "parles": 3620,
      "parfait": 3621,
      "cigare": 3622,
      "plenty": 3623,
      "profonde": 3624,
      "mess": 3625,
      "exter": 3626,
      "curi": 3627,
      "prati": 3628,
      "fiche": 3629,
      "mente": 3630,
      "ideas": 3631,
      "cherch": 3632,
      "ached": 3633,
      "obtenir": 3634,
      "raining": 3635,
      "horse": 3636,
      "000": 3637,
      "enjoyed": 3638,
      "football": 3639,
      "honnete": 3640,
      "copine": 3641,
      "suddenly": 3642,
      "chouette": 3643,
      "recognize": 3644,
      "conversation": 3645,
      "dam": 3646,
      "lts": 3647,
      "reuse": 3648,
      "demar": 3649,
      "atta": 3650,
      "orig": 3651,
      "past": 3652,
      "dies": 3653,
      "tive": 3654,
      "partout": 3655,
      "cheval": 3656,
      "quelconque": 3657,
      "file": 3658,
      "anywhere": 3659,
      "touche": 3660,
      "epous": 3661,
      "instru": 3662,
      "ics": 3663,
      "played": 3664,
      "pieces": 3665,
      "americ": 3666,
      "drop": 3667,
      "painted": 3668,
      "institu": 3669,
      "refused": 3670,
      "blood": 3671,
      "descen": 3672,
      "œufs": 3673,
      "blue": 3674,
      "newspaper": 3675,
      "contrarie": 3676,
      "aeroport": 3677,
      "cous": 3678,
      "mble": 3679,
      "mille": 3680,
      "eri": 3681,
      "incroy": 3682,
      "semaines": 3683,
      "rid": 3684,
      "apper": 3685,
      "god": 3686,
      "acting": 3687,
      "marry": 3688,
      "exci": 3689,
      "surance": 3690,
      "epouse": 3691,
      "risk": 3692,
      "profes": 3693,
      "cuisiner": 3694,
      "groupe": 3695,
      "remercier": 3696,
      "dan": 3697,
      "fis": 3698,
      "ffer": 3699,
      "ga": 3700,
      "ois": 3701,
      "enfin": 3702,
      "debout": 3703,
      "esti": 3704,
      "dos": 3705,
      "contente": 3706,
      "holi": 3707,
      "action": 3708,
      "mom": 3709,
      "quelles": 3710,
      "merveille": 3711,
      "share": 3712,
      "pull": 3713,
      "jolie": 3714,
      "soud": 3715,
      "ical": 3716,
      "oubliez": 3717,
      "decider": 3718,
      "tourne": 3719,
      "fallu": 3720,
      "laughed": 3721,
      "stick": 3722,
      "mountain": 3723,
      "chacun": 3724,
      "exterieur": 3725,
      "eff": 3726,
      "ior": 3727,
      "lin": 3728,
      "vus": 3729,
      "rement": 3730,
      "inquiet": 3731,
      "apparen": 3732,
      "moitie": 3733,
      "promets": 3734,
      "manquer": 3735,
      "lled": 3736,
      "courses": 3737,
      "failed": 3738,
      "battre": 3739,
      "seriously": 3740,
      "moyens": 3741,
      "video": 3742,
      "nettoyer": 3743,
      "animals": 3744,
      "govern": 3745,
      "fres": 3746,
      "muse": 3747,
      "ari": 3748,
      "entiere": 3749,
      "rested": 3750,
      "avenir": 3751,
      "accro": 3752,
      "abs": 3753,
      "movies": 3754,
      "command": 3755,
      "precise": 3756,
      "inee": 3757,
      "built": 3758,
      "seuls": 3759,
      "habitue": 3760,
      "lundi": 3761,
      "actuellement": 3762,
      "kissed": 3763,
      "agreable": 3764,
      "cruel": 3765,
      "celebre": 3766,
      "20": 3767,
      "bain": 3768,
      "bly": 3769,
      "none": 3770,
      "aimait": 3771,
      "inture": 3772,
      "veget": 3773,
      "lave": 3774,
      "alous": 3775,
      "hood": 3776,
      "dule": 3777,
      "couleur": 3778,
      "angle": 3779,
      "angers": 3780,
      "implique": 3781,
      "ailles": 3782,
      "dents": 3783,
      "human": 3784,
      "boute": 3785,
      "warned": 3786,
      "fallait": 3787,
      "hundre": 3788,
      "apples": 3789,
      "chinese": 3790,
      "invitation": 3791,
      "pis": 3792,
      "ray": 3793,
      "sout": 3794,
      "revenu": 3795,
      "ila": 3796,
      "menti": 3797,
      "golf": 3798,
      "duty": 3799,
      "chef": 3800,
      "commit": 3801,
      "prevu": 3802,
      "pique": 3803,
      "direction": 3804,
      "gotten": 3805,
      "arrivee": 3806,
      "soucie": 3807,
      "truc": 3808,
      "commenca": 3809,
      "weeks": 3810,
      "efforts": 3811,
      "prefererais": 3812,
      "employe": 3813,
      "pleased": 3814,
      "abilite": 3815,
      "realize": 3816,
      "entraine": 3817,
      "education": 3818,
      "market": 3819,
      "afin": 3820,
      "cais": 3821,
      "ham": 3822,
      "ened": 3823,
      "demission": 3824,
      "meant": 3825,
      "nego": 3826,
      "ieme": 3827,
      "tradu": 3828,
      "tien": 3829,
      "gerer": 3830,
      "ters": 3831,
      "soup": 3832,
      "sitting": 3833,
      "empty": 3834,
      "douche": 3835,
      "blague": 3836,
      "bird": 3837,
      "tombee": 3838,
      "choisir": 3839,
      "souhaite": 3840,
      "bridge": 3841,
      "sympa": 3842,
      "promenade": 3843,
      "convinced": 3844,
      "spring": 3845,
      "gouvernement": 3846,
      "instituteur": 3847,
      "bour": 3848,
      "fing": 3849,
      "ka": 3850,
      "nons": 3851,
      "tau": 3852,
      "uer": 3853,
      "wind": 3854,
      "invest": 3855,
      "devrai": 3856,
      "allow": 3857,
      "motion": 3858,
      "tenez": 3859,
      "fired": 3860,
      "seemed": 3861,
      "trompe": 3862,
      "viennent": 3863,
      "cular": 3864,
      "semblait": 3865,
      "blanc": 3866,
      "active": 3867,
      "promesse": 3868,
      "government": 3869,
      "dus": 3870,
      "lour": 3871,
      "ode": 3872,
      "pan": 3873,
      "oux": 3874,
      "repe": 3875,
      "regre": 3876,
      "erai": 3877,
      "injure": 3878,
      "qual": 3879,
      "themat": 3880,
      "though": 3881,
      "arde": 3882,
      "autom": 3883,
      "suspect": 3884,
      "amaz": 3885,
      "trees": 3886,
      "mathemat": 3887,
      "fif": 3888,
      "fique": 3889,
      "disent": 3890,
      "vic": 3891,
      "ards": 3892,
      "compag": 3893,
      "ports": 3894,
      "ouvre": 3895,
      "view": 3896,
      "garage": 3897,
      "stolen": 3898,
      "particular": 3899,
      "corps": 3900,
      "obtenu": 3901,
      "sooner": 3902,
      "claire": 3903,
      "signi": 3904,
      "docteur": 3905,
      "patience": 3906,
      "proposal": 3907,
      "endormi": 3908,
      "doubt": 3909,
      "montagne": 3910,
      "incroyable": 3911,
      "fave": 3912,
      "nant": 3913,
      "pont": 3914,
      "ences": 3915,
      "isse": 3916,
      "istes": 3917,
      "depart": 3918,
      "nel": 3919,
      "ents": 3920,
      "also": 3921,
      "covered": 3922,
      "oig": 3923,
      "rier": 3924,
      "acked": 3925,
      "form": 3926,
      "progres": 3927,
      "comfortable": 3928,
      "marr": 3929,
      "lied": 3930,
      "ferait": 3931,
      "stuff": 3932,
      "inste": 3933,
      "attendez": 3934,
      "grandfather": 3935,
      "singing": 3936,
      "buying": 3937,
      "conduit": 3938,
      "retourne": 3939,
      "followed": 3940,
      "langues": 3941,
      "enemy": 3942,
      "popular": 3943,
      "beginning": 3944,
      "laughing": 3945,
      "entends": 3946,
      "allume": 3947,
      "ashamed": 3948,
      "serieusement": 3949,
      "travaill": 3950,
      "avocat": 3951,
      "acquisition": 3952,
      "injured": 3953,
      "faveur": 3954,
      "dad": 3955,
      "laire": 3956,
      "ased": 3957,
      "mentir": 3958,
      "tight": 3959,
      "tirer": 3960,
      "history": 3961,
      "merite": 3962,
      "grave": 3963,
      "personal": 3964,
      "isee": 3965,
      "morce": 3966,
      "feels": 3967,
      "amelio": 3968,
      "driver": 3969,
      "eggs": 3970,
      "maladie": 3971,
      "echoue": 3972,
      "sourire": 3973,
      "prudente": 3974,
      "abandon": 3975,
      "tickets": 3976,
      "sweet": 3977,
      "famili": 3978,
      "details": 3979,
      "horrible": 3980,
      "fet": 3981,
      "gal": 3982,
      "kni": 3983,
      "kilo": 3984,
      "mam": 3985,
      "reellement": 3986,
      "envoy": 3987,
      "inquie": 3988,
      "demen": 3989,
      "quin": 3990,
      "thor": 3991,
      "secre": 3992,
      "laz": 3993,
      "cot": 3994,
      "ushed": 3995,
      "timi": 3996,
      "acter": 3997,
      "fortune": 3998,
      "pourrions": 3999,
      "monday": 4000,
      "fear": 4001,
      "prevois": 4002,
      "deranger": 4003,
      "compli": 4004,
      "drank": 4005,
      "german": 4006,
      "venues": 4007,
      "fact": 4008,
      "sleepy": 4009,
      "sauve": 4010,
      "suggere": 4011,
      "fishing": 4012,
      "abandonne": 4013,
      "convaincre": 4014,
      "lentement": 4015,
      "considered": 4016,
      "embarrasse": 4017,
      "washing": 4018,
      "bottle": 4019,
      "enseigne": 4020,
      "zoo": 4021,
      "cend": 4022,
      "taller": 4023,
      "requi": 4024,
      "deg": 4025,
      "debrou": 4026,
      "memes": 4027,
      "sejour": 4028,
      "ings": 4029,
      "soyons": 4030,
      "simil": 4031,
      "parait": 4032,
      "accuse": 4033,
      "desire": 4034,
      "voler": 4035,
      "expri": 4036,
      "gradu": 4037,
      "cros": 4038,
      "seules": 4039,
      "viendrai": 4040,
      "grands": 4041,
      "ouverte": 4042,
      "semblez": 4043,
      "aurai": 4044,
      "calm": 4045,
      "lights": 4046,
      "bouton": 4047,
      "accepte": 4048,
      "abandonner": 4049,
      "guitare": 4050,
      "escape": 4051,
      "canadi": 4052,
      "smile": 4053,
      "received": 4054,
      "fresh": 4055,
      "museum": 4056,
      "50": 4057,
      "epuis": 4058,
      "han": 4059,
      "jok": 4060,
      "lons": 4061,
      "sli": 4062,
      "wise": 4063,
      "revenir": 4064,
      "retire": 4065,
      "espe": 4066,
      "deep": 4067,
      "tears": 4068,
      "sea": 4069,
      "alla": 4070,
      "sugar": 4071,
      "trai": 4072,
      "practi": 4073,
      "sale": 4074,
      "mbers": 4075,
      "crav": 4076,
      "croit": 4077,
      "bum": 4078,
      "support": 4079,
      "aimeriez": 4080,
      "regle": 4081,
      "drinks": 4082,
      "capit": 4083,
      "juge": 4084,
      "voice": 4085,
      "sembles": 4086,
      "preparer": 4087,
      "silence": 4088,
      "regarda": 4089,
      "lawyer": 4090,
      "effectu": 4091,
      "ecou": 4092,
      "fla": 4093,
      "fly": 4094,
      "osa": 4095,
      "savons": 4096,
      "depri": 4097,
      "throw": 4098,
      "lap": 4099,
      "ours": 4100,
      "beat": 4101,
      "ador": 4102,
      "pomme": 4103,
      "feet": 4104,
      "volu": 4105,
      "expl": 4106,
      "illee": 4107,
      "ends": 4108,
      "ately": 4109,
      "hadn": 4110,
      "sortez": 4111,
      "musee": 4112,
      "fru": 4113,
      "button": 4114,
      "allemand": 4115,
      "importante": 4116,
      "plays": 4117,
      "droite": 4118,
      "judge": 4119,
      "learning": 4120,
      "languages": 4121,
      "excuser": 4122,
      "remarque": 4123,
      "mouth": 4124,
      "rarement": 4125,
      "slowly": 4126,
      "magazine": 4127,
      "event": 4128,
      "sain": 4129,
      "sche": 4130,
      "return": 4131,
      "aight": 4132,
      "issez": 4133,
      "meal": 4134,
      "arrested": 4135,
      "ilty": 4136,
      "etat": 4137,
      "role": 4138,
      "avoi": 4139,
      "locked": 4140,
      "forte": 4141,
      "fortun": 4142,
      "allais": 4143,
      "manager": 4144,
      "lettes": 4145,
      "cray": 4146,
      "studied": 4147,
      "heureuses": 4148,
      "guilty": 4149,
      "breath": 4150,
      "morte": 4151,
      "understood": 4152,
      "green": 4153,
      "geni": 4154,
      "interrup": 4155,
      "straight": 4156,
      "produire": 4157,
      "following": 4158,
      "printemps": 4159,
      "mienne": 4160,
      "oiseau": 4161,
      "ravi": 4162,
      "divorce": 4163,
      "austral": 4164,
      "visited": 4165,
      "naive": 4166,
      "gift": 4167,
      "admire": 4168,
      "bouteille": 4169,
      "taught": 4170,
      "familiar": 4171,
      "osaka": 4172,
      "cil": 4173,
      "cand": 4174,
      "fan": 4175,
      "iz": 4176,
      "ror": 4177,
      "iter": 4178,
      "ordered": 4179,
      "behav": 4180,
      "treat": 4181,
      "prouve": 4182,
      "moire": 4183,
      "usement": 4184,
      "pizz": 4185,
      "cars": 4186,
      "nouveaux": 4187,
      "adop": 4188,
      "attentive": 4189,
      "donnerai": 4190,
      "younger": 4191,
      "explique": 4192,
      "velop": 4193,
      "plaisant": 4194,
      "loud": 4195,
      "cinema": 4196,
      "operation": 4197,
      "memory": 4198,
      "possede": 4199,
      "paix": 4200,
      "cravate": 4201,
      "fruits": 4202,
      "flat": 4203,
      "rang": 4204,
      "sache": 4205,
      "recor": 4206,
      "remettre": 4207,
      "envers": 4208,
      "onge": 4209,
      "dee": 4210,
      "assister": 4211,
      "neg": 4212,
      "jealous": 4213,
      "celles": 4214,
      "entree": 4215,
      "doig": 4216,
      "peace": 4217,
      "verifier": 4218,
      "appu": 4219,
      "conf": 4220,
      "confu": 4221,
      "pars": 4222,
      "candid": 4223,
      "poe": 4224,
      "proce": 4225,
      "voila": 4226,
      "iente": 4227,
      "indus": 4228,
      "custom": 4229,
      "rude": 4230,
      "repondu": 4231,
      "paint": 4232,
      "certainly": 4233,
      "sentiments": 4234,
      "extremement": 4235,
      "australi": 4236,
      "appartement": 4237,
      "neighbor": 4238,
      "medicament": 4239,
      "precisement": 4240,
      "devraient": 4241,
      "instead": 4242,
      "cis": 4243,
      "cture": 4244,
      "cteur": 4245,
      "frais": 4246,
      "sw": 4247,
      "reje": 4248,
      "ales": 4249,
      "uts": 4250,
      "proje": 4251,
      "common": 4252,
      "excit": 4253,
      "llement": 4254,
      "ners": 4255,
      "nerveux": 4256,
      "giving": 4257,
      "stuck": 4258,
      "telephon": 4259,
      "trucs": 4260,
      "keeps": 4261,
      "regis": 4262,
      "cents": 4263,
      "blessee": 4264,
      "fonction": 4265,
      "signe": 4266,
      "listened": 4267,
      "lonely": 4268,
      "step": 4269,
      "couteau": 4270,
      "dirai": 4271,
      "trouvait": 4272,
      "usual": 4273,
      "responsible": 4274,
      "saved": 4275,
      "deserve": 4276,
      "assurer": 4277,
      "thousand": 4278,
      "appartient": 4279,
      "knife": 4280,
      "cab": 4281,
      "ee": 4282,
      "van": 4283,
      "ya": 4284,
      "reach": 4285,
      "aim": 4286,
      "hero": 4287,
      "ists": 4288,
      "depres": 4289,
      "auto": 4290,
      "aura": 4291,
      "chand": 4292,
      "nose": 4293,
      "docu": 4294,
      "soci": 4295,
      "board": 4296,
      "seront": 4297,
      "pleine": 4298,
      "brave": 4299,
      "cried": 4300,
      "standing": 4301,
      "connaissance": 4302,
      "truck": 4303,
      "auras": 4304,
      "faster": 4305,
      "consac": 4306,
      "rains": 4307,
      "sauf": 4308,
      "ennemi": 4309,
      "silen": 4310,
      "assistance": 4311,
      "energie": 4312,
      "correctement": 4313,
      "papa": 4314,
      "seconde": 4315,
      "further": 4316,
      "embrasser": 4317,
      "excited": 4318,
      "profession": 4319,
      "bis": 4320,
      "bread": 4321,
      "gor": 4322,
      "iment": 4323,
      "kitch": 4324,
      "vait": 4325,
      "yed": 4326,
      "rem": 4327,
      "recherche": 4328,
      "legu": 4329,
      "assu": 4330,
      "unique": 4331,
      "doors": 4332,
      "dirige": 4333,
      "verit": 4334,
      "sibil": 4335,
      "parfai": 4336,
      "gold": 4337,
      "forgive": 4338,
      "ghted": 4339,
      "maj": 4340,
      "faits": 4341,
      "compo": 4342,
      "mensonge": 4343,
      "gentle": 4344,
      "helping": 4345,
      "woke": 4346,
      "grew": 4347,
      "occupes": 4348,
      "larmes": 4349,
      "natur": 4350,
      "sortie": 4351,
      "china": 4352,
      "growing": 4353,
      "princip": 4354,
      "savent": 4355,
      "science": 4356,
      "traverser": 4357,
      "notice": 4358,
      "augment": 4359,
      "billet": 4360,
      "inquiete": 4361,
      "parfaitement": 4362,
      "flic": 4363,
      "gauche": 4364,
      "ker": 4365,
      "lan": 4366,
      "pair": 4367,
      "twent": 4368,
      "vres": 4369,
      "chur": 4370,
      "concent": 4371,
      "among": 4372,
      "lots": 4373,
      "logy": 4374,
      "host": 4375,
      "volun": 4376,
      "lyce": 4377,
      "friendly": 4378,
      "gues": 4379,
      "soupe": 4380,
      "phy": 4381,
      "parties": 4382,
      "faisais": 4383,
      "clus": 4384,
      "suivi": 4385,
      "skin": 4386,
      "aware": 4387,
      "awake": 4388,
      "soient": 4389,
      "foule": 4390,
      "persuade": 4391,
      "voitures": 4392,
      "epouser": 4393,
      "regrette": 4394,
      "australie": 4395,
      "kitchen": 4396,
      "foi": 4397,
      "kno": 4398,
      "wers": 4399,
      "oule": 4400,
      "rever": 4401,
      "ensuite": 4402,
      "isation": 4403,
      "arbres": 4404,
      "laver": 4405,
      "alent": 4406,
      "rob": 4407,
      "pee": 4408,
      "soc": 4409,
      "ada": 4410,
      "ury": 4411,
      "descri": 4412,
      "project": 4413,
      "hide": 4414,
      "manu": 4415,
      "prets": 4416,
      "explan": 4417,
      "extra": 4418,
      "exhau": 4419,
      "justi": 4420,
      "compare": 4421,
      "toile": 4422,
      "coupable": 4423,
      "appear": 4424,
      "humeur": 4425,
      "talks": 4426,
      "offre": 4427,
      "tors": 4428,
      "bouche": 4429,
      "boring": 4430,
      "energy": 4431,
      "nearly": 4432,
      "chinois": 4433,
      "impressionne": 4434,
      "dommage": 4435,
      "university": 4436,
      "proteger": 4437,
      "protect": 4438,
      "decouvert": 4439,
      "conference": 4440,
      "scene": 4441,
      "embarras": 4442,
      "complaining": 4443,
      "opportunity": 4444,
      "recently": 4445,
      "angleterre": 4446,
      "faux": 4447,
      "ible": 4448,
      "mped": 4449,
      "pack": 4450,
      "tons": 4451,
      "vation": 4452,
      "oute": 4453,
      "returned": 4454,
      "ented": 4455,
      "toy": 4456,
      "memoire": 4457,
      "seas": 4458,
      "lage": 4459,
      "etres": 4460,
      "iel": 4461,
      "rose": 4462,
      "doi": 4463,
      "bear": 4464,
      "ligne": 4465,
      "weir": 4466,
      "mper": 4467,
      "stamp": 4468,
      "moon": 4469,
      "commis": 4470,
      "bored": 4471,
      "shall": 4472,
      "gran": 4473,
      "missing": 4474,
      "wered": 4475,
      "impat": 4476,
      "pier": 4477,
      "nerve": 4478,
      "epau": 4479,
      "allergi": 4480,
      "brise": 4481,
      "couru": 4482,
      "clever": 4483,
      "octo": 4484,
      "obvious": 4485,
      "portait": 4486,
      "essaya": 4487,
      "decla": 4488,
      "culture": 4489,
      "calling": 4490,
      "tries": 4491,
      "frequ": 4492,
      "capac": 4493,
      "double": 4494,
      "embrasse": 4495,
      "querir": 4496,
      "valise": 4497,
      "feuille": 4498,
      "soldi": 4499,
      "blind": 4500,
      "raconter": 4501,
      "apartment": 4502,
      "danse": 4503,
      "lazy": 4504,
      "australia": 4505,
      "church": 4506,
      "balle": 4507,
      "ize": 4508,
      "jal": 4509,
      "ow": 4510,
      "reves": 4511,
      "bell": 4512,
      "restes": 4513,
      "conge": 4514,
      "acted": 4515,
      "proper": 4516,
      "perte": 4517,
      "exemp": 4518,
      "couper": 4519,
      "worst": 4520,
      "grab": 4521,
      "prendrai": 4522,
      "partis": 4523,
      "occur": 4524,
      "watched": 4525,
      "vues": 4526,
      "grandes": 4527,
      "interessante": 4528,
      "rule": 4529,
      "chaude": 4530,
      "wedding": 4531,
      "united": 4532,
      "steal": 4533,
      "silent": 4534,
      "dreams": 4535,
      "healthy": 4536,
      "delighted": 4537,
      "invites": 4538,
      "responsibil": 4539,
      "organi": 4540,
      "politique": 4541,
      "circul": 4542,
      "extremely": 4543,
      "particulier": 4544,
      "origin": 4545,
      "entierement": 4546,
      "hundred": 4547,
      "legumes": 4548,
      "100": 4549,
      "gain": 4550,
      "pale": 4551,
      "reached": 4552,
      "meth": 4553,
      "ata": 4554,
      "search": 4555,
      "cell": 4556,
      "aurez": 4557,
      "tron": 4558,
      "urgence": 4559,
      "andis": 4560,
      "pot": 4561,
      "couver": 4562,
      "fume": 4563,
      "prises": 4564,
      "prenons": 4565,
      "cloche": 4566,
      "understanding": 4567,
      "internet": 4568,
      "england": 4569,
      "mangez": 4570,
      "japonaise": 4571,
      "meaning": 4572,
      "visiter": 4573,
      "teeth": 4574,
      "controle": 4575,
      "sentez": 4576,
      "brule": 4577,
      "autorise": 4578,
      "theory": 4579,
      "pockets": 4580,
      "suicide": 4581,
      "pratique": 4582,
      "compagnie": 4583,
      "explained": 4584,
      "bare": 4585,
      "bby": 4586,
      "emer": 4587,
      "gree": 4588,
      "panne": 4589,
      "ord": 4590,
      "entire": 4591,
      "album": 4592,
      "ets": 4593,
      "coll": 4594,
      "ties": 4595,
      "addition": 4596,
      "shar": 4597,
      "nic": 4598,
      "hasard": 4599,
      "guer": 4600,
      "valeur": 4601,
      "commet": 4602,
      "planning": 4603,
      "shocked": 4604,
      "contri": 4605,
      "accidents": 4606,
      "freres": 4607,
      "license": 4608,
      "bigger": 4609,
      "arriere": 4610,
      "arrange": 4611,
      "imaginer": 4612,
      "arrivera": 4613,
      "bagages": 4614,
      "spot": 4615,
      "months": 4616,
      "suitcase": 4617,
      "accompag": 4618,
      "resultat": 4619,
      "kidding": 4620,
      "exerci": 4621,
      "earthqu": 4622,
      "absolument": 4623,
      "scienti": 4624,
      "morceau": 4625,
      "behavior": 4626,
      "twenty": 4627,
      "soccer": 4628,
      "eto": 4629,
      "eus": 4630,
      "gate": 4631,
      "oh": 4632,
      "push": 4633,
      "ster": 4634,
      "tit": 4635,
      "tache": 4636,
      "tandis": 4637,
      "relie": 4638,
      "heat": 4639,
      "depour": 4640,
      "detru": 4641,
      "detest": 4642,
      "tech": 4643,
      "itive": 4644,
      "lace": 4645,
      "audi": 4646,
      "account": 4647,
      "states": 4648,
      "advant": 4649,
      "penetre": 4650,
      "fed": 4651,
      "combat": 4652,
      "hiding": 4653,
      "oned": 4654,
      "tenait": 4655,
      "pretes": 4656,
      "lerai": 4657,
      "venait": 4658,
      "afri": 4659,
      "direct": 4660,
      "stole": 4661,
      "nulle": 4662,
      "eats": 4663,
      "totally": 4664,
      "chaleur": 4665,
      "calls": 4666,
      "single": 4667,
      "bike": 4668,
      "dort": 4669,
      "picked": 4670,
      "brothers": 4671,
      "effi": 4672,
      "effort": 4673,
      "plaindre": 4674,
      "birds": 4675,
      "semblent": 4676,
      "ordinaire": 4677,
      "chansons": 4678,
      "murder": 4679,
      "decouv": 4680,
      "absolutely": 4681,
      "ecris": 4682,
      "gasp": 4683,
      "theorie": 4684,
      "disparu": 4685,
      "vegetables": 4686,
      "pizza": 4687,
      "plaisanter": 4688,
      "doivent": 4689,
      "dle": 4690,
      "eight": 4691,
      "gnes": 4692,
      "map": 4693,
      "rit": 4694,
      "vase": 4695,
      "enfu": 4696,
      "quar": 4697,
      "ney": 4698,
      "unless": 4699,
      "peint": 4700,
      "ridi": 4701,
      "songs": 4702,
      "aines": 4703,
      "rendit": 4704,
      "precip": 4705,
      "preuve": 4706,
      "surs": 4707,
      "lettres": 4708,
      "ateurs": 4709,
      "jambe": 4710,
      "presence": 4711,
      "gers": 4712,
      "corde": 4713,
      "nouvel": 4714,
      "interromp": 4715,
      "montrez": 4716,
      "egard": 4717,
      "complete": 4718,
      "expecting": 4719,
      "writer": 4720,
      "salaire": 4721,
      "cookies": 4722,
      "attractive": 4723,
      "amuser": 4724,
      "pause": 4725,
      "subject": 4726,
      "considere": 4727,
      "smarter": 4728,
      "enseigner": 4729,
      "realized": 4730,
      "canape": 4731,
      "argument": 4732,
      "chocolat": 4733,
      "comprenez": 4734,
      "holiday": 4735,
      "maman": 4736,
      "schedule": 4737,
      "silencieux": 4738,
      "major": 4739,
      "explanation": 4740,
      "cen": 4741,
      "centre": 4742,
      "eveille": 4743,
      "fill": 4744,
      "os": 4745,
      "rac": 4746,
      "sn": 4747,
      "sted": 4748,
      "vil": 4749,
      "regu": 4750,
      "incend": 4751,
      "toes": 4752,
      "dejeune": 4753,
      "quo": 4754,
      "chances": 4755,
      "nomme": 4756,
      "tues": 4757,
      "pecher": 4758,
      "dirais": 4759,
      "trad": 4760,
      "sombre": 4761,
      "conclus": 4762,
      "partage": 4763,
      "local": 4764,
      "moque": 4765,
      "cate": 4766,
      "hid": 4767,
      "maries": 4768,
      "prepar": 4769,
      "cue": 4770,
      "vente": 4771,
      "eteindre": 4772,
      "prendra": 4773,
      "cartes": 4774,
      "whenever": 4775,
      "sentis": 4776,
      "passez": 4777,
      "caused": 4778,
      "prices": 4779,
      "firm": 4780,
      "vitesse": 4781,
      "bedroom": 4782,
      "veuilles": 4783,
      "milie": 4784,
      "matters": 4785,
      "explication": 4786,
      "eglise": 4787,
      "films": 4788,
      "difficultes": 4789,
      "conscient": 4790,
      "chick": 4791,
      "general": 4792,
      "concerned": 4793,
      "exercise": 4794,
      "oiseaux": 4795,
      "above": 4796,
      "curious": 4797,
      "absence": 4798,
      "marrant": 4799,
      "circulation": 4800,
      "incendie": 4801,
      "ben": 4802,
      "bors": 4803,
      "ks": 4804,
      "maire": 4805,
      "nar": 4806,
      "nine": 4807,
      "tat": 4808,
      "till": 4809,
      "œu": 4810,
      "lecture": 4811,
      "annon": 4812,
      "defin": 4813,
      "lady": 4814,
      "author": 4815,
      "noy": 4816,
      "rome": 4817,
      "peinture": 4818,
      "bete": 4819,
      "riches": 4820,
      "appoint": 4821,
      "amene": 4822,
      "parlons": 4823,
      "notes": 4824,
      "exi": 4825,
      "serons": 4826,
      "illegal": 4827,
      "minis": 4828,
      "places": 4829,
      "fright": 4830,
      "stock": 4831,
      "appelez": 4832,
      "speaker": 4833,
      "engage": 4834,
      "dropped": 4835,
      "photograp": 4836,
      "jump": 4837,
      "draw": 4838,
      "tourner": 4839,
      "sauver": 4840,
      "salt": 4841,
      "derniers": 4842,
      "harm": 4843,
      "spoken": 4844,
      "pretended": 4845,
      "confectionne": 4846,
      "comporte": 4847,
      "noticed": 4848,
      "purpose": 4849,
      "disputer": 4850,
      "crayon": 4851,
      "exhausted": 4852,
      "ape": 4853,
      "fiere": 4854,
      "hen": 4855,
      "nuts": 4856,
      "pant": 4857,
      "psy": 4858,
      "sin": 4859,
      "repet": 4860,
      "enor": 4861,
      "toward": 4862,
      "issue": 4863,
      "astic": 4864,
      "veiller": 4865,
      "ities": 4866,
      "lache": 4867,
      "changes": 4868,
      "roi": 4869,
      "roses": 4870,
      "costu": 4871,
      "aveug": 4872,
      "cale": 4873,
      "permettre": 4874,
      "happ": 4875,
      "mene": 4876,
      "brush": 4877,
      "crain": 4878,
      "morts": 4879,
      "fasses": 4880,
      "cash": 4881,
      "conduis": 4882,
      "critique": 4883,
      "comprend": 4884,
      "letters": 4885,
      "trusted": 4886,
      "entered": 4887,
      "attitude": 4888,
      "disposons": 4889,
      "pretend": 4890,
      "neighbors": 4891,
      "echecs": 4892,
      "evidence": 4893,
      "biscu": 4894,
      "gentleman": 4895,
      "natural": 4896,
      "weird": 4897,
      "exercice": 4898,
      "bye": 4899,
      "ji": 4900,
      "kin": 4901,
      "mai": 4902,
      "nit": 4903,
      "ome": 4904,
      "oce": 4905,
      "olu": 4906,
      "raise": 4907,
      "sports": 4908,
      "tin": 4909,
      "rely": 4910,
      "retraite": 4911,
      "ond": 4912,
      "depense": 4913,
      "asun": 4914,
      "metres": 4915,
      "mecs": 4916,
      "attemp": 4917,
      "quee": 4918,
      "alco": 4919,
      "alter": 4920,
      "etasun": 4921,
      "passes": 4922,
      "belles": 4923,
      "resolu": 4924,
      "apporter": 4925,
      "losing": 4926,
      "forced": 4927,
      "stone": 4928,
      "adv": 4929,
      "cious": 4930,
      "pencil": 4931,
      "tremble": 4932,
      "math": 4933,
      "cheer": 4934,
      "boit": 4935,
      "exis": 4936,
      "excu": 4937,
      "prouver": 4938,
      "plement": 4939,
      "vented": 4940,
      "veniez": 4941,
      "vire": 4942,
      "vivant": 4943,
      "shak": 4944,
      "toucher": 4945,
      "goodbye": 4946,
      "cross": 4947,
      "apped": 4948,
      "partici": 4949,
      "supplement": 4950,
      "forever": 4951,
      "believed": 4952,
      "demandez": 4953,
      "singer": 4954,
      "capital": 4955,
      "satur": 4956,
      "realite": 4957,
      "dirty": 4958,
      "windows": 4959,
      "idiote": 4960,
      "obligee": 4961,
      "meurtre": 4962,
      "style": 4963,
      "gunshot": 4964,
      "traverse": 4965,
      "fighting": 4966,
      "mignon": 4967,
      "threat": 4968,
      "debarrasser": 4969,
      "sandwi": 4970,
      "veritable": 4971,
      "fab": 4972,
      "flight": 4973,
      "mous": 4974,
      "mbe": 4975,
      "paie": 4976,
      "scol": 4977,
      "remin": 4978,
      "recommande": 4979,
      "encourage": 4980,
      "legs": 4981,
      "devenue": 4982,
      "ettes": 4983,
      "suffer": 4984,
      "avai": 4985,
      "pensent": 4986,
      "cance": 4987,
      "monn": 4988,
      "managed": 4989,
      "tenue": 4990,
      "agis": 4991,
      "discut": 4992,
      "gars": 4993,
      "gentille": 4994,
      "betray": 4995,
      "devint": 4996,
      "interessee": 4997,
      "cieuse": 4998,
      "polite": 4999,
      "decida": 5000,
      "eleph": 5001,
      "miles": 5002,
      "countries": 5003,
      "valent": 5004,
      "feuilles": 5005,
      "neither": 5006,
      "dingue": 5007,
      "heureusement": 5008,
      "volont": 5009,
      "disposez": 5010,
      "trouves": 5011,
      "approche": 5012,
      "choisi": 5013,
      "traveling": 5014,
      "paresse": 5015,
      "sweater": 5016,
      "responsabilite": 5017,
      "emporter": 5018,
      "navire": 5019,
      "demarrer": 5020,
      "soudain": 5021,
      "handed": 5022,
      "attentivement": 5023,
      "advantage": 5024,
      "exige": 5025,
      "costume": 5026,
      "epo": 5027,
      "fant": 5028,
      "mans": 5029,
      "squ": 5030,
      "scar": 5031,
      "ule": 5032,
      "œurs": 5033,
      "text": 5034,
      "jeux": 5035,
      "chess": 5036,
      "beur": 5037,
      "diet": 5038,
      "whis": 5039,
      "weap": 5040,
      "verrai": 5041,
      "tiend": 5042,
      "ambu": 5043,
      "acte": 5044,
      "forces": 5045,
      "formu": 5046,
      "sonne": 5047,
      "ades": 5048,
      "pends": 5049,
      "canada": 5050,
      "mood": 5051,
      "prove": 5052,
      "distur": 5053,
      "igne": 5054,
      "maisons": 5055,
      "menteur": 5056,
      "carried": 5057,
      "croyez": 5058,
      "appeared": 5059,
      "portez": 5060,
      "arreta": 5061,
      "cream": 5062,
      "prive": 5063,
      "grandmother": 5064,
      "themselves": 5065,
      "voyons": 5066,
      "voisins": 5067,
      "meilleurs": 5068,
      "charger": 5069,
      "instit": 5070,
      "differente": 5071,
      "bicyclette": 5072,
      "barbe": 5073,
      "climb": 5074,
      "wallet": 5075,
      "disposes": 5076,
      "pousser": 5077,
      "suggestion": 5078,
      "comportement": 5079,
      "cards": 5080,
      "national": 5081,
      "cousin": 5082,
      "amazing": 5083,
      "signific": 5084,
      "envoyer": 5085,
      "embarrassed": 5086,
      "confused": 5087,
      "lycee": 5088,
      "grandi": 5089,
      "responsibility": 5090,
      "epoque": 5091,
      "cence": 5092,
      "eh": 5093,
      "fal": 5094,
      "games": 5095,
      "hill": 5096,
      "image": 5097,
      "mant": 5098,
      "names": 5099,
      "yel": 5100,
      "reur": 5101,
      "repos": 5102,
      "influ": 5103,
      "meu": 5104,
      "section": 5105,
      "passion": 5106,
      "som": 5107,
      "tidi": 5108,
      "hobby": 5109,
      "abord": 5110,
      "pensait": 5111,
      "pool": 5112,
      "desp": 5113,
      "voleur": 5114,
      "survenu": 5115,
      "vra": 5116,
      "dispon": 5117,
      "dishes": 5118,
      "folle": 5119,
      "thered": 5120,
      "nique": 5121,
      "guest": 5122,
      "cherches": 5123,
      "matinee": 5124,
      "sites": 5125,
      "prior": 5126,
      "ponctu": 5127,
      "shoot": 5128,
      "gente": 5129,
      "gency": 5130,
      "hearing": 5131,
      "adoles": 5132,
      "occupees": 5133,
      "denied": 5134,
      "according": 5135,
      "semblant": 5136,
      "skier": 5137,
      "differentes": 5138,
      "mauvaises": 5139,
      "prisonni": 5140,
      "boisson": 5141,
      "burn": 5142,
      "forgotten": 5143,
      "indiquer": 5144,
      "clearly": 5145,
      "punctu": 5146,
      "raconte": 5147,
      "campagne": 5148,
      "escaped": 5149,
      "tastes": 5150,
      "economi": 5151,
      "possibility": 5152,
      "chocolate": 5153,
      "finger": 5154,
      "depressed": 5155,
      "appointment": 5156,
      "happiness": 5157,
      "available": 5158,
      "monnaie": 5159,
      "bright": 5160,
      "evit": 5161,
      "fache": 5162,
      "nais": 5163,
      "round": 5164,
      "wet": 5165,
      "zen": 5166,
      "regi": 5167,
      "reconnu": 5168,
      "ana": 5169,
      "anx": 5170,
      "incapable": 5171,
      "tex": 5172,
      "jeter": 5173,
      "roir": 5174,
      "cow": 5175,
      "copain": 5176,
      "riz": 5177,
      "limit": 5178,
      "weak": 5179,
      "els": 5180,
      "parlent": 5181,
      "alliez": 5182,
      "cient": 5183,
      "manage": 5184,
      "perhap": 5185,
      "agir": 5186,
      "pleur": 5187,
      "shy": 5188,
      "ground": 5189,
      "laissa": 5190,
      "pierre": 5191,
      "bonheur": 5192,
      "prendr": 5193,
      "cercle": 5194,
      "dying": 5195,
      "hug": 5196,
      "viennes": 5197,
      "enfance": 5198,
      "oldest": 5199,
      "prize": 5200,
      "atives": 5201,
      "portable": 5202,
      "starting": 5203,
      "bouge": 5204,
      "blesser": 5205,
      "chanceux": 5206,
      "teachers": 5207,
      "policeman": 5208,
      "samedi": 5209,
      "preferee": 5210,
      "echapper": 5211,
      "confident": 5212,
      "appa": 5213,
      "poison": 5214,
      "resultats": 5215,
      "reserve": 5216,
      "taste": 5217,
      "retirer": 5218,
      "improb": 5219,
      "mignonne": 5220,
      "pronon": 5221,
      "jackson": 5222,
      "crowd": 5223,
      "express": 5224,
      "merveilleux": 5225,
      "piscine": 5226,
      "timide": 5227,
      "advance": 5228,
      "institut": 5229,
      "perhaps": 5230,
      "bask": 5231,
      "cing": 5232,
      "cter": 5233,
      "ears": 5234,
      "gam": 5235,
      "hous": 5236,
      "nait": 5237,
      "paire": 5238,
      "rise": 5239,
      "siere": 5240,
      "sœurs": 5241,
      "spends": 5242,
      "reviens": 5243,
      "annoy": 5244,
      "inde": 5245,
      "inet": 5246,
      "tota": 5247,
      "deman": 5248,
      "devais": 5249,
      "devient": 5250,
      "assi": 5251,
      "nelle": 5252,
      "vement": 5253,
      "alcool": 5254,
      "usage": 5255,
      "verse": 5256,
      "tienne": 5257,
      "size": 5258,
      "parta": 5259,
      "parvenir": 5260,
      "answers": 5261,
      "proof": 5262,
      "hire": 5263,
      "mars": 5264,
      "saches": 5265,
      "disposer": 5266,
      "complique": 5267,
      "session": 5268,
      "grace": 5269,
      "everywhere": 5270,
      "presse": 5271,
      "gentilles": 5272,
      "musici": 5273,
      "soulage": 5274,
      "vaisse": 5275,
      "portefeuille": 5276,
      "devait": 5277,
      "aussitot": 5278,
      "priv": 5279,
      "obser": 5280,
      "magne": 5281,
      "jazz": 5282,
      "drogue": 5283,
      "blesses": 5284,
      "clou": 5285,
      "faudra": 5286,
      "miracle": 5287,
      "talented": 5288,
      "application": 5289,
      "highly": 5290,
      "ennuyeux": 5291,
      "results": 5292,
      "ability": 5293,
      "violence": 5294,
      "viendrait": 5295,
      "souffle": 5296,
      "skiing": 5297,
      "incredi": 5298,
      "cigarette": 5299,
      "physi": 5300,
      "quotidi": 5301,
      "improbable": 5302,
      "institutrice": 5303,
      "basket": 5304,
      "emo": 5305,
      "eclair": 5306,
      "island": 5307,
      "mel": 5308,
      "members": 5309,
      "separ": 5310,
      "quet": 5311,
      "ourselves": 5312,
      "liqui": 5313,
      "elu": 5314,
      "consul": 5315,
      "ainted": 5316,
      "poche": 5317,
      "manges": 5318,
      "marre": 5319,
      "deroule": 5320,
      "within": 5321,
      "examp": 5322,
      "distri": 5323,
      "dry": 5324,
      "drag": 5325,
      "jambes": 5326,
      "brit": 5327,
      "seldom": 5328,
      "personnel": 5329,
      "connue": 5330,
      "mayor": 5331,
      "veste": 5332,
      "devine": 5333,
      "ancing": 5334,
      "fassiez": 5335,
      "election": 5336,
      "filled": 5337,
      "voisin": 5338,
      "examination": 5339,
      "expert": 5340,
      "natif": 5341,
      "burned": 5342,
      "sommet": 5343,
      "pleasant": 5344,
      "obey": 5345,
      "amoureuse": 5346,
      "hesit": 5347,
      "atteint": 5348,
      "atteindre": 5349,
      "soldats": 5350,
      "scream": 5351,
      "disease": 5352,
      "introduced": 5353,
      "programme": 5354,
      "diplome": 5355,
      "siege": 5356,
      "profondement": 5357,
      "caisse": 5358,
      "similar": 5359,
      "doigt": 5360,
      "projets": 5361,
      "gorge": 5362,
      "soldiers": 5363,
      "emergency": 5364,
      "earthquake": 5365,
      "aveugle": 5366,
      "punctual": 5367,
      "bue": 5368,
      "cacher": 5369,
      "dancing": 5370,
      "epar": 5371,
      "hie": 5372,
      "jout": 5373,
      "laid": 5374,
      "nur": 5375,
      "oles": 5376,
      "remis": 5377,
      "escal": 5378,
      "insec": 5379,
      "depar": 5380,
      "develop": 5381,
      "meals": 5382,
      "armes": 5383,
      "lated": 5384,
      "peindre": 5385,
      "pardon": 5386,
      "allonge": 5387,
      "add": 5388,
      "plante": 5389,
      "moving": 5390,
      "mondi": 5391,
      "answered": 5392,
      "propose": 5393,
      "procure": 5394,
      "voie": 5395,
      "cheap": 5396,
      "saou": 5397,
      "anyway": 5398,
      "coutu": 5399,
      "couvert": 5400,
      "someday": 5401,
      "disting": 5402,
      "upstairs": 5403,
      "miser": 5404,
      "ouvrez": 5405,
      "useful": 5406,
      "shoulder": 5407,
      "gives": 5408,
      "guard": 5409,
      "spell": 5410,
      "allees": 5411,
      "offen": 5412,
      "offended": 5413,
      "paying": 5414,
      "interest": 5415,
      "magni": 5416,
      "engine": 5417,
      "fash": 5418,
      "veuille": 5419,
      "runs": 5420,
      "chauffe": 5421,
      "rencontree": 5422,
      "accorde": 5423,
      "warn": 5424,
      "echappe": 5425,
      "sales": 5426,
      "actions": 5427,
      "controler": 5428,
      "hates": 5429,
      "rendue": 5430,
      "furn": 5431,
      "coinci": 5432,
      "traiter": 5433,
      "ouvrage": 5434,
      "echec": 5435,
      "particulie": 5436,
      "effraye": 5437,
      "relations": 5438,
      "clairement": 5439,
      "document": 5440,
      "remained": 5441,
      "capacite": 5442,
      "chicken": 5443,
      "repeter": 5444,
      "regime": 5445,
      "gon": 5446,
      "ivre": 5447,
      "scr": 5448,
      "tw": 5449,
      "usee": 5450,
      "remind": 5451,
      "repons": 5452,
      "reply": 5453,
      "hey": 5454,
      "toit": 5455,
      "demi": 5456,
      "delay": 5457,
      "assurance": 5458,
      "thin": 5459,
      "thief": 5460,
      "iling": 5461,
      "separe": 5462,
      "celi": 5463,
      "roof": 5464,
      "code": 5465,
      "copy": 5466,
      "cops": 5467,
      "using": 5468,
      "dirent": 5469,
      "soft": 5470,
      "timbres": 5471,
      "convient": 5472,
      "parie": 5473,
      "poll": 5474,
      "posa": 5475,
      "peri": 5476,
      "knowled": 5477,
      "bleu": 5478,
      "couche": 5479,
      "cessez": 5480,
      "aff": 5481,
      "vraie": 5482,
      "workers": 5483,
      "tells": 5484,
      "butter": 5485,
      "speci": 5486,
      "bud": 5487,
      "matins": 5488,
      "omie": 5489,
      "closer": 5490,
      "aiderai": 5491,
      "connaisse": 5492,
      "fascin": 5493,
      "policier": 5494,
      "stranger": 5495,
      "restee": 5496,
      "picnic": 5497,
      "sisters": 5498,
      "apprecier": 5499,
      "naked": 5500,
      "fermee": 5501,
      "accepted": 5502,
      "sortit": 5503,
      "translate": 5504,
      "points": 5505,
      "destro": 5506,
      "costs": 5507,
      "pleasure": 5508,
      "failli": 5509,
      "oreille": 5510,
      "camion": 5511,
      "baisse": 5512,
      "threw": 5513,
      "system": 5514,
      "secrets": 5515,
      "record": 5516,
      "exemple": 5517,
      "sharp": 5518,
      "saturday": 5519,
      "reponses": 5520,
      "celibat": 5521,
      "18": 5522,
      "aque": 5523,
      "bite": 5524,
      "blon": 5525,
      "eded": 5526,
      "fous": 5527,
      "ox": 5528,
      "rus": 5529,
      "rab": 5530,
      "rained": 5531,
      "sable": 5532,
      "refaire": 5533,
      "ering": 5534,
      "infir": 5535,
      "insurance": 5536,
      "assit": 5537,
      "astique": 5538,
      "membres": 5539,
      "neig": 5540,
      "thro": 5541,
      "chir": 5542,
      "rock": 5543,
      "unlikely": 5544,
      "dote": 5545,
      "bel": 5546,
      "dict": 5547,
      "limite": 5548,
      "consis": 5549,
      "loy": 5550,
      "adap": 5551,
      "plantes": 5552,
      "prouv": 5553,
      "dispos": 5554,
      "mises": 5555,
      "dentiste": 5556,
      "dentist": 5557,
      "raisons": 5558,
      "tooth": 5559,
      "sentais": 5560,
      "supp": 5561,
      "pouviez": 5562,
      "lovely": 5563,
      "careless": 5564,
      "connaissait": 5565,
      "achie": 5566,
      "childhood": 5567,
      "eleg": 5568,
      "aliments": 5569,
      "classi": 5570,
      "easier": 5571,
      "apprecierais": 5572,
      "etrangers": 5573,
      "sauter": 5574,
      "foods": 5575,
      "cuisin": 5576,
      "fermez": 5577,
      "collection": 5578,
      "email": 5579,
      "third": 5580,
      "saviez": 5581,
      "reconnaissante": 5582,
      "armee": 5583,
      "group": 5584,
      "politici": 5585,
      "punished": 5586,
      "teaching": 5587,
      "descend": 5588,
      "foolish": 5589,
      "appellerai": 5590,
      "leader": 5591,
      "quinze": 5592,
      "eventu": 5593,
      "avoid": 5594,
      "fortunately": 5595,
      "biscuits": 5596,
      "alcoho": 5597,
      "16": 5598,
      "ajout": 5599,
      "rons": 5600,
      "yens": 5601,
      "remain": 5602,
      "esome": 5603,
      "leva": 5604,
      "invent": 5605,
      "insul": 5606,
      "decor": 5607,
      "quante": 5608,
      "mec": 5609,
      "thom": 5610,
      "arms": 5611,
      "seve": 5612,
      "aurions": 5613,
      "cope": 5614,
      "anti": 5615,
      "resta": 5616,
      "diary": 5617,
      "oigne": 5618,
      "amitie": 5619,
      "loss": 5620,
      "state": 5621,
      "mont": 5622,
      "dess": 5623,
      "voted": 5624,
      "volon": 5625,
      "hired": 5626,
      "marri": 5627,
      "perdit": 5628,
      "sach": 5629,
      "disait": 5630,
      "fumes": 5631,
      "laissee": 5632,
      "toilettes": 5633,
      "guide": 5634,
      "courrier": 5635,
      "sentie": 5636,
      "souper": 5637,
      "interet": 5638,
      "race": 5639,
      "donnees": 5640,
      "hurried": 5641,
      "bouger": 5642,
      "ignit": 5643,
      "petits": 5644,
      "rumeur": 5645,
      "douce": 5646,
      "telles": 5647,
      "drives": 5648,
      "ecrivez": 5649,
      "imagin": 5650,
      "horreur": 5651,
      "solved": 5652,
      "ctif": 5653,
      "guere": 5654,
      "climat": 5655,
      "informations": 5656,
      "recemment": 5657,
      "master": 5658,
      "etrangere": 5659,
      "destin": 5660,
      "destination": 5661,
      "pousse": 5662,
      "americans": 5663,
      "innocence": 5664,
      "depeche": 5665,
      "ouvrit": 5666,
      "possibilite": 5667,
      "lisez": 5668,
      "systeme": 5669,
      "instructions": 5670,
      "abandoned": 5671,
      "epuise": 5672,
      "justice": 5673,
      "milieu": 5674,
      "enorme": 5675,
      "houses": 5676,
      "fashion": 5677,
      "furniture": 5678,
      "thomas": 5679,
      "ciles": 5680,
      "ecl": 5681,
      "hil": 5682,
      "ns": 5683,
      "nap": 5684,
      "oil": 5685,
      "pin": 5686,
      "pne": 5687,
      "stom": 5688,
      "remer": 5689,
      "meure": 5690,
      "tho": 5691,
      "arro": 5692,
      "armed": 5693,
      "ordres": 5694,
      "passa": 5695,
      "uns": 5696,
      "unhappy": 5697,
      "sofa": 5698,
      "tiques": 5699,
      "loge": 5700,
      "logie": 5701,
      "acquerir": 5702,
      "stat": 5703,
      "stres": 5704,
      "rende": 5705,
      "plant": 5706,
      "washed": 5707,
      "perfor": 5708,
      "permit": 5709,
      "agent": 5710,
      "tough": 5711,
      "mini": 5712,
      "pies": 5713,
      "ferions": 5714,
      "brill": 5715,
      "ssier": 5716,
      "pareille": 5717,
      "akes": 5718,
      "courut": 5719,
      "mater": 5720,
      "passeport": 5721,
      "aurons": 5722,
      "opti": 5723,
      "jume": 5724,
      "rappelez": 5725,
      "steak": 5726,
      "suivant": 5727,
      "suffit": 5728,
      "passport": 5729,
      "poissons": 5730,
      "fixed": 5731,
      "zzy": 5732,
      "prudents": 5733,
      "emprunte": 5734,
      "middle": 5735,
      "souhaiterais": 5736,
      "construit": 5737,
      "arguing": 5738,
      "ambition": 5739,
      "comprehen": 5740,
      "jacket": 5741,
      "relig": 5742,
      "gratu": 5743,
      "mathematiques": 5744,
      "ameliore": 5745,
      "exprimer": 5746,
      "practice": 5747,
      "flics": 5748,
      "stamps": 5749,
      "epaule": 5750,
      "occurred": 5751,
      "excusez": 5752,
      "ambulance": 5753,
      "quotidienne": 5754,
      "example": 5755,
      "stomach": 5756,
      "drow": 5757,
      "ick": 5758,
      "pte": 5759,
      "rele": 5760,
      "recommand": 5761,
      "inutile": 5762,
      "def": 5763,
      "determin": 5764,
      "tered": 5765,
      "attir": 5766,
      "etant": 5767,
      "chic": 5768,
      "suspe": 5769,
      "dizzy": 5770,
      "mental": 5771,
      "conce": 5772,
      "amusee": 5773,
      "accent": 5774,
      "fever": 5775,
      "iron": 5776,
      "cace": 5777,
      "cares": 5778,
      "manqu": 5779,
      "permet": 5780,
      "agers": 5781,
      "complet": 5782,
      "bienvenue": 5783,
      "mistaken": 5784,
      "laisses": 5785,
      "laisserai": 5786,
      "toires": 5787,
      "arriva": 5788,
      "arrivent": 5789,
      "wherever": 5790,
      "allemagne": 5791,
      "materi": 5792,
      "situe": 5793,
      "downstairs": 5794,
      "habille": 5795,
      "changement": 5796,
      "staring": 5797,
      "poster": 5798,
      "hurts": 5799,
      "faible": 5800,
      "voulaient": 5801,
      "facts": 5802,
      "rumor": 5803,
      "ignorer": 5804,
      "winning": 5805,
      "reveiller": 5806,
      "valu": 5807,
      "cinquante": 5808,
      "awesome": 5809,
      "spending": 5810,
      "terminee": 5811,
      "fenetres": 5812,
      "respecte": 5813,
      "discute": 5814,
      "sensible": 5815,
      "complained": 5816,
      "attack": 5817,
      "raised": 5818,
      "assise": 5819,
      "fievre": 5820,
      "concerne": 5821,
      "reflechis": 5822,
      "reservation": 5823,
      "sympath": 5824,
      "ravie": 5825,
      "fairly": 5826,
      "failure": 5827,
      "hypo": 5828,
      "celebr": 5829,
      "spectacle": 5830,
      "emmene": 5831,
      "emmener": 5832,
      "introduce": 5833,
      "smells": 5834,
      "refusa": 5835,
      "souffre": 5836,
      "postp": 5837,
      "strict": 5838,
      "gging": 5839,
      "intend": 5840,
      "belongs": 5841,
      "americain": 5842,
      "demissionner": 5843,
      "saint": 5844,
      "fonctionner": 5845,
      "volunte": 5846,
      "contribu": 5847,
      "ocean": 5848,
      "vaisselle": 5849,
      "private": 5850,
      "nurse": 5851,
      "abe": 5852,
      "ecar": 5853,
      "gus": 5854,
      "ghost": 5855,
      "pit": 5856,
      "shi": 5857,
      "tap": 5858,
      "tail": 5859,
      "estom": 5860,
      "onze": 5861,
      "isent": 5862,
      "orange": 5863,
      "entier": 5864,
      "eten": 5865,
      "auquel": 5866,
      "noms": 5867,
      "rowed": 5868,
      "tomba": 5869,
      "peche": 5870,
      "ressens": 5871,
      "ayons": 5872,
      "social": 5873,
      "conc": 5874,
      "amoun": 5875,
      "parked": 5876,
      "abet": 5877,
      "stren": 5878,
      "rencontr": 5879,
      "poches": 5880,
      "chere": 5881,
      "aired": 5882,
      "lum": 5883,
      "vendu": 5884,
      "ditions": 5885,
      "touched": 5886,
      "menace": 5887,
      "sortes": 5888,
      "vieilles": 5889,
      "stun": 5890,
      "puissions": 5891,
      "speed": 5892,
      "cherchez": 5893,
      "huge": 5894,
      "germany": 5895,
      "perer": 5896,
      "particip": 5897,
      "essence": 5898,
      "lished": 5899,
      "player": 5900,
      "difficiles": 5901,
      "surprises": 5902,
      "voudrait": 5903,
      "rencontrees": 5904,
      "entendue": 5905,
      "resterai": 5906,
      "profit": 5907,
      "difficulty": 5908,
      "nourrir": 5909,
      "realise": 5910,
      "gested": 5911,
      "enjoying": 5912,
      "wondering": 5913,
      "salary": 5914,
      "headache": 5915,
      "prisoners": 5916,
      "classroom": 5917,
      "conscious": 5918,
      "adul": 5919,
      "exception": 5920,
      "haute": 5921,
      "orders": 5922,
      "environs": 5923,
      "flower": 5924,
      "197": 5925,
      "succeeded": 5926,
      "depecher": 5927,
      "persuaded": 5928,
      "oreilles": 5929,
      "ugly": 5930,
      "repair": 5931,
      "ancien": 5932,
      "model": 5933,
      "explosion": 5934,
      "detendre": 5935,
      "survive": 5936,
      "damage": 5937,
      "attaque": 5938,
      "derangerait": 5939,
      "accompagner": 5940,
      "decouvrir": 5941,
      "sandwich": 5942,
      "betrayed": 5943,
      "marriage": 5944,
      "optimis": 5945,
      "14": 5946,
      "bene": 5947,
      "ciez": 5948,
      "dine": 5949,
      "dating": 5950,
      "fleur": 5951,
      "fence": 5952,
      "pal": 5953,
      "pity": 5954,
      "ril": 5955,
      "refri": 5956,
      "retired": 5957,
      "envis": 5958,
      "del": 5959,
      "dete": 5960,
      "demie": 5961,
      "asi": 5962,
      "nea": 5963,
      "vehi": 5964,
      "oranges": 5965,
      "lade": 5966,
      "unable": 5967,
      "timid": 5968,
      "area": 5969,
      "confir": 5970,
      "amen": 5971,
      "terie": 5972,
      "plat": 5973,
      "plie": 5974,
      "plants": 5975,
      "poem": 5976,
      "male": 5977,
      "dessous": 5978,
      "protest": 5979,
      "proxi": 5980,
      "servir": 5981,
      "illon": 5982,
      "safet": 5983,
      "dises": 5984,
      "pul": 5985,
      "pulled": 5986,
      "grate": 5987,
      "cking": 5988,
      "final": 5989,
      "icious": 5990,
      "micro": 5991,
      "longs": 5992,
      "partit": 5993,
      "craig": 5994,
      "studies": 5995,
      "puissiez": 5996,
      "frapper": 5997,
      "retarde": 5998,
      "brea": 5999,
      "mortes": 6000,
      "supporte": 6001,
      "believes": 6002,
      "etude": 6003,
      "commencons": 6004,
      "space": 6005,
      "friendship": 6006,
      "finding": 6007,
      "eleva": 6008,
      "cassee": 6009,
      "borrowed": 6010,
      "soif": 6011,
      "suggested": 6012,
      "ordinateurs": 6013,
      "appropri": 6014,
      "worrying": 6015,
      "journaux": 6016,
      "vertis": 6017,
      "populaire": 6018,
      "continued": 6019,
      "generalement": 6020,
      "viendras": 6021,
      "vivons": 6022,
      "esperons": 6023,
      "objection": 6024,
      "emporte": 6025,
      "annule": 6026,
      "negoti": 6027,
      "capitale": 6028,
      "adorable": 6029,
      "negli": 6030,
      "kinds": 6031,
      "partager": 6032,
      "coincidence": 6033,
      "concentrer": 6034,
      "proximite": 6035,
      "safety": 6036,
      "ging": 6037,
      "gaz": 6038,
      "haw": 6039,
      "h30": 6040,
      "jau": 6041,
      "pil": 6042,
      "pushed": 6043,
      "rin": 6044,
      "sla": 6045,
      "slight": 6046,
      "vag": 6047,
      "xe": 6048,
      "represent": 6049,
      "reposer": 6050,
      "remonter": 6051,
      "enque": 6052,
      "ones": 6053,
      "err": 6054,
      "inclu": 6055,
      "isme": 6056,
      "allions": 6057,
      "chang": 6058,
      "unes": 6059,
      "susp": 6060,
      "coif": 6061,
      "lift": 6062,
      "licite": 6063,
      "verti": 6064,
      "verifie": 6065,
      "ama": 6066,
      "parmi": 6067,
      "parking": 6068,
      "absor": 6069,
      "rendrai": 6070,
      "ader": 6071,
      "ienne": 6072,
      "pread": 6073,
      "knowing": 6074,
      "served": 6075,
      "illness": 6076,
      "compared": 6077,
      "arriv": 6078,
      "airplane": 6079,
      "beauty": 6080,
      "whoever": 6081,
      "coups": 6082,
      "appears": 6083,
      "icked": 6084,
      "joues": 6085,
      "shoe": 6086,
      "possession": 6087,
      "factory": 6088,
      "options": 6089,
      "jumped": 6090,
      "preferes": 6091,
      "ecrivain": 6092,
      "settle": 6093,
      "fallen": 6094,
      "falling": 6095,
      "nourris": 6096,
      "hung": 6097,
      "souri": 6098,
      "contrat": 6099,
      "logique": 6100,
      "loupe": 6101,
      "employer": 6102,
      "poupee": 6103,
      "computers": 6104,
      "divorced": 6105,
      "repaired": 6106,
      "vendredi": 6107,
      "woods": 6108,
      "cigarettes": 6109,
      "estime": 6110,
      "apparence": 6111,
      "fifty": 6112,
      "complicated": 6113,
      "graduated": 6114,
      "ecoutez": 6115,
      "poeme": 6116,
      "exciting": 6117,
      "impatiente": 6118,
      "jaloux": 6119,
      "organized": 6120,
      "efficace": 6121,
      "annonce": 6122,
      "frightened": 6123,
      "beurre": 6124,
      "totalement": 6125,
      "infirmiere": 6126,
      "drowned": 6127,
      "refriger": 6128,
      "grateful": 6129,
      "suspicious": 6130,
      "dame": 6131,
      "imit": 6132,
      "mbed": 6133,
      "pus": 6134,
      "pper": 6135,
      "russi": 6136,
      "spl": 6137,
      "sses": 6138,
      "vard": 6139,
      "redi": 6140,
      "recomm": 6141,
      "aimais": 6142,
      "demo": 6143,
      "ashed": 6144,
      "jeans": 6145,
      "seats": 6146,
      "ordre": 6147,
      "aun": 6148,
      "coince": 6149,
      "behave": 6150,
      "liber": 6151,
      "trained": 6152,
      "apprends": 6153,
      "conser": 6154,
      "confon": 6155,
      "consom": 6156,
      "conditions": 6157,
      "amuses": 6158,
      "parvenu": 6159,
      "goal": 6160,
      "mos": 6161,
      "montra": 6162,
      "desir": 6163,
      "dessert": 6164,
      "bomb": 6165,
      "exe": 6166,
      "serre": 6167,
      "dish": 6168,
      "discre": 6169,
      "disagree": 6170,
      "disgus": 6171,
      "tempor": 6172,
      "futur": 6173,
      "press": 6174,
      "hello": 6175,
      "frir": 6176,
      "gotta": 6177,
      "courte": 6178,
      "intri": 6179,
      "malin": 6180,
      "planned": 6181,
      "jobs": 6182,
      "span": 6183,
      "lately": 6184,
      "remets": 6185,
      "oppo": 6186,
      "conduite": 6187,
      "presents": 6188,
      "egal": 6189,
      "saute": 6190,
      "fatigues": 6191,
      "immeu": 6192,
      "satisfaite": 6193,
      "joueur": 6194,
      "sources": 6195,
      "acceptable": 6196,
      "trouva": 6197,
      "enerve": 6198,
      "attrap": 6199,
      "passen": 6200,
      "dreaming": 6201,
      "cleaned": 6202,
      "suffisant": 6203,
      "intelligente": 6204,
      "attache": 6205,
      "consideration": 6206,
      "prudentes": 6207,
      "accompagne": 6208,
      "field": 6209,
      "perfectly": 6210,
      "vivait": 6211,
      "rompu": 6212,
      "smiled": 6213,
      "powerful": 6214,
      "evident": 6215,
      "relaxed": 6216,
      "descendre": 6217,
      "effet": 6218,
      "demenage": 6219,
      "crossed": 6220,
      "joking": 6221,
      "augmentation": 6222,
      "skinny": 6223,
      "barely": 6224,
      "audience": 6225,
      "pantal": 6226,
      "guests": 6227,
      "eviter": 6228,
      "demanded": 6229,
      "eventually": 6230,
      "estomac": 6231,
      "nearest": 6232,
      "recommend": 6233,
      "..": 6234,
      "15": 6235,
      "blow": 6236,
      "evan": 6237,
      "hated": 6238,
      "ires": 6239,
      "kk": 6240,
      "nable": 6241,
      "phe": 6242,
      "rure": 6243,
      "ration": 6244,
      "spread": 6245,
      "tong": 6246,
      "tains": 6247,
      "uves": 6248,
      "xante": 6249,
      "zero": 6250,
      "ouer": 6251,
      "repose": 6252,
      "remise": 6253,
      "enregis": 6254,
      "heros": 6255,
      "infe": 6256,
      "incident": 6257,
      "defe": 6258,
      "decri": 6259,
      "meas": 6260,
      "meters": 6261,
      "queue": 6262,
      "roll": 6263,
      "sud": 6264,
      "copie": 6265,
      "lion": 6266,
      "libe": 6267,
      "wears": 6268,
      "wealth": 6269,
      "songes": 6270,
      "tery": 6271,
      "myster": 6272,
      "proches": 6273,
      "commerci": 6274,
      "mance": 6275,
      "bow": 6276,
      "tence": 6277,
      "histoires": 6278,
      "chosen": 6279,
      "firent": 6280,
      "vend": 6281,
      "vided": 6282,
      "foret": 6283,
      "forest": 6284,
      "compro": 6285,
      "grass": 6286,
      "cesser": 6287,
      "beaux": 6288,
      "beaute": 6289,
      "pressure": 6290,
      "friday": 6291,
      "epais": 6292,
      "gardez": 6293,
      "brief": 6294,
      "visa": 6295,
      "crack": 6296,
      "fron": 6297,
      "frappa": 6298,
      "bulle": 6299,
      "buvez": 6300,
      "south": 6301,
      "regardes": 6302,
      "ruined": 6303,
      "elected": 6304,
      "ignored": 6305,
      "bio": 6306,
      "badly": 6307,
      "latin": 6308,
      "difficulte": 6309,
      "garer": 6310,
      "travaillez": 6311,
      "sundays": 6312,
      "chatte": 6313,
      "soixante": 6314,
      "blanche": 6315,
      "curieux": 6316,
      "approach": 6317,
      "harvard": 6318,
      "ecoutes": 6319,
      "choisis": 6320,
      "thirsty": 6321,
      "promises": 6322,
      "chanteur": 6323,
      "communi": 6324,
      "offert": 6325,
      "honneur": 6326,
      "accue": 6327,
      "promener": 6328,
      "familier": 6329,
      "esperais": 6330,
      "monsieur": 6331,
      "verrouille": 6332,
      "archite": 6333,
      "affecte": 6334,
      "soudaine": 6335,
      "sejourne": 6336,
      "jokes": 6337,
      "interrupt": 6338,
      "deeply": 6339,
      "entirely": 6340,
      "colline": 6341,
      "tremblement": 6342,
      "elephants": 6343,
      "volontaire": 6344,
      "false": 6345,
      "influence": 6346,
      "mondiale": 6347,
      "knowledge": 6348,
      "celibataire": 6349,
      "performance": 6350,
      "hawai": 6351,
      "tongue": 6352,
      "ares": 6353,
      "baig": 6354,
      "eve": 6355,
      "fl": 6356,
      "mun": 6357,
      "spare": 6358,
      "var": 6359,
      "outr": 6360,
      "remb": 6361,
      "retrouver": 6362,
      "aigne": 6363,
      "headed": 6364,
      "tori": 6365,
      "tomed": 6366,
      "nees": 6367,
      "theater": 6368,
      "ingen": 6369,
      "aison": 6370,
      "aupres": 6371,
      "chait": 6372,
      "choir": 6373,
      "ung": 6374,
      "cover": 6375,
      "resign": 6376,
      "eloig": 6377,
      "conges": 6378,
      "amener": 6379,
      "pardonner": 6380,
      "treated": 6381,
      "moder": 6382,
      "fere": 6383,
      "shelf": 6384,
      "mangent": 6385,
      "tendance": 6386,
      "prevent": 6387,
      "ders": 6388,
      "illard": 6389,
      "bleed": 6390,
      "drez": 6391,
      "fiques": 6392,
      "shape": 6393,
      "upon": 6394,
      "goods": 6395,
      "fermes": 6396,
      "crise": 6397,
      "frank": 6398,
      "franche": 6399,
      "acheve": 6400,
      "corner": 6401,
      "malgre": 6402,
      "creme": 6403,
      "obs": 6404,
      "piege": 6405,
      "faith": 6406,
      "ailleurs": 6407,
      "calcu": 6408,
      "eleven": 6409,
      "capables": 6410,
      "lications": 6411,
      "douz": 6412,
      "bile": 6413,
      "secur": 6414,
      "apprecient": 6415,
      "rappelles": 6416,
      "sauce": 6417,
      "value": 6418,
      "examens": 6419,
      "realiser": 6420,
      "plaint": 6421,
      "suspen": 6422,
      "nord": 6423,
      "mourut": 6424,
      "burst": 6425,
      "appelee": 6426,
      "preferable": 6427,
      "economie": 6428,
      "decede": 6429,
      "opera": 6430,
      "camar": 6431,
      "promesses": 6432,
      "etagere": 6433,
      "magazines": 6434,
      "accustomed": 6435,
      "piration": 6436,
      "reliable": 6437,
      "depends": 6438,
      "oublierai": 6439,
      "curio": 6440,
      "automne": 6441,
      "mathematics": 6442,
      "chandail": 6443,
      "properly": 6444,
      "stealing": 6445,
      "greeted": 6446,
      "penetrer": 6447,
      "disponible": 6448,
      "gentillesse": 6449,
      "magnifique": 6450,
      "remercie": 6451,
      "quotidiennement": 6452,
      "cta": 6453,
      "cente": 6454,
      "ec": 6455,
      "eco": 6456,
      "fy": 6457,
      "ides": 6458,
      "jury": 6459,
      "noun": 6460,
      "ots": 6461,
      "pure": 6462,
      "sink": 6463,
      "tis": 6464,
      "aides": 6465,
      "tower": 6466,
      "dedi": 6467,
      "aside": 6468,
      "ascense": 6469,
      "mete": 6470,
      "meurs": 6471,
      "argue": 6472,
      "attri": 6473,
      "veau": 6474,
      "seche": 6475,
      "iti": 6476,
      "ently": 6477,
      "entra": 6478,
      "eter": 6479,
      "chall": 6480,
      "chasse": 6481,
      "chief": 6482,
      "dozen": 6483,
      "bee": 6484,
      "rigo": 6485,
      "version": 6486,
      "trous": 6487,
      "tier": 6488,
      "donnee": 6489,
      "conten": 6490,
      "sienne": 6491,
      "terme": 6492,
      "stars": 6493,
      "plaig": 6494,
      "wasting": 6495,
      "moti": 6496,
      "poker": 6497,
      "manieres": 6498,
      "marchand": 6499,
      "percent": 6500,
      "preoccupe": 6501,
      "tape": 6502,
      "bleue": 6503,
      "fog": 6504,
      "puzz": 6505,
      "odd": 6506,
      "fuji": 6507,
      "saison": 6508,
      "nia": 6509,
      "mensonges": 6510,
      "puisses": 6511,
      "bul": 6512,
      "courr": 6513,
      "corri": 6514,
      "total": 6515,
      "deviner": 6516,
      "connaissais": 6517,
      "etudes": 6518,
      "intersection": 6519,
      "funer": 6520,
      "petites": 6521,
      "cast": 6522,
      "cases": 6523,
      "captain": 6524,
      "aliment": 6525,
      "kindness": 6526,
      "begins": 6527,
      "deny": 6528,
      "valises": 6529,
      "battu": 6530,
      "sincere": 6531,
      "voient": 6532,
      "doctors": 6533,
      "artiste": 6534,
      "awful": 6535,
      "attendait": 6536,
      "souris": 6537,
      "medical": 6538,
      "advise": 6539,
      "clients": 6540,
      "contents": 6541,
      "supermarket": 6542,
      "indique": 6543,
      "delicious": 6544,
      "hauteur": 6545,
      "apologized": 6546,
      "entendit": 6547,
      "desert": 6548,
      "hesite": 6549,
      "violon": 6550,
      "violin": 6551,
      "persuader": 6552,
      "selling": 6553,
      "effective": 6554,
      "reveillee": 6555,
      "electricite": 6556,
      "ambitious": 6557,
      "bathroom": 6558,
      "dispute": 6559,
      "contrariee": 6560,
      "accroche": 6561,
      "lourd": 6562,
      "canadian": 6563,
      "effectue": 6564,
      "relieved": 6565,
      "reminds": 6566,
      "suffering": 6567,
      "anxious": 6568,
      "liquide": 6569,
      "escaliers": 6570,
      "pollu": 6571,
      "budget": 6572,
      "ajouter": 6573,
      "sachiez": 6574,
      "aunt": 6575,
      "franchement": 6576,
      "12": 6577,
      "aler": 6578,
      "ator": 6579,
      "bound": 6580,
      "flying": 6581,
      "hall": 6582,
      "igh": 6583,
      "lus": 6584,
      "lux": 6585,
      "lines": 6586,
      "mn": 6587,
      "nau": 6588,
      "sail": 6589,
      "leger": 6590,
      "insu": 6591,
      "ism": 6592,
      "issent": 6593,
      "determine": 6594,
      "demeure": 6595,
      "astu": 6596,
      "aspir": 6597,
      "theatre": 6598,
      "jette": 6599,
      "ita": 6600,
      "itself": 6601,
      "itali": 6602,
      "quette": 6603,
      "alph": 6604,
      "auteur": 6605,
      "noire": 6606,
      "tomes": 6607,
      "coff": 6608,
      "diam": 6609,
      "lif": 6610,
      "eloigne": 6611,
      "sop": 6612,
      "tiers": 6613,
      "parla": 6614,
      "parais": 6615,
      "parfaite": 6616,
      "prover": 6617,
      "cheese": 6618,
      "cheated": 6619,
      "comb": 6620,
      "commer": 6621,
      "manif": 6622,
      "prevented": 6623,
      "preuves": 6624,
      "excite": 6625,
      "okay": 6626,
      "prince": 6627,
      "coule": 6628,
      "dissi": 6629,
      "victi": 6630,
      "tress": 6631,
      "directement": 6632,
      "bran": 6633,
      "partons": 6634,
      "arrivez": 6635,
      "aking": 6636,
      "bug": 6637,
      "sentit": 6638,
      "moral": 6639,
      "wore": 6640,
      "pouvions": 6641,
      "essai": 6642,
      "empire": 6643,
      "lower": 6644,
      "engaged": 6645,
      "remettez": 6646,
      "interro": 6647,
      "rug": 6648,
      "adorent": 6649,
      "consequ": 6650,
      "aled": 6651,
      "walks": 6652,
      "produits": 6653,
      "italy": 6654,
      "italie": 6655,
      "comprendr": 6656,
      "fautes": 6657,
      "settes": 6658,
      "writes": 6659,
      "experiment": 6660,
      "artist": 6661,
      "rentree": 6662,
      "source": 6663,
      "contract": 6664,
      "fourn": 6665,
      "reasons": 6666,
      "climbed": 6667,
      "reflechi": 6668,
      "supermarche": 6669,
      "discussed": 6670,
      "indivi": 6671,
      "chaussettes": 6672,
      "savaient": 6673,
      "generally": 6674,
      "blessees": 6675,
      "poig": 6676,
      "honnetete": 6677,
      "naturel": 6678,
      "apportez": 6679,
      "hyp": 6680,
      "rempor": 6681,
      "honesty": 6682,
      "legal": 6683,
      "visible": 6684,
      "mentionne": 6685,
      "grimpe": 6686,
      "intended": 6687,
      "competent": 6688,
      "competition": 6689,
      "committee": 6690,
      "traduire": 6691,
      "investig": 6692,
      "capitaine": 6693,
      "describe": 6694,
      "obviously": 6695,
      "commettre": 6696,
      "etoiles": 6697,
      "depourvu": 6698,
      "yellow": 6699,
      "envisager": 6700,
      "execu": 6701,
      "pantalon": 6702,
      "rembour": 6703,
      "bale": 6704,
      "cd": 6705,
      "cycle": 6706,
      "dors": 6707,
      "eth": 6708,
      "eur": 6709,
      "emotion": 6710,
      "gth": 6711,
      "ized": 6712,
      "oly": 6713,
      "riez": 6714,
      "sants": 6715,
      "smil": 6716,
      "tait": 6717,
      "uis": 6718,
      "wit": 6719,
      "remon": 6720,
      "reput": 6721,
      "recol": 6722,
      "enleve": 6723,
      "legere": 6724,
      "income": 6725,
      "isa": 6726,
      "dette": 6727,
      "teurs": 6728,
      "army": 6729,
      "atif": 6730,
      "cep": 6731,
      "enterre": 6732,
      "eton": 6733,
      "chest": 6734,
      "ieuses": 6735,
      "romans": 6736,
      "unfortunately": 6737,
      "copies": 6738,
      "becoming": 6739,
      "dimes": 6740,
      "weigh": 6741,
      "lesson": 6742,
      "soli": 6743,
      "appla": 6744,
      "apers": 6745,
      "apply": 6746,
      "paroles": 6747,
      "acqu": 6748,
      "abat": 6749,
      "modern": 6750,
      "moteur": 6751,
      "durer": 6752,
      "irons": 6753,
      "profi": 6754,
      "checked": 6755,
      "nowhere": 6756,
      "eds": 6757,
      "perd": 6758,
      "lerie": 6759,
      "agno": 6760,
      "agri": 6761,
      "venons": 6762,
      "vivez": 6763,
      "dru": 6764,
      "eteint": 6765,
      "affre": 6766,
      "fromage": 6767,
      "longues": 6768,
      "directeur": 6769,
      "lasted": 6770,
      "prenant": 6771,
      "gies": 6772,
      "cris": 6773,
      "couramment": 6774,
      "isez": 6775,
      "souf": 6776,
      "insis": 6777,
      "malheureux": 6778,
      "malheureusement": 6779,
      "supper": 6780,
      "passees": 6781,
      "essayons": 6782,
      "declar": 6783,
      "tableaux": 6784,
      "remede": 6785,
      "fassions": 6786,
      "contest": 6787,
      "center": 6788,
      "elec": 6789,
      "repondit": 6790,
      "dernieres": 6791,
      "largest": 6792,
      "blamer": 6793,
      "bitter": 6794,
      "univers": 6795,
      "facebook": 6796,
      "soigne": 6797,
      "smaller": 6798,
      "papers": 6799,
      "cleaning": 6800,
      "shorter": 6801,
      "choisissez": 6802,
      "except": 6803,
      "continua": 6804,
      "pleuvra": 6805,
      "inviter": 6806,
      "protection": 6807,
      "stronger": 6808,
      "related": 6809,
      "fleuve": 6810,
      "economy": 6811,
      "baiser": 6812,
      "refuser": 6813,
      "doubts": 6814,
      "travaillent": 6815,
      "brouillard": 6816,
      "survived": 6817,
      "dependent": 6818,
      "criminal": 6819,
      "cherchent": 6820,
      "odeur": 6821,
      "progress": 6822,
      "debrouille": 6823,
      "volume": 6824,
      "genial": 6825,
      "neighborhood": 6826,
      "knocked": 6827,
      "season": 6828,
      "octobre": 6829,
      "october": 6830,
      "scientifique": 6831,
      "preparing": 6832,
      "definite": 6833,
      "existence": 6834,
      "participer": 6835,
      "fabri": 6836,
      "weapon": 6837,
      "prononcer": 6838,
      "emotions": 6839,
      "consulter": 6840,
      "particulierement": 6841,
      "destroyed": 6842,
      "gratuite": 6843,
      "strength": 6844,
      "lumieres": 6845,
      "stunned": 6846,
      "elevator": 6847,
      "immeuble": 6848,
      "frankly": 6849,
      "ascenseur": 6850,
      "coffre": 6851,
      "olymp": 6852,
      "smiling": 6853,
      "equ": 6854,
      "echange": 6855,
      "gren": 6856,
      "ias": 6857,
      "jail": 6858,
      "rater": 6859,
      "spi": 6860,
      "replace": 6861,
      "reviendra": 6862,
      "rejoindre": 6863,
      "envisage": 6864,
      "lecon": 6865,
      "incl": 6866,
      "degre": 6867,
      "quarti": 6868,
      "mepris": 6869,
      "membre": 6870,
      "neck": 6871,
      "passage": 6872,
      "chu": 6873,
      "cooked": 6874,
      "resis": 6875,
      "dig": 6876,
      "dimin": 6877,
      "lia": 6878,
      "trouvez": 6879,
      "parte": 6880,
      "locu": 6881,
      "loaded": 6882,
      "hoping": 6883,
      "stared": 6884,
      "civil": 6885,
      "fered": 6886,
      "irait": 6887,
      "surface": 6888,
      "surviv": 6889,
      "choque": 6890,
      "agee": 6891,
      "gras": 6892,
      "drug": 6893,
      "portent": 6894,
      "tromp": 6895,
      "tromper": 6896,
      "touchez": 6897,
      "minuit": 6898,
      "ails": 6899,
      "pirer": 6900,
      "menage": 6901,
      "feras": 6902,
      "aimed": 6903,
      "nuages": 6904,
      "crie": 6905,
      "mum": 6906,
      "frus": 6907,
      "differ": 6908,
      "liter": 6909,
      "irez": 6910,
      "deuxieme": 6911,
      "jouez": 6912,
      "pond": 6913,
      "entendis": 6914,
      "turning": 6915,
      "connaissons": 6916,
      "brown": 6917,
      "handy": 6918,
      "trouvee": 6919,
      "hurler": 6920,
      "surprising": 6921,
      "rub": 6922,
      "demandes": 6923,
      "demandais": 6924,
      "alibi": 6925,
      "begun": 6926,
      "farmer": 6927,
      "habituer": 6928,
      "situations": 6929,
      "decisions": 6930,
      "publie": 6931,
      "respecter": 6932,
      "opinions": 6933,
      "recevoir": 6934,
      "reflex": 6935,
      "holding": 6936,
      "etrangeres": 6937,
      "respond": 6938,
      "accompan": 6939,
      "accompli": 6940,
      "invitee": 6941,
      "confection": 6942,
      "successful": 6943,
      "baked": 6944,
      "cambri": 6945,
      "screw": 6946,
      "constamment": 6947,
      "talentue": 6948,
      "recognized": 6949,
      "augmente": 6950,
      "quantite": 6951,
      "billets": 6952,
      "crowded": 6953,
      "holidays": 6954,
      "nonsense": 6955,
      "travaillons": 6956,
      "effectuer": 6957,
      "deprime": 6958,
      "consacre": 6959,
      "concentrate": 6960,
      "appearance": 6961,
      "declare": 6962,
      "quarante": 6963,
      "ridicul": 6964,
      "narrow": 6965,
      "œuvre": 6966,
      "alternative": 6967,
      "meubles": 6968,
      "naissance": 6969,
      "annoying": 6970,
      "delayed": 6971,
      "neiger": 6972,
      "pneu": 6973,
      "ecart": 6974,
      "amount": 6975,
      "vague": 6976,
      "passengers": 6977,
      "challen": 6978,
      "applau": 6979,
      "drugs": 6980,
      "electron": 6981,
      "500": 6982,
      "banc": 6983,
      "ement": 6984,
      "ego": 6985,
      "epi": 6986,
      "eager": 6987,
      "fate": 6988,
      "gher": 6989,
      "gage": 6990,
      "glance": 6991,
      "kar": 6992,
      "kobe": 6993,
      "sno": 6994,
      "struck": 6995,
      "tied": 6996,
      "wounded": 6997,
      "xpe": 6998,
      "reck": 6999,
      "research": 7000,
      "aido": 7001,
      "aimons": 7002,
      "towel": 7003,
      "dech": 7004,
      "neces": 7005,
      "seated": 7006,
      "lad": 7007,
      "lack": 7008,
      "aly": 7009,
      "chais": 7010,
      "nois": 7011,
      "tomb": 7012,
      "cooperation": 7013,
      "dite": 7014,
      "dicted": 7015,
      "lignes": 7016,
      "outes": 7017,
      "approuve": 7018,
      "sien": 7019,
      "loyer": 7020,
      "hook": 7021,
      "hokk": 7022,
      "acy": 7023,
      "actri": 7024,
      "unexpe": 7025,
      "admettre": 7026,
      "treize": 7027,
      "pointe": 7028,
      "iras": 7029,
      "desper": 7030,
      "cheaper": 7031,
      "comite": 7032,
      "bol": 7033,
      "derobe": 7034,
      "lugg": 7035,
      "serp": 7036,
      "blew": 7037,
      "survecu": 7038,
      "surveiller": 7039,
      "fiance": 7040,
      "venant": 7041,
      "sometime": 7042,
      "compose": 7043,
      "eteins": 7044,
      "froide": 7045,
      "pression": 7046,
      "joli": 7047,
      "joint": 7048,
      "brie": 7049,
      "helpful": 7050,
      "guise": 7051,
      "facons": 7052,
      "sentait": 7053,
      "travailles": 7054,
      "soul": 7055,
      "souvenez": 7056,
      "attendons": 7057,
      "jouons": 7058,
      "tenter": 7059,
      "connaissent": 7060,
      "regler": 7061,
      "contacter": 7062,
      "trick": 7063,
      "montrerai": 7064,
      "habits": 7065,
      "warmer": 7066,
      "importantes": 7067,
      "greatest": 7068,
      "bitten": 7069,
      "complex": 7070,
      "imagined": 7071,
      "charges": 7072,
      "plainte": 7073,
      "informe": 7074,
      "experien": 7075,
      "partiel": 7076,
      "skill": 7077,
      "differents": 7078,
      "bags": 7079,
      "sortons": 7080,
      "coln": 7081,
      "impoli": 7082,
      "trouvent": 7083,
      "silly": 7084,
      "actuelle": 7085,
      "louer": 7086,
      "supposee": 7087,
      "correcte": 7088,
      "ennuie": 7089,
      "impressionnee": 7090,
      "espagno": 7091,
      "sacri": 7092,
      "boxes": 7093,
      "disposais": 7094,
      "poulet": 7095,
      "poured": 7096,
      "cadeaux": 7097,
      "danced": 7098,
      "citiz": 7099,
      "teaches": 7100,
      "enseignante": 7101,
      "violent": 7102,
      "pickpockets": 7103,
      "empeche": 7104,
      "regretter": 7105,
      "novels": 7106,
      "patronne": 7107,
      "paintings": 7108,
      "constant": 7109,
      "objectif": 7110,
      "newspapers": 7111,
      "serviette": 7112,
      "hanging": 7113,
      "lincoln": 7114,
      "committed": 7115,
      "incroyablement": 7116,
      "compliment": 7117,
      "fortunate": 7118,
      "candy": 7119,
      "adopted": 7120,
      "industry": 7121,
      "assume": 7122,
      "robbed": 7123,
      "original": 7124,
      "techno": 7125,
      "afrique": 7126,
      "conclusion": 7127,
      "supplementaire": 7128,
      "scolded": 7129,
      "square": 7130,
      "prisonniers": 7131,
      "departure": 7132,
      "saoul": 7133,
      "chirur": 7134,
      "alcohol": 7135,
      "volonte": 7136,
      "religion": 7137,
      "appropriate": 7138,
      "democr": 7139,
      "alphabet": 7140,
      "sophis": 7141,
      "reputation": 7142,
      "accompanied": 7143,
      "hokkaido": 7144,
      "unexpected": 7145,
      "luggage": 7146,
      "bone": 7147,
      "cions": 7148,
      "data": 7149,
      "evite": 7150,
      "eprouv": 7151,
      "gner": 7152,
      "raf": 7153,
      "vante": 7154,
      "ware": 7155,
      "relation": 7156,
      "ening": 7157,
      "ancer": 7158,
      "announ": 7159,
      "invente": 7160,
      "incapacite": 7161,
      "deton": 7162,
      "asing": 7163,
      "qualite": 7164,
      "thick": 7165,
      "illi": 7166,
      "jeta": 7167,
      "ceinture": 7168,
      "ceremon": 7169,
      "labor": 7170,
      "passait": 7171,
      "chons": 7172,
      "chateau": 7173,
      "unch": 7174,
      "pein": 7175,
      "beard": 7176,
      "resour": 7177,
      "trie": 7178,
      "socks": 7179,
      "appren": 7180,
      "ticated": 7181,
      "consu": 7182,
      "conques": 7183,
      "conclu": 7184,
      "pardonne": 7185,
      "partez": 7186,
      "hole": 7187,
      "actor": 7188,
      "poursui": 7189,
      "stret": 7190,
      "admir": 7191,
      "pens": 7192,
      "mobile": 7193,
      "dumb": 7194,
      "pota": 7195,
      "voque": 7196,
      "voter": 7197,
      "mani": 7198,
      "quelconques": 7199,
      "prevoyez": 7200,
      "expose": 7201,
      "exist": 7202,
      "couch": 7203,
      "vrait": 7204,
      "hers": 7205,
      "herbe": 7206,
      "disiez": 7207,
      "disput": 7208,
      "disappeared": 7209,
      "virer": 7210,
      "shame": 7211,
      "shake": 7212,
      "mistook": 7213,
      "impuis": 7214,
      "migr": 7215,
      "bonjour": 7216,
      "menu": 7217,
      "trains": 7218,
      "branche": 7219,
      "mule": 7220,
      "humains": 7221,
      "clef": 7222,
      "matiere": 7223,
      "faisiez": 7224,
      "jouait": 7225,
      "foreig": 7226,
      "creve": 7227,
      "shook": 7228,
      "obst": 7229,
      "truly": 7230,
      "auraient": 7231,
      "handsome": 7232,
      "starts": 7233,
      "sphere": 7234,
      "understands": 7235,
      "castle": 7236,
      "warning": 7237,
      "critic": 7238,
      "horloge": 7239,
      "solaire": 7240,
      "gueule": 7241,
      "sembler": 7242,
      "awa": 7243,
      "visiting": 7244,
      "sourit": 7245,
      "plaisante": 7246,
      "north": 7247,
      "louder": 7248,
      "barking": 7249,
      "client": 7250,
      "espion": 7251,
      "excell": 7252,
      "saving": 7253,
      "patients": 7254,
      "traveled": 7255,
      "assie": 7256,
      "descends": 7257,
      "viendrais": 7258,
      "bottom": 7259,
      "rempli": 7260,
      "souhaiter": 7261,
      "ancient": 7262,
      "organise": 7263,
      "tarte": 7264,
      "menteuse": 7265,
      "merveilleuse": 7266,
      "fifteen": 7267,
      "ameliorer": 7268,
      "adopte": 7269,
      "nerveuse": 7270,
      "etoffe": 7271,
      "tradition": 7272,
      "mbered": 7273,
      "cancel": 7274,
      "formulaire": 7275,
      "clouds": 7276,
      "oxy": 7277,
      "hilar": 7278,
      "valuable": 7279,
      "breathe": 7280,
      "liberte": 7281,
      "enregistre": 7282,
      "pollution": 7283,
      "individu": 7284,
      "locuteur": 7285,
      "actrice": 7286,
      "sophisticated": 7287,
      "cils": 7288,
      "clar": 7289,
      "glis": 7290,
      "jan": 7291,
      "joig": 7292,
      "lined": 7293,
      "mout": 7294,
      "maid": 7295,
      "maig": 7296,
      "niez": 7297,
      "nana": 7298,
      "rat": 7299,
      "rattraper": 7300,
      "spy": 7301,
      "scri": 7302,
      "taux": 7303,
      "tint": 7304,
      "reus": 7305,
      "remet": 7306,
      "retenir": 7307,
      "enig": 7308,
      "topic": 7309,
      "arrest": 7310,
      "atmo": 7311,
      "septe": 7312,
      "alarme": 7313,
      "alarm": 7314,
      "autu": 7315,
      "colo": 7316,
      "resist": 7317,
      "verres": 7318,
      "tration": 7319,
      "sore": 7320,
      "offered": 7321,
      "tible": 7322,
      "timate": 7323,
      "parlait": 7324,
      "loan": 7325,
      "hopes": 7326,
      "gele": 7327,
      "rendent": 7328,
      "adres": 7329,
      "tremb": 7330,
      "maje": 7331,
      "irrit": 7332,
      "perman": 7333,
      "perds": 7334,
      "prevenu": 7335,
      "dreamed": 7336,
      "pray": 7337,
      "fies": 7338,
      "ified": 7339,
      "misunderstanding": 7340,
      "impri": 7341,
      "mix": 7342,
      "mirent": 7343,
      "stories": 7344,
      "gentils": 7345,
      "asseyez": 7346,
      "aida": 7347,
      "mates": 7348,
      "mordu": 7349,
      "souleve": 7350,
      "connus": 7351,
      "suppor": 7352,
      "entrez": 7353,
      "planete": 7354,
      "emplettes": 7355,
      "shots": 7356,
      "observe": 7357,
      "atique": 7358,
      "parent": 7359,
      "spain": 7360,
      "earns": 7361,
      "sensitive": 7362,
      "interdit": 7363,
      "risques": 7364,
      "etudies": 7365,
      "drove": 7366,
      "doux": 7367,
      "francaise": 7368,
      "trouverais": 7369,
      "raisonnable": 7370,
      "produise": 7371,
      "products": 7372,
      "productive": 7373,
      "signer": 7374,
      "preferez": 7375,
      "arranger": 7376,
      "perdue": 7377,
      "habituel": 7378,
      "informed": 7379,
      "pattes": 7380,
      "blank": 7381,
      "bague": 7382,
      "medecins": 7383,
      "applique": 7384,
      "bargain": 7385,
      "ennuye": 7386,
      "ennuyer": 7387,
      "passagers": 7388,
      "climate": 7389,
      "reception": 7390,
      "reasonable": 7391,
      "kissing": 7392,
      "recovered": 7393,
      "universe": 7394,
      "intelligence": 7395,
      "banan": 7396,
      "pares": 7397,
      "debt": 7398,
      "possibly": 7399,
      "bruy": 7400,
      "camping": 7401,
      "disappoint": 7402,
      "rarely": 7403,
      "midnight": 7404,
      "talents": 7405,
      "mountains": 7406,
      "rupt": 7407,
      "electricity": 7408,
      "pronoun": 7409,
      "grossier": 7410,
      "annuler": 7411,
      "decue": 7412,
      "navig": 7413,
      "reduire": 7414,
      "gathered": 7415,
      "kilos": 7416,
      "cottage": 7417,
      "composit": 7418,
      "pratiquement": 7419,
      "africa": 7420,
      "bench": 7421,
      "authority": 7422,
      "attempt": 7423,
      "agissait": 7424,
      "discutons": 7425,
      "paresseux": 7426,
      "disturbed": 7427,
      "pleurait": 7428,
      "arrog": 7429,
      "statue": 7430,
      "vehicule": 7431,
      "evanou": 7432,
      "douzaine": 7433,
      "eclate": 7434,
      "fournir": 7435,
      "quartier": 7436,
      "experiences": 7437,
      "espagnol": 7438,
      "atmosphere": 7439,
      "autumn": 7440,
      "13": 7441,
      "40": 7442,
      "equal": 7443,
      "eprouve": 7444,
      "fli": 7445,
      "flas": 7446,
      "fainted": 7447,
      "gation": 7448,
      "ia": 7449,
      "laient": 7450,
      "mare": 7451,
      "mall": 7452,
      "nue": 7453,
      "packed": 7454,
      "saurait": 7455,
      "sounded": 7456,
      "tles": 7457,
      "tab": 7458,
      "tation": 7459,
      "villes": 7460,
      "yond": 7461,
      "zing": 7462,
      "repro": 7463,
      "request": 7464,
      "reuses": 7465,
      "remove": 7466,
      "reproche": 7467,
      "envelop": 7468,
      "inqui": 7469,
      "istic": 7470,
      "dego": 7471,
      "deaf": 7472,
      "depenser": 7473,
      "asie": 7474,
      "mechant": 7475,
      "orient": 7476,
      "ety": 7477,
      "noye": 7478,
      "unusual": 7479,
      "coward": 7480,
      "pel": 7481,
      "belt": 7482,
      "beyond": 7483,
      "usa": 7484,
      "antici": 7485,
      "ressources": 7486,
      "diable": 7487,
      "troub": 7488,
      "apprend": 7489,
      "conte": 7490,
      "condam": 7491,
      "sif": 7492,
      "parts": 7493,
      "log": 7494,
      "aces": 7495,
      "acteur": 7496,
      "sonner": 7497,
      "terms": 7498,
      "sting": 7499,
      "ciation": 7500,
      "plied": 7501,
      "mobil": 7502,
      "lly": 7503,
      "desig": 7504,
      "desespere": 7505,
      "chee": 7506,
      "manques": 7507,
      "oney": 7508,
      "distrac": 7509,
      "inevit": 7510,
      "gron": 7511,
      "fumee": 7512,
      "saisi": 7513,
      "eteig": 7514,
      "icile": 7515,
      "mile": 7516,
      "miroir": 7517,
      "jogging": 7518,
      "ferma": 7519,
      "vision": 7520,
      "helps": 7521,
      "arrivees": 7522,
      "humi": 7523,
      "humour": 7524,
      "fame": 7525,
      "litter": 7526,
      "vaches": 7527,
      "faisaient": 7528,
      "attended": 7529,
      "attendrai": 7530,
      "offense": 7531,
      "planet": 7532,
      "objet": 7533,
      "crimes": 7534,
      "putting": 7535,
      "habiller": 7536,
      "genie": 7537,
      "spont": 7538,
      "trahi": 7539,
      "aidez": 7540,
      "rues": 7541,
      "option": 7542,
      "oppose": 7543,
      "blessure": 7544,
      "troisieme": 7545,
      "douze": 7546,
      "tels": 7547,
      "jud": 7548,
      "meilleures": 7549,
      "explications": 7550,
      "adorerais": 7551,
      "utiles": 7552,
      "commencez": 7553,
      "mirror": 7554,
      "confidence": 7555,
      "skir": 7556,
      "sortis": 7557,
      "contraire": 7558,
      "closely": 7559,
      "logical": 7560,
      "obliges": 7561,
      "papiers": 7562,
      "password": 7563,
      "rases": 7564,
      "recuperer": 7565,
      "espace": 7566,
      "espagne": 7567,
      "domicile": 7568,
      "employes": 7569,
      "pleuve": 7570,
      "hautement": 7571,
      "attacked": 7572,
      "forcee": 7573,
      "disposee": 7574,
      "sweat": 7575,
      "ignorance": 7576,
      "cities": 7577,
      "politics": 7578,
      "endormie": 7579,
      "buildings": 7580,
      "depechez": 7581,
      "complaints": 7582,
      "flexi": 7583,
      "shirts": 7584,
      "possibilites": 7585,
      "construction": 7586,
      "convaincue": 7587,
      "strike": 7588,
      "messages": 7589,
      "inquieter": 7590,
      "repeat": 7591,
      "issement": 7592,
      "demenager": 7593,
      "debrouiller": 7594,
      "ecoule": 7595,
      "genius": 7596,
      "customers": 7597,
      "telephoner": 7598,
      "alentours": 7599,
      "impatience": 7600,
      "jalouse": 7601,
      "method": 7602,
      "censee": 7603,
      "etasuniens": 7604,
      "disturb": 7605,
      "distribu": 7606,
      "chauffeur": 7607,
      "loyal": 7608,
      "tapis": 7609,
      "enquete": 7610,
      "spanish": 7611,
      "hawaii": 7612,
      "security": 7613,
      "meteo": 7614,
      "soigneusement": 7615,
      "definitely": 7616,
      "challenge": 7617,
      "desperate": 7618,
      "excellente": 7619,
      "assieds": 7620,
      "25": 7621,
      "200": 7622,
      "80": 7623,
      "atom": 7624,
      "cave": 7625,
      "ctor": 7626,
      "fetes": 7627,
      "flies": 7628,
      "hais": 7629,
      "ifor": 7630,
      "ibles": 7631,
      "jer": 7632,
      "kicked": 7633,
      "lish": 7634,
      "mt": 7635,
      "mouve": 7636,
      "pac": 7637,
      "puni": 7638,
      "ralent": 7639,
      "shave": 7640,
      "vaux": 7641,
      "wild": 7642,
      "reviendrai": 7643,
      "essu": 7644,
      "encre": 7645,
      "enthous": 7646,
      "height": 7647,
      "tome": 7648,
      "issons": 7649,
      "astron": 7650,
      "neat": 7651,
      "nette": 7652,
      "thme": 7653,
      "secours": 7654,
      "passera": 7655,
      "ourdi": 7656,
      "usine": 7657,
      "verte": 7658,
      "trap": 7659,
      "elo": 7660,
      "offrir": 7661,
      "tip": 7662,
      "tiroir": 7663,
      "concours": 7664,
      "congres": 7665,
      "amical": 7666,
      "lois": 7667,
      "former": 7668,
      "formed": 7669,
      "gee": 7670,
      "absur": 7671,
      "admis": 7672,
      "pensiez": 7673,
      "poil": 7674,
      "profond": 7675,
      "voleurs": 7676,
      "sheep": 7677,
      "cago": 7678,
      "higher": 7679,
      "perple": 7680,
      "prece": 7681,
      "prevenir": 7682,
      "predict": 7683,
      "taches": 7684,
      "agi": 7685,
      "agon": 7686,
      "fiers": 7687,
      "disais": 7688,
      "discovered": 7689,
      "fox": 7690,
      "merit": 7691,
      "granted": 7692,
      "finit": 7693,
      "ouvri": 7694,
      "toilet": 7695,
      "impli": 7696,
      "ferons": 7697,
      "cardi": 7698,
      "gious": 7699,
      "bra": 7700,
      "humor": 7701,
      "acheta": 7702,
      "philo": 7703,
      "corrige": 7704,
      "aimerait": 7705,
      "vul": 7706,
      "portee": 7707,
      "posez": 7708,
      "arretes": 7709,
      "tentative": 7710,
      "closet": 7711,
      "creative": 7712,
      "rooms": 7713,
      "interesses": 7714,
      "simply": 7715,
      "brosse": 7716,
      "essayais": 7717,
      "handled": 7718,
      "spite": 7719,
      "keeping": 7720,
      "trace": 7721,
      "policy": 7722,
      "centaines": 7723,
      "califor": 7724,
      "differe": 7725,
      "etudiante": 7726,
      "border": 7727,
      "chanceuse": 7728,
      "rouges": 7729,
      "milit": 7730,
      "licen": 7731,
      "doulou": 7732,
      "langage": 7733,
      "named": 7734,
      "accorder": 7735,
      "production": 7736,
      "juger": 7737,
      "tourna": 7738,
      "fausse": 7739,
      "stupides": 7740,
      "battle": 7741,
      "horses": 7742,
      "suivez": 7743,
      "fatiguees": 7744,
      "grossiere": 7745,
      "folded": 7746,
      "sembla": 7747,
      "natale": 7748,
      "cookie": 7749,
      "dollar": 7750,
      "baggage": 7751,
      "current": 7752,
      "fourche": 7753,
      "endroits": 7754,
      "boissons": 7755,
      "chicago": 7756,
      "apology": 7757,
      "princi": 7758,
      "recover": 7759,
      "generous": 7760,
      "continuez": 7761,
      "paquet": 7762,
      "darker": 7763,
      "artifi": 7764,
      "assass": 7765,
      "obeir": 7766,
      "concern": 7767,
      "payee": 7768,
      "millions": 7769,
      "divorcer": 7770,
      "sells": 7771,
      "entrance": 7772,
      "screen": 7773,
      "improve": 7774,
      "purse": 7775,
      "satisfaits": 7776,
      "ramene": 7777,
      "average": 7778,
      "verrouillee": 7779,
      "communic": 7780,
      "taxes": 7781,
      "automob": 7782,
      "particularly": 7783,
      "industrie": 7784,
      "principal": 7785,
      "embarrassing": 7786,
      "detruit": 7787,
      "regular": 7788,
      "canceled": 7789,
      "signification": 7790,
      "despise": 7791,
      "incredible": 7792,
      "incredibly": 7793,
      "eclata": 7794,
      "minimum": 7795,
      "defense": 7796,
      "russian": 7797,
      "soudainement": 7798,
      "moderne": 7799,
      "bleeding": 7800,
      "marchandises": 7801,
      "courriel": 7802,
      "commerce": 7803,
      "spontane": 7804,
      "enthousias": 7805,
      "11": 7806,
      "avert": 7807,
      "bs": 7808,
      "bage": 7809,
      "dare": 7810,
      "diez": 7811,
      "etoile": 7812,
      "fought": 7813,
      "flir": 7814,
      "honey": 7815,
      "ial": 7816,
      "knit": 7817,
      "lut": 7818,
      "rail": 7819,
      "rack": 7820,
      "swear": 7821,
      "saig": 7822,
      "uil": 7823,
      "wave": 7824,
      "yard": 7825,
      "zes": 7826,
      "».": 7827,
      "revienne": 7828,
      "revolu": 7829,
      "levez": 7830,
      "intime": 7831,
      "injuste": 7832,
      "initi": 7833,
      "isant": 7834,
      "deres": 7835,
      "defi": 7836,
      "devenus": 7837,
      "degout": 7838,
      "determiner": 7839,
      "quent": 7840,
      "metro": 7841,
      "jete": 7842,
      "sele": 7843,
      "etang": 7844,
      "etonne": 7845,
      "aute": 7846,
      "rot": 7847,
      "cotes": 7848,
      "ressenti": 7849,
      "wever": 7850,
      "solit": 7851,
      "donnes": 7852,
      "contient": 7853,
      "confron": 7854,
      "load": 7855,
      "however": 7856,
      "accoutu": 7857,
      "sonna": 7858,
      "gear": 7859,
      "stage": 7860,
      "staff": 7861,
      "rendra": 7862,
      "myste": 7863,
      "motor": 7864,
      "poet": 7865,
      "magi": 7866,
      "propri": 7867,
      "promotion": 7868,
      "cheek": 7869,
      "mante": 7870,
      "edge": 7871,
      "tend": 7872,
      "tendit": 7873,
      "mesures": 7874,
      "cuire": 7875,
      "surprendre": 7876,
      "couvre": 7877,
      "worn": 7878,
      "discourage": 7879,
      "ify": 7880,
      "furi": 7881,
      "finan": 7882,
      "personn": 7883,
      "pige": 7884,
      "mens": 7885,
      "vieill": 7886,
      "crash": 7887,
      "stub": 7888,
      "guar": 7889,
      "courus": 7890,
      "fake": 7891,
      "cleared": 7892,
      "ainee": 7893,
      "viendrez": 7894,
      "insane": 7895,
      "inspiration": 7896,
      "petrin": 7897,
      "euros": 7898,
      "autrement": 7899,
      "tenta": 7900,
      "clos": 7901,
      "aidera": 7902,
      "stopping": 7903,
      "changements": 7904,
      "region": 7905,
      "pourraient": 7906,
      "facture": 7907,
      "larger": 7908,
      "counting": 7909,
      "rainy": 7910,
      "embauche": 7911,
      "judi": 7912,
      "ecrite": 7913,
      "arretee": 7914,
      "farm": 7915,
      "horaire": 7916,
      "breaking": 7917,
      "necessaires": 7918,
      "salon": 7919,
      "ballon": 7920,
      "teered": 7921,
      "prisoner": 7922,
      "laughter": 7923,
      "diriez": 7924,
      "published": 7925,
      "publicite": 7926,
      "haircut": 7927,
      "assiste": 7928,
      "although": 7929,
      "exacte": 7930,
      "burning": 7931,
      "obligees": 7932,
      "clue": 7933,
      "pleuvait": 7934,
      "hitting": 7935,
      "laws": 7936,
      "poule": 7937,
      "pauvres": 7938,
      "suitcases": 7939,
      "streets": 7940,
      "soucier": 7941,
      "gym": 7942,
      "maitre": 7943,
      "endormir": 7944,
      "abilites": 7945,
      "circu": 7946,
      "scand": 7947,
      "milliers": 7948,
      "remplis": 7949,
      "retira": 7950,
      "baisser": 7951,
      "bothering": 7952,
      "medicaments": 7953,
      "grimper": 7954,
      "balance": 7955,
      "rassemb": 7956,
      "website": 7957,
      "grown": 7958,
      "gratuit": 7959,
      "origine": 7960,
      "instrument": 7961,
      "lourde": 7962,
      "panier": 7963,
      "kilometres": 7964,
      "similaire": 7965,
      "doigts": 7966,
      "autorite": 7967,
      "volunteered": 7968,
      "foire": 7969,
      "allergic": 7970,
      "frequence": 7971,
      "methode": 7972,
      "plaisanterie": 7973,
      "towards": 7974,
      "threatened": 7975,
      "significant": 7976,
      "cows": 7977,
      "hesitate": 7978,
      "epargne": 7979,
      "distinguer": 7980,
      "periode": 7981,
      "supplies": 7982,
      "stress": 7983,
      "material": 7984,
      "ghosts": 7985,
      "etendu": 7986,
      "funeral": 7987,
      "composition": 7988,
      "flash": 7989,
      "propriet": 7990,
      "ament": 7991,
      "ctes": 7992,
      "gache": 7993,
      "gather": 7994,
      "goute": 7995,
      "ived": 7996,
      "jong": 7997,
      "nations": 7998,
      "natives": 7999,
      "ophone": 8000,
      "ppe": 8001,
      "pants": 8002,
      "path": 8003,
      "pitie": 8004,
      "rage": 8005,
      "rush": 8006,
      "task": 8007,
      "twel": 8008,
      "umb": 8009,
      "vari": 8010,
      "wis": 8011,
      "xophone": 8012,
      "zer": 8013,
      "ouest": 8014,
      "rees": 8015,
      "retrouve": 8016,
      "reporter": 8017,
      "retenu": 8018,
      "requis": 8019,
      "removed": 8020,
      "invented": 8021,
      "ison": 8022,
      "isit": 8023,
      "depasse": 8024,
      "deviens": 8025,
      "delic": 8026,
      "asy": 8027,
      "asiment": 8028,
      "quasiment": 8029,
      "member": 8030,
      "thetic": 8031,
      "attirer": 8032,
      "vecut": 8033,
      "sex": 8034,
      "lampe": 8035,
      "underes": 8036,
      "cooper": 8037,
      "pete": 8038,
      "rescu": 8039,
      "ressemblent": 8040,
      "confortable": 8041,
      "paran": 8042,
      "parcourir": 8043,
      "loose": 8044,
      "acces": 8045,
      "actress": 8046,
      "forcer": 8047,
      "forty": 8048,
      "admets": 8049,
      "cible": 8050,
      "wasted": 8051,
      "mono": 8052,
      "poses": 8053,
      "ferez": 8054,
      "chever": 8055,
      "exig": 8056,
      "exces": 8057,
      "illons": 8058,
      "agres": 8059,
      "saxophone": 8060,
      "choquee": 8061,
      "fiable": 8062,
      "venais": 8063,
      "vid": 8064,
      "vier": 8065,
      "vive": 8066,
      "merde": 8067,
      "agees": 8068,
      "bienvenu": 8069,
      "saisis": 8070,
      "nier": 8071,
      "nirent": 8072,
      "niques": 8073,
      "imper": 8074,
      "mince": 8075,
      "preser": 8076,
      "plafond": 8077,
      "visions": 8078,
      "croient": 8079,
      "mud": 8080,
      "ideal": 8081,
      "personnelle": 8082,
      "surement": 8083,
      "phrases": 8084,
      "typho": 8085,
      "malentendu": 8086,
      "essaies": 8087,
      "causer": 8088,
      "import": 8089,
      "object": 8090,
      "aches": 8091,
      "downtown": 8092,
      "whichever": 8093,
      "culp": 8094,
      "remembered": 8095,
      "bedtime": 8096,
      "century": 8097,
      "ruin": 8098,
      "chauff": 8099,
      "alike": 8100,
      "wishes": 8101,
      "turns": 8102,
      "lightning": 8103,
      "blagues": 8104,
      "apprecies": 8105,
      "egg": 8106,
      "fastest": 8107,
      "difficulties": 8108,
      "examiner": 8109,
      "grosses": 8110,
      "arriverait": 8111,
      "volant": 8112,
      "impots": 8113,
      "trouvais": 8114,
      "silver": 8115,
      "loue": 8116,
      "approcher": 8117,
      "approprie": 8118,
      "terribly": 8119,
      "foudre": 8120,
      "idiots": 8121,
      "grows": 8122,
      "thirteen": 8123,
      "deadline": 8124,
      "beginner": 8125,
      "disposent": 8126,
      "responsables": 8127,
      "worthy": 8128,
      "halfway": 8129,
      "expliqua": 8130,
      "tallest": 8131,
      "eigh": 8132,
      "croyais": 8133,
      "amusees": 8134,
      "effron": 8135,
      "noirs": 8136,
      "ringing": 8137,
      "prononce": 8138,
      "conditionne": 8139,
      "scientist": 8140,
      "increase": 8141,
      "longueur": 8142,
      "admitted": 8143,
      "millionaire": 8144,
      "taxis": 8145,
      "siecle": 8146,
      "americaine": 8147,
      "eria": 8148,
      "galerie": 8149,
      "estival": 8150,
      "apparent": 8151,
      "hundreds": 8152,
      "soutien": 8153,
      "employees": 8154,
      "negoci": 8155,
      "victime": 8156,
      "signifi": 8157,
      "required": 8158,
      "candles": 8159,
      "fantomes": 8160,
      "rejete": 8161,
      "rejected": 8162,
      "thousands": 8163,
      "consacrer": 8164,
      "professional": 8165,
      "gaspiller": 8166,
      "enfuir": 8167,
      "interrompre": 8168,
      "shakespe": 8169,
      "valentine": 8170,
      "prisonnier": 8171,
      "texte": 8172,
      "screaming": 8173,
      "procurer": 8174,
      "scrat": 8175,
      "blonde": 8176,
      "achieved": 8177,
      "cuisinier": 8178,
      "severe": 8179,
      "maternelle": 8180,
      "recommanda": 8181,
      "volunteer": 8182,
      "adultes": 8183,
      "disgusting": 8184,
      "italian": 8185,
      "rugby": 8186,
      "acquainted": 8187,
      "brievement": 8188,
      ",\"": 8189,
      "300": 8190,
      "cad": 8191,
      "dangers": 8192,
      "edi": 8193,
      "faine": 8194,
      "gnant": 8195,
      "kore": 8196,
      "leng": 8197,
      "mation": 8198,
      "miens": 8199,
      "og": 8200,
      "ombre": 8201,
      "pill": 8202,
      "pig": 8203,
      "pping": 8204,
      "rounded": 8205,
      "san": 8206,
      "sar": 8207,
      "stru": 8208,
      "tan": 8209,
      "tais": 8210,
      "west": 8211,
      "wing": 8212,
      "wound": 8213,
      "relu": 8214,
      "reprendre": 8215,
      "revient": 8216,
      "ina": 8217,
      "indifferent": 8218,
      "toir": 8219,
      "dele": 8220,
      "deplace": 8221,
      "teint": 8222,
      "arily": 8223,
      "atis": 8224,
      "illir": 8225,
      "sees": 8226,
      "seau": 8227,
      "entou": 8228,
      "lamp": 8229,
      "lachez": 8230,
      "chon": 8231,
      "chif": 8232,
      "tub": 8233,
      "unconscious": 8234,
      "suf": 8235,
      "suits": 8236,
      "coins": 8237,
      "below": 8238,
      "resol": 8239,
      "libres": 8240,
      "soins": 8241,
      "outre": 8242,
      "tious": 8243,
      "conta": 8244,
      "parlais": 8245,
      "acqui": 8246,
      "accur": 8247,
      "forgiven": 8248,
      "songer": 8249,
      "stances": 8250,
      "rentres": 8251,
      "rendons": 8252,
      "adminis": 8253,
      "montez": 8254,
      "dumped": 8255,
      "pomp": 8256,
      "machin": 8257,
      "desaccord": 8258,
      "proces": 8259,
      "promit": 8260,
      "provide": 8261,
      "cheque": 8262,
      "chevaux": 8263,
      "bombe": 8264,
      "prenom": 8265,
      "prevenue": 8266,
      "precis": 8267,
      "exage": 8268,
      "exchanged": 8269,
      "serions": 8270,
      "cuille": 8271,
      "agger": 8272,
      "surf": 8273,
      "survenir": 8274,
      "surprenant": 8275,
      "surrounded": 8276,
      "distr": 8277,
      "folles": 8278,
      "temple": 8279,
      "misunderstood": 8280,
      "finds": 8281,
      "useless": 8282,
      "airie": 8283,
      "personally": 8284,
      "prenne": 8285,
      "plate": 8286,
      "epoux": 8287,
      "brain": 8288,
      "aimee": 8289,
      "croise": 8290,
      "hum": 8291,
      "bucket": 8292,
      "peuple": 8293,
      "achever": 8294,
      "inscri": 8295,
      "selfish": 8296,
      "antee": 8297,
      "ically": 8298,
      "metal": 8299,
      "autrefois": 8300,
      "cautious": 8301,
      "raw": 8302,
      "cloture": 8303,
      "planted": 8304,
      "puts": 8305,
      "etudiez": 8306,
      "oled": 8307,
      "starved": 8308,
      "occup": 8309,
      "commencent": 8310,
      "spir": 8311,
      "boue": 8312,
      "international": 8313,
      "interfere": 8314,
      "factures": 8315,
      "souvien": 8316,
      "answering": 8317,
      "signed": 8318,
      "blamed": 8319,
      "critici": 8320,
      "critical": 8321,
      "utilite": 8322,
      "horiz": 8323,
      "informer": 8324,
      "ottes": 8325,
      "differences": 8326,
      "prudence": 8327,
      "fermement": 8328,
      "televiseur": 8329,
      "medecine": 8330,
      "nearby": 8331,
      "bringing": 8332,
      "agreement": 8333,
      "classmates": 8334,
      "translation": 8335,
      "burg": 8336,
      "daughters": 8337,
      "frontiere": 8338,
      "delicate": 8339,
      "wheel": 8340,
      "accomplir": 8341,
      "joindrai": 8342,
      "subway": 8343,
      "magasins": 8344,
      "poussiere": 8345,
      "miennes": 8346,
      "endormis": 8347,
      "punish": 8348,
      "mouchoir": 8349,
      "enseignants": 8350,
      "notebook": 8351,
      "ecriture": 8352,
      "flew": 8353,
      "improved": 8354,
      "naif": 8355,
      "champion": 8356,
      "modele": 8357,
      "espoirs": 8358,
      "electric": 8359,
      "montagnes": 8360,
      "ramener": 8361,
      "scientists": 8362,
      "miel": 8363,
      "effrayee": 8364,
      "heurte": 8365,
      "diplomat": 8366,
      "profondeur": 8367,
      "cherchait": 8368,
      "absente": 8369,
      "humanite": 8370,
      "hammer": 8371,
      "traduction": 8372,
      "fingers": 8373,
      "quality": 8374,
      "require": 8375,
      "degage": 8376,
      "sejourner": 8377,
      "confes": 8378,
      "register": 8379,
      "professionnel": 8380,
      "lanca": 8381,
      "robber": 8382,
      "epaules": 8383,
      "scientifiques": 8384,
      "efficient": 8385,
      "ridicule": 8386,
      "nommee": 8387,
      "tattoo": 8388,
      "attempted": 8389,
      "fantastic": 8390,
      "weapons": 8391,
      "musician": 8392,
      "russe": 8393,
      "throat": 8394,
      "determined": 8395,
      "postponed": 8396,
      "detective": 8397,
      "coiffe": 8398,
      "decrire": 8399,
      "corriger": 8400,
      "lifted": 8401,
      "poignee": 8402,
      "degrees": 8403,
      "condamne": 8404,
      "distracted": 8405,
      "flexible": 8406,
      "jerk": 8407,
      "cardiaque": 8408,
      "philoso": 8409,
      "communication": 8410,
      "twelve": 8411,
      "delicieux": 8412,
      "shakespeare": 8413,
      "length": 8414,
      "strugg": 8415,
      ".»": 8416,
      "ah": 8417,
      "dai": 8418,
      "dac": 8419,
      "doutes": 8420,
      "ere": 8421,
      "epe": 8422,
      "fiez": 8423,
      "gained": 8424,
      "ime": 8425,
      "knees": 8426,
      "laires": 8427,
      "mors": 8428,
      "nag": 8429,
      "oth": 8430,
      "ota": 8431,
      "pad": 8432,
      "pag": 8433,
      "pese": 8434,
      "pages": 8435,
      "pilo": 8436,
      "sages": 8437,
      "tiez": 8438,
      "twin": 8439,
      "vons": 8440,
      "vache": 8441,
      "vali": 8442,
      "zone": 8443,
      "zation": 8444,
      "repris": 8445,
      "remains": 8446,
      "reprises": 8447,
      "enchante": 8448,
      "leure": 8449,
      "intimi": 8450,
      "inhabituel": 8451,
      "dela": 8452,
      "demon": 8453,
      "deces": 8454,
      "debat": 8455,
      "depenses": 8456,
      "dettes": 8457,
      "depit": 8458,
      "aster": 8459,
      "aries": 8460,
      "secou": 8461,
      "ceiling": 8462,
      "etro": 8463,
      "chil": 8464,
      "coo": 8465,
      "dotee": 8466,
      "pered": 8467,
      "becomes": 8468,
      "reside": 8469,
      "respirer": 8470,
      "verrais": 8471,
      "avise": 8472,
      "avancer": 8473,
      "ays": 8474,
      "ayant": 8475,
      "tif": 8476,
      "tires": 8477,
      "convi": 8478,
      "siff": 8479,
      "parten": 8480,
      "gosse": 8481,
      "loo": 8482,
      "allai": 8483,
      "geo": 8484,
      "terror": 8485,
      "admet": 8486,
      "cane": 8487,
      "posons": 8488,
      "irais": 8489,
      "prom": 8490,
      "pros": 8491,
      "promo": 8492,
      "prophe": 8493,
      "chemises": 8494,
      "manners": 8495,
      "bold": 8496,
      "marteau": 8497,
      "exagger": 8498,
      "sers": 8499,
      "servez": 8500,
      "surveille": 8501,
      "sade": 8502,
      "venge": 8503,
      "cough": 8504,
      "dist": 8505,
      "dislike": 8506,
      "distrait": 8507,
      "vile": 8508,
      "compar": 8509,
      "shared": 8510,
      "pup": 8511,
      "grav": 8512,
      "financi": 8513,
      "niveau": 8514,
      "happier": 8515,
      "arrivait": 8516,
      "minor": 8517,
      "worker": 8518,
      "nerfs": 8519,
      "joie": 8520,
      "vise": 8521,
      "nul": 8522,
      "craw": 8523,
      "helpless": 8524,
      "croche": 8525,
      "pareil": 8526,
      "frai": 8527,
      "wning": 8528,
      "anged": 8529,
      "humain": 8530,
      "personnellement": 8531,
      "besoins": 8532,
      "souvient": 8533,
      "pharm": 8534,
      "faisant": 8535,
      "corn": 8536,
      "supply": 8537,
      "supplie": 8538,
      "petrole": 8539,
      "wondered": 8540,
      "jouent": 8541,
      "crew": 8542,
      "credi": 8543,
      "cieuses": 8544,
      "genoux": 8545,
      "oublions": 8546,
      "fasten": 8547,
      "evenement": 8548,
      "calcul": 8549,
      "strangers": 8550,
      "sleeps": 8551,
      "captu": 8552,
      "mangea": 8553,
      "bible": 8554,
      "attentif": 8555,
      "honor": 8556,
      "revela": 8557,
      "charming": 8558,
      "charmant": 8559,
      "bataille": 8560,
      "instin": 8561,
      "examine": 8562,
      "echouer": 8563,
      "owns": 8564,
      "patiente": 8565,
      "couter": 8566,
      "coutera": 8567,
      "skate": 8568,
      "salue": 8569,
      "boutique": 8570,
      "officer": 8571,
      "ennemis": 8572,
      "collecting": 8573,
      "positive": 8574,
      "curieuse": 8575,
      "tests": 8576,
      "ordinary": 8577,
      "approve": 8578,
      "approved": 8579,
      "wards": 8580,
      "identite": 8581,
      "regardait": 8582,
      "regardant": 8583,
      "translated": 8584,
      "buried": 8585,
      "agrees": 8586,
      "snowing": 8587,
      "employ": 8588,
      "emploie": 8589,
      "chanteuse": 8590,
      "rendiez": 8591,
      "courageux": 8592,
      "moyenne": 8593,
      "gunshots": 8594,
      "remark": 8595,
      "remarquer": 8596,
      "environne": 8597,
      "fiee": 8598,
      "entendus": 8599,
      "occasions": 8600,
      "kidn": 8601,
      "199": 8602,
      "pretendu": 8603,
      "deserves": 8604,
      "circle": 8605,
      "viendriez": 8606,
      "comporter": 8607,
      "blackboard": 8608,
      "preterai": 8609,
      "teenager": 8610,
      "autorises": 8611,
      "nationale": 8612,
      "plomb": 8613,
      "constitu": 8614,
      "mignons": 8615,
      "mentioned": 8616,
      "tranquilles": 8617,
      "frappee": 8618,
      "admired": 8619,
      "websites": 8620,
      "connected": 8621,
      "souvenirs": 8622,
      "relative": 8623,
      "target": 8624,
      "millionnaire": 8625,
      "americains": 8626,
      "effon": 8627,
      "souten": 8628,
      "tiennent": 8629,
      "dust": 8630,
      "personality": 8631,
      "washington": 8632,
      "exprime": 8633,
      "graduate": 8634,
      "crossing": 8635,
      "canadien": 8636,
      "candle": 8637,
      "candidat": 8638,
      "candidature": 8639,
      "switch": 8640,
      "documents": 8641,
      "assumed": 8642,
      "lancer": 8643,
      "manuel": 8644,
      "allergies": 8645,
      "spotted": 8646,
      "precipit": 8647,
      "raccour": 8648,
      "engagement": 8649,
      "psycho": 8650,
      "maigre": 8651,
      "shaken": 8652,
      "supplementaires": 8653,
      "reminded": 8654,
      "ponctuel": 8655,
      "adolescent": 8656,
      "prendrais": 8657,
      "physique": 8658,
      "british": 8659,
      "twins": 8660,
      "classique": 8661,
      "dessine": 8662,
      "attirante": 8663,
      "postpone": 8664,
      "pulse": 8665,
      "jaune": 8666,
      "settled": 8667,
      "briefly": 8668,
      "obscurite": 8669,
      "camarades": 8670,
      "dedicated": 8671,
      "manifest": 8672,
      "consequences": 8673,
      "trompes": 8674,
      "ridiculous": 8675,
      "egoiste": 8676,
      "glanced": 8677,
      "sacrifi": 8678,
      "pronounce": 8679,
      "inevitable": 8680,
      "humide": 8681,
      "stubborn": 8682,
      "rescued": 8683,
      "paranoi": 8684,
      "17": 8685,
      "basse": 8686,
      "barre": 8687,
      "bits": 8688,
      "caux": 8689,
      "dd": 8690,
      "dames": 8691,
      "ease": 8692,
      "evac": 8693,
      "evil": 8694,
      "fits": 8695,
      "festival": 8696,
      "hale": 8697,
      "ian": 8698,
      "ko": 8699,
      "knee": 8700,
      "ote": 8701,
      "piste": 8702,
      "rout": 8703,
      "ranger": 8704,
      "swal": 8705,
      "taire": 8706,
      "wreck": 8707,
      "ouille": 8708,
      "repar": 8709,
      "recall": 8710,
      "reaction": 8711,
      "escor": 8712,
      "envelo": 8713,
      "online": 8714,
      "het": 8715,
      "error": 8716,
      "issors": 8717,
      "defau": 8718,
      "decol": 8719,
      "devoted": 8720,
      "aston": 8721,
      "mexi": 8722,
      "meprise": 8723,
      "nellement": 8724,
      "arna": 8725,
      "arched": 8726,
      "itue": 8727,
      "itions": 8728,
      "cede": 8729,
      "etab": 8730,
      "roy": 8731,
      "unfair": 8732,
      "uncomfortable": 8733,
      "coach": 8734,
      "peel": 8735,
      "beating": 8736,
      "ressent": 8737,
      "dions": 8738,
      "digne": 8739,
      "liers": 8740,
      "whale": 8741,
      "verser": 8742,
      "mentent": 8743,
      "track": 8744,
      "timbre": 8745,
      "contrain": 8746,
      "sides": 8747,
      "parvenue": 8748,
      "parvenus": 8749,
      "actes": 8750,
      "fork": 8751,
      "fortes": 8752,
      "abais": 8753,
      "rented": 8754,
      "renverse": 8755,
      "advenu": 8756,
      "plut": 8757,
      "plonge": 8758,
      "plastic": 8759,
      "pension": 8760,
      "moto": 8761,
      "poete": 8762,
      "prohi": 8763,
      "proprie": 8764,
      "provided": 8765,
      "vocation": 8766,
      "cafet": 8767,
      "manches": 8768,
      "wide": 8769,
      "bothered": 8770,
      "boots": 8771,
      "tendu": 8772,
      "exchange": 8773,
      "existe": 8774,
      "excur": 8775,
      "serrer": 8776,
      "aggres": 8777,
      "surger": 8778,
      "survivre": 8779,
      "sake": 8780,
      "fich": 8781,
      "justement": 8782,
      "journey": 8783,
      "discount": 8784,
      "virent": 8785,
      "vivid": 8786,
      "fuse": 8787,
      "porta": 8788,
      "cession": 8789,
      "laissons": 8790,
      "affair": 8791,
      "froi": 8792,
      "impru": 8793,
      "mies": 8794,
      "miers": 8795,
      "preniez": 8796,
      "prennent": 8797,
      "menac": 8798,
      "carpet": 8799,
      "garant": 8800,
      "gardes": 8801,
      "garbage": 8802,
      "ceris": 8803,
      "brace": 8804,
      "dyed": 8805,
      "arriverent": 8806,
      "asseyons": 8807,
      "cherry": 8808,
      "appela": 8809,
      "appelles": 8810,
      "humil": 8811,
      "sentences": 8812,
      "vated": 8813,
      "devras": 8814,
      "phin": 8815,
      "types": 8816,
      "attendent": 8817,
      "tentation": 8818,
      "prirent": 8819,
      "shock": 8820,
      "crier": 8821,
      "familles": 8822,
      "chaleure": 8823,
      "habillee": 8824,
      "handker": 8825,
      "starving": 8826,
      "commences": 8827,
      "mariees": 8828,
      "faille": 8829,
      "voulut": 8830,
      "bougies": 8831,
      "interpreter": 8832,
      "faces": 8833,
      "calend": 8834,
      "dresse": 8835,
      "rising": 8836,
      "risky": 8837,
      "casser": 8838,
      "roule": 8839,
      "demandai": 8840,
      "ignores": 8841,
      "doue": 8842,
      "entendues": 8843,
      "counter": 8844,
      "conduirai": 8845,
      "presenta": 8846,
      "classes": 8847,
      "biggest": 8848,
      "product": 8849,
      "produira": 8850,
      "jupe": 8851,
      "italien": 8852,
      "revele": 8853,
      "latest": 8854,
      "sym": 8855,
      "falls": 8856,
      "retourna": 8857,
      "examined": 8858,
      "sunglasses": 8859,
      "sunscreen": 8860,
      "dingues": 8861,
      "plaintes": 8862,
      "ctifs": 8863,
      "prude": 8864,
      "freedom": 8865,
      "fierte": 8866,
      "enery": 8867,
      "terrified": 8868,
      "intentions": 8869,
      "chinoise": 8870,
      "spoon": 8871,
      "equipage": 8872,
      "professeurs": 8873,
      "receive": 8874,
      "superbe": 8875,
      "secondes": 8876,
      "sacs": 8877,
      "princess": 8878,
      "princesse": 8879,
      "tunnel": 8880,
      "ignorant": 8881,
      "responsabilites": 8882,
      "invitees": 8883,
      "political": 8884,
      "ciseaux": 8885,
      "furieux": 8886,
      "nettoye": 8887,
      "scissors": 8888,
      "scenery": 8889,
      "reserver": 8890,
      "naturelle": 8891,
      "camper": 8892,
      "atteignit": 8893,
      "imbe": 8894,
      "ecrase": 8895,
      "devenues": 8896,
      "rompre": 8897,
      "aboard": 8898,
      "retirez": 8899,
      "economiser": 8900,
      "embrassa": 8901,
      "repand": 8902,
      "bluff": 8903,
      "tracasse": 8904,
      "bills": 8905,
      "electrique": 8906,
      "ambitieux": 8907,
      "detendu": 8908,
      "averti": 8909,
      "gifts": 8910,
      "walls": 8911,
      "verrouiller": 8912,
      "cherchais": 8913,
      "demarre": 8914,
      "descendu": 8915,
      "risks": 8916,
      "professor": 8917,
      "habituee": 8918,
      "allumette": 8919,
      "envoya": 8920,
      "thorough": 8921,
      "traitement": 8922,
      "deprimee": 8923,
      "lapin": 8924,
      "loudly": 8925,
      "negative": 8926,
      "appuyer": 8927,
      "confuse": 8928,
      "remue": 8929,
      "guessed": 8930,
      "package": 8931,
      "allergique": 8932,
      "cellphone": 8933,
      "gateaux": 8934,
      "detestent": 8935,
      "traduit": 8936,
      "psychic": 8937,
      "craint": 8938,
      "etasunien": 8939,
      "tiendra": 8940,
      "tiendrai": 8941,
      "adolescents": 8942,
      "musicien": 8943,
      "voisinage": 8944,
      "relationship": 8945,
      "fascinating": 8946,
      "consists": 8947,
      "elegant": 8948,
      "insulte": 8949,
      "jumeaux": 8950,
      "determination": 8951,
      "delai": 8952,
      "refrigerateur": 8953,
      "split": 8954,
      "mosqui": 8955,
      "mystery": 8956,
      "compromis": 8957,
      "curiosite": 8958,
      "puzzle": 8959,
      "victim": 8960,
      "emotional": 8961,
      "recolte": 8962,
      "abattu": 8963,
      "crisis": 8964,
      "declara": 8965,
      "gratuitement": 8966,
      "electronique": 8967,
      "chaises": 8968,
      "noisy": 8969,
      "detonation": 8970,
      "potatoes": 8971,
      "moutons": 8972,
      "reprocher": 8973,
      "eteignez": 8974,
      "fourchette": 8975,
      "financial": 8976,
      "personnalite": 8977,
      "typhoon": 8978,
      "eighteen": 8979,
      "sarcas": 8980,
      "machines": 8981,
      "cuillere": 8982,
      "propriete": 8983,
      "surgery": 8984,
      "bracelet": 8985,
      "handkerchief": 8986,
      "45": 8987,
      "60": 8988,
      "ajou": 8989,
      "bande": 8990,
      "balles": 8991,
      "cable": 8992,
      "cds": 8993,
      "eif": 8994,
      "evoque": 8995,
      "gil": 8996,
      "glo": 8997,
      "io": 8998,
      "obes": 8999,
      "oham": 9000,
      "pitch": 9001,
      "rait": 9002,
      "ske": 9003,
      "slo": 9004,
      "saurais": 9005,
      "vy": 9006,
      "vable": 9007,
      "vins": 9008,
      "yok": 9009,
      "refer": 9010,
      "recr": 9011,
      "recla": 9012,
      "ency": 9013,
      "levres": 9014,
      "tole": 9015,
      "isait": 9016,
      "depla": 9017,
      "defun": 9018,
      "develo": 9019,
      "defen": 9020,
      "associ": 9021,
      "quali": 9022,
      "quart": 9023,
      "youth": 9024,
      "metier": 9025,
      "thes": 9026,
      "thumb": 9027,
      "atro": 9028,
      "vein": 9029,
      "cel": 9030,
      "quemment": 9031,
      "entit": 9032,
      "entrain": 9033,
      "etend": 9034,
      "etique": 9035,
      "estre": 9036,
      "passent": 9037,
      "ching": 9038,
      "chute": 9039,
      "robot": 9040,
      "romant": 9041,
      "suffe": 9042,
      "usion": 9043,
      "rescue": 9044,
      "mentally": 9045,
      "avril": 9046,
      "tristes": 9047,
      "outils": 9048,
      "outdoors": 9049,
      "appetit": 9050,
      "april": 9051,
      "donated": 9052,
      "confirm": 9053,
      "sibles": 9054,
      "amends": 9055,
      "parliez": 9056,
      "location": 9057,
      "hoped": 9058,
      "acts": 9059,
      "termes": 9060,
      "abas": 9061,
      "abuse": 9062,
      "stro": 9063,
      "advienne": 9064,
      "advertis": 9065,
      "addicted": 9066,
      "urged": 9067,
      "cially": 9068,
      "plastique": 9069,
      "modest": 9070,
      "motive": 9071,
      "dures": 9072,
      "pod": 9073,
      "polie": 9074,
      "mated": 9075,
      "malement": 9076,
      "desires": 9077,
      "commission": 9078,
      "suisse": 9079,
      "marque": 9080,
      "marath": 9081,
      "tense": 9082,
      "permettez": 9083,
      "precieux": 9084,
      "expenses": 9085,
      "serrure": 9086,
      "taqu": 9087,
      "cuit": 9088,
      "aghet": 9089,
      "surren": 9090,
      "salade": 9091,
      "salad": 9092,
      "choc": 9093,
      "vende": 9094,
      "mercy": 9095,
      "shin": 9096,
      "nicer": 9097,
      "rythme": 9098,
      "joyeux": 9099,
      "bonde": 9100,
      "mentez": 9101,
      "training": 9102,
      "coupa": 9103,
      "braz": 9104,
      "numbers": 9105,
      "craf": 9106,
      "crush": 9107,
      "crops": 9108,
      "mul": 9109,
      "puissant": 9110,
      "aki": 9111,
      "beside": 9112,
      "muscles": 9113,
      "appels": 9114,
      "clefs": 9115,
      "mord": 9116,
      "soulever": 9117,
      "soucis": 9118,
      "devra": 9119,
      "insiste": 9120,
      "typhon": 9121,
      "eurent": 9122,
      "devas": 9123,
      "creep": 9124,
      "pride": 9125,
      "prime": 9126,
      "players": 9127,
      "appreciez": 9128,
      "huile": 9129,
      "changea": 9130,
      "spaghet": 9131,
      "decent": 9132,
      "registe": 9133,
      "trade": 9134,
      "pourrai": 9135,
      "sensation": 9136,
      "vitre": 9137,
      "riser": 9138,
      "ruine": 9139,
      "rumeurs": 9140,
      "rumors": 9141,
      "partirai": 9142,
      "hopeless": 9143,
      "etudiantes": 9144,
      "blessures": 9145,
      "rouler": 9146,
      "demands": 9147,
      "capte": 9148,
      "mangeons": 9149,
      "opening": 9150,
      "fonds": 9151,
      "conducteur": 9152,
      "presentes": 9153,
      "dorment": 9154,
      "clung": 9155,
      "embau": 9156,
      "apercu": 9157,
      "athle": 9158,
      "drawer": 9159,
      "touristes": 9160,
      "tourists": 9161,
      "sauta": 9162,
      "valait": 9163,
      "character": 9164,
      "maladies": 9165,
      "stepped": 9166,
      "fallut": 9167,
      "suivante": 9168,
      "smooth": 9169,
      "hunting": 9170,
      "suspic": 9171,
      "salut": 9172,
      "volcan": 9173,
      "satisfaire": 9174,
      "joueurs": 9175,
      "blin": 9176,
      "eyesight": 9177,
      "favori": 9178,
      "collap": 9179,
      "publique": 9180,
      "normale": 9181,
      "restaurants": 9182,
      "trouvons": 9183,
      "activit": 9184,
      "activite": 9185,
      "respected": 9186,
      "reussite": 9187,
      "conscien": 9188,
      "contentes": 9189,
      "manquez": 9190,
      "supervis": 9191,
      "india": 9192,
      "domaine": 9193,
      "considering": 9194,
      "subscri": 9195,
      "remarqu": 9196,
      "remarks": 9197,
      "debts": 9198,
      "concernant": 9199,
      "decevoir": 9200,
      "deceived": 9201,
      "promene": 9202,
      "campus": 9203,
      "terriblement": 9204,
      "absolute": 9205,
      "assurez": 9206,
      "complaint": 9207,
      "families": 9208,
      "allumer": 9209,
      "dangereuse": 9210,
      "screamed": 9211,
      "interessees": 9212,
      "graphie": 9213,
      "economise": 9214,
      "fluently": 9215,
      "batiments": 9216,
      "warmth": 9217,
      "receipt": 9218,
      "opportunite": 9219,
      "connection": 9220,
      "criminel": 9221,
      "welcomed": 9222,
      "descendez": 9223,
      "commander": 9224,
      "repete": 9225,
      "oignons": 9226,
      "morceaux": 9227,
      "desirez": 9228,
      "judged": 9229,
      "proceder": 9230,
      "swit": 9231,
      "excitant": 9232,
      "aimable": 9233,
      "grabbed": 9234,
      "greek": 9235,
      "panneau": 9236,
      "precipite": 9237,
      "snakes": 9238,
[...]
