{
  "version": "1.0",
  "truncation": null,
  "padding": null,
  "added_tokens": [
    {
      "id": 0,
      "content": "<pad>",
      "single_word": false,
      "lstrip": false,
      "rstrip": false,
      "normalized": false,
      "special": true
    },
    {
      "id": 1,
      "content": "<unk>",
      "single_word": false,
      "lstrip": false,
      "rstrip": false,
      "normalized": false,
      "special": true
    },
    {
      "id": 2,
      "content": "<bos>",
      "single_word": false,
      "lstrip": false,
      "rstrip": false,
      "normalized": false,
      "special": true
    },
    {
      "id": 3,
      "content": "<eos>",
      "single_word": false,
      "lstrip": false,
      "rstrip": false,
      "normalized": false,
      "special": true
    }
  ],
  "normalizer": {
    "type": "Sequence",
    "normalizers": [
      {
        "type": "NFD"
      },
      {
        "type": "StripAccents"
      },
      {
        "type": "Lowercase"
      },
      {
        "type": "NFC"
      }
    ]
  },
  "pre_tokenizer": {
    "type": "ByteLevel",
    "add_prefix_space": true,
    "trim_offsets": true,
    "use_regex": true
  },
  "post_processor": null,
  "decoder": null,
  "model": {
    "type": "BPE",
    "dropout": null,
    "unk_token": "<unk>",
    "continuing_subword_prefix": null,
    "end_of_word_suffix": null,
    "fuse_unk": false,
    "byte_fallback": false,
    "ignore_merges": false,
    "vocab": {
      "<pad>": 0,
      "<unk>": 1,
      "<bos>": 2,
      "<eos>": 3,
      "!": 4,
      "\"": 5,
      "$": 6,
      "%": 7,
      "&": 8,
      "'": 9,
      "(": 10,
      ")": 11,
      "+": 12,
      ",": 13,
      "-": 14,
      ".": 15,
      "/": 16,
      "0": 17,
      "1": 18,
      "2": 19,
      "3": 20,
      "4": 21,
      "5": 22,
      "6": 23,
      "7": 24,
      "8": 25,
      "9": 26,
      ":": 27,
      ";": 28,
      "?": 29,
      "a": 30,
      "b": 31,
      "c": 32,
      "d": 33,
      "e": 34,
      "f": 35,
      "g": 36,
      "h": 37,
      "i": 38,
      "j": 39,
      "k": 40,
      "l": 41,
      "m": 42,
      "n": 43,
      "o": 44,
      "p": 45,
      "q": 46,
      "r": 47,
      "s": 48,
      "t": 49,
      "u": 50,
      "v": 51,
      "w": 52,
      "x": 53,
      "y": 54,
      "z": 55,
      "~": 56,
      "¦": 57,
      "«": 58,
      "¬": 59,
      "¯": 60,
      "°": 61,
      "»": 62,
      "½": 63,
      "Â": 64,
      "Å": 65,
      "Ð": 66,
      "Ñ": 67,
      "â": 68,
      "ã": 69,
      "ĉ": 70,
      "Ċ": 71,
      "Ġ": 72,
      "Ģ": 73,
      "ģ": 74,
      "Ĥ": 75,
      "ī": 76,
      "ĭ": 77,
      "Ĳ": 78,
      "ĵ": 79,
      "ĺ": 80,
      "Ļ": 81,
      "ł": 82,
      "Ń": 83,
      "Ġt": 84,
      "ou": 85,
      "Ġa": 86,
      "re": 87,
      "Ġd": 88,
      "Ġs": 89,
      "Ġp": 90,
      "Ġi": 91,
      "es": 92,
      "en": 93,
      "on": 94,
      "he": 95,
      "Ġl": 96,
      "Ġc": 97,
      "Ġm": 98,
      "ai": 99,
      "er": 100,
      "Ġw": 101,
      "Ġn": 102,
      "an": 103,
      "Ġy": 104,
      "qu": 105,
      "Ġf": 106,
      "in": 107,
      "Ġto": 108,
      "Ġyou": 109,
      "le": 110,
      "as": 111,
      "is": 112,
      "Ġb": 113,
      "Ġv": 114,
      "Ġde": 115,
      "Ġh": 116,
      "et": 117,
      "at": 118,
      "Ġthe": 119,
      "ous": 120,
      "il": 121,
      "je": 122,
      "ar": 123,
      "Ġqu": 124,
      "ve": 125,
      "om": 126,
      "or": 127,
      "ent": 128,
      "it": 129,
      "el": 130,
      "Ġth": 131,
      "un": 132,
      "Ġg": 133,
      "est": 134,
      "ing": 135,
      "Ġpas": 136,
      "Ġhe": 137,
      "ed": 138,
      "ais": 139,
      "us": 140,
      "Ġne": 141,
      "Ġre": 142,
      "ot": 143,
      "Ġme": 144,
      "te": 145,
      "our": 146,
      "'t": 147,
      "Ġque": 148,
      "eu": 149,
      "Ġun": 150,
      "Ġo": 151,
      "Ġle": 152,
      "ll": 153,
      "Ġla": 154,
      "ri": 155,
      "se": 156,
      "oi": 157,
      "Ġe": 158,
      "Ġ?": 159,
      "ce": 160,
      "Ġsu": 161,
      "Ġdo": 162,
      "ant": 163,
      "ait": 164,
      "Ġha": 165,
      "Ġin": 166,
      "ro": 167,
      "me": 168,
      "Ġis": 169,
      "Ġj": 170,
      "Ġen": 171,
      "Ġwh": 172,
      "Ġet": 173,
      "tu": 174,
      "ie": 175,
      "Ġit": 176,
      "Ġbe": 177,
      "ay": 178,
      "Ġtom": 179,
      "ow": 180,
      "id": 181,
      "out": 182,
      "res": 183,
      "Ġwe": 184,
      "ion": 185,
      "Ġof": 186,
      "au": 187,
      "Ġan": 188,
      "Ġvous": 189,
      "ment": 190,
      "vous": 191,
      "Ġch": 192,
      "al": 193,
      "Ġest": 194,
      "ne": 195,
      "Ġthat": 196,
      "Ġdon": 197,
      "ke": 198,
      "'s": 199,
      "Ġli": 200,
      "Ġse": 201,
      "elle": 202,
      "ld": 203,
      "Ġon": 204,
      "ver": 205,
      "ch": 206,
      "Ġtr": 207,
      "de": 208,
      "pp": 209,
      "Ġpl": 210,
      "Ġpar": 211,
      "ain": 212,
      "Ġcom": 213,
      "Ġfor": 214,
      "ir": 215,
      "Ġte": 216,
      "mp": 217,
      "Ġce": 218,
      "Ġhave": 219,
      "oo": 220,
      "ic": 221,
      "gh": 222,
      "eux": 223,
      "Ġthis": 224,
      "ter": 225,
      "ge": 226,
      "Ġwas": 227,
      "ons": 228,
      "ont": 229,
      "os": 230,
      "ac": 231,
      "Ġpour": 232,
      "Ġau": 233,
      "Ġcan": 234,
      "Ġmy": 235,
      "ren": 236,
      "Ġk": 237,
      "Ġwhat": 238,
      "Ġyour": 239,
      "end": 240,
      "Ġnot": 241,
      "Ġje": 242,
      "Ġca": 243,
      "Ġas": 244,
      "av": 245,
      "que": 246,
      "ble": 247,
      "les": 248,
      "Ġr": 249,
      "Ġune": 250,
      "Ġshe": 251,
      "im": 252,
      "Ġst": 253,
      "ur": 254,
      "ould": 255,
      "âĢ": 256,
      "Ġwant": 257,
      "her": 258,
      "am": 259,
      "Ġare": 260,
      "aire": 261,
      "ght": 262,
      "Ġall": 263,
      "ut": 264,
      "ien": 265,
      "ans": 266,
      "pe": 267,
      "tom": 268,
      "Ġgo": 269,
      "Ġdid": 270,
      "Ġsuis": 271,
      "Ġdes": 272,
      "and": 273,
      "'m": 274,
      "Ġso": 275,
      "Ġles": 276,
      "ad": 277,
      "âĢ¯": 278,
      "ore": 279,
      "Ġat": 280,
      "'re": 281,
      "nous": 282,
      "Ġsom": 283,
      "oir": 284,
      "ure": 285,
      "Ġpro": 286,
      "Ġma": 287,
      "Ġtu": 288,
      "ill": 289,
      "Ġmon": 290,
      "ci": 291,
      "Ġwit": 292,
      "Ġwith": 293,
      "now": 294,
      "Ġ!": 295,
      "ers": 296,
      "Ġdi": 297,
      "Ġmar": 298,
      "Ġknow": 299,
      "Ġav": 300,
      "Ġsh": 301,
      "ite": 302,
      "Ġlike": 303,
      "Ġave": 304,
      "Ġfaire": 305,
      "Ġcon": 306,
      "all": 307,
      "ui": 308,
      "Ġthey": 309,
      "Ġpen": 310,
      "ust": 311,
      "ink": 312,
      "ff": 313,
      "Ġdans": 314,
      "Ġhis": 315,
      "Ġnous": 316,
      "ard": 317,
      "Ġdu": 318,
      "Ġal": 319,
      "hing": 320,
      "Ġhim": 321,
      "ose": 322,
      "Ġam": 323,
      "Ġplus": 324,
      "Ġman": 325,
      "ort": 326,
      "Ġex": 327,
      "Ġab": 328,
      "Ġsi": 329,
      "Ġsur": 330,
      "ly": 331,
      "ook": 332,
      "Ġri": 333,
      "ell": 334,
      "Ġta": 335,
      "ct": 336,
      "ille": 337,
      "Ġti": 338,
      "ave": 339,
      "Ġar": 340,
      "one": 341,
      "Ġfait": 342,
      "Ġhow": 343,
      "ag": 344,
      "oin": 345,
      "si": 346,
      "Ġfr": 347,
      "Ġany": 348,
      "ess": 349,
      "Ġver": 350,
      "Ġpre": 351,
      "ol": 352,
      "Ġtout": 353,
      "Ġveux": 354,
      "rai": 355,
      "Ġthink": 356,
      "ue": 357,
      "la": 358,
      "up": 359,
      "ation": 360,
      "ul": 361,
      "ig": 362,
      "Ġres": 363,
      "age": 364,
      "Ġget": 365,
      "ong": 366,
      "che": 367,
      "Ġwor": 368,
      "Ġavec": 369,
      "Ġpr": 370,
      "Ġdev": 371,
      "Ġthere": 372,
      "Ġqui": 373,
      "Ġdis": 374,
      "Ġno": 375,
      "ier": 376,
      "ine": 377,
      "Ġsa": 378,
      "com": 379,
      "Ġpeu": 380,
      "op": 381,
      "ils": 382,
      "Ġcomp": 383,
      "ap": 384,
      "dre": 385,
      "ette": 386,
      "Ġquel": 387,
      "ouve": 388,
      "use": 389,
      "Ġpart": 390,
      "ate": 391,
      "Ġever": 392,
      "Ġher": 393,
      "ois": 394,
      "'ll": 395,
      "Ġabout": 396,
      "ux": 397,
      "mps": 398,
      "Ġtime": 399,
      "Ġand": 400,
      "mes": 401,
      "Ġson": 402,
      "ood": 403,
      "ouv": 404,
      "Ġhere": 405,
      "Ġwill": 406,
      "Ġout": 407,
      "ez": 408,
      "mer": 409,
      "Ġup": 410,
      "otre": 411,
      "Ġple": 412,
      "Ġsont": 413,
      "onne": 414,
      "Ġren": 415,
      "ten": 416,
      "oy": 417,
      "Ġlui": 418,
      "Ġpense": 419,
      "ind": 420,
      "Ġfe": 421,
      "Ġvery": 422,
      "Ġapp": 423,
      "Ġsee": 424,
      "tre": 425,
      "Ġlet": 426,
      "Ġhad": 427,
      "ang": 428,
      "Ġjust": 429,
      "'ve": 430,
      "Ġpe": 431,
      "cc": 432,
      "uis": 433,
      "Ġser": 434,
      "Ġus": 435,
      "Ġif": 436,
      "app": 437,
      "rent": 438,
      "Ġdidn": 439,
      "ally": 440,
      "Ġdem": 441,
      "ours": 442,
      "fe": 443,
      "ase": 444,
      "Ġhas": 445,
      "Ġwould": 446,
      "ive": 447,
      "ole": 448,
      "Ġmais": 449,
      "eur": 450,
      "Ġevery": 451,
      "ven": 452,
      "Ġvou": 453,
      "Ġetre": 454,
      "ca": 455,
      "Ġtemps": 456,
      "ide": 457,
      "rais": 458,
      "Ġhapp": 459,
      "ry": 460,
      "Ġwere": 461,
      "Ġvotre": 462,
      "ost": 463,
      "Ġtres": 464,
      "oup": 465,
      "ens": 466,
      "Ġete": 467,
      "Ġone": 468,
      "other": 469,
      "mb": 470,
      "Ġdit": 471,
      "Ġtou": 472,
      "Ġgr": 473,
      "Ġlook": 474,
      "alk": 475,
      "oun": 476,
      "Ġmary": 477,
      "Ġche": 478,
      "Ġmoi": 479,
      "Ġetes": 480,
      "ight": 481,
      "ail": 482,
      "une": 483,
      "Ġou": 484,
      "Ġcould": 485,
      "red": 486,
      "Ġneed": 487,
      "quoi": 488,
      "ance": 489,
      "pour": 490,
      "Ġsome": 491,
      "day": 492,
      "Ġshould": 493,
      "Ġwhy": 494,
      "ise": 495,
      "Ġvrai": 496,
      "rive": 497,
      "Ġcl": 498,
      "Ġpeux": 499,
      "ast": 500,
      "Ġjam": 501,
      "'d": 502,
      "Ġil": 503,
      "Ġchose": 504,
      "Ġbeau": 505,
      "ak": 506,
      "Ġhom": 507,
      "elles": 508,
      "Ġgoing": 509,
      "Ġes": 510,
      "here": 511,
      "Ġent": 512,
      "iez": 513,
      "Ġtell": 514,
      "Ġetait": 515,
      "Ġgood": 516,
      "Ġton": 517,
      "ions": 518,
      "Ġag": 519,
      "orte": 520,
      "Ġdire": 521,
      "Ġjamais": 522,
      "Ġhel": 523,
      "Ġici": 524,
      "Ġrep": 525,
      "Ġcome": 526,
      "Ġhelp": 527,
      "Ġcette": 528,
      "Ġtoo": 529,
      "thing": 530,
      "able": 531,
      "Ġlong": 532,
      "Ġfrom": 533,
      "Ġwork": 534,
      "ile": 535,
      "ela": 536,
      "Ġtrain": 537,
      "Ġwhen": 538,
      "Ġdoes": 539,
      "iere": 540,
      "Ġbr": 541,
      "Ġbien": 542,
      "ec": 543,
      "Ġby": 544,
      "uit": 545,
      "Ġai": 546,
      "air": 547,
      "ep": 548,
      "art": 549,
      "Ġtrav": 550,
      "ors": 551,
      "Ġad": 552,
      "ays": 553,
      "Ġcont": 554,
      "ice": 555,
      "Ġimp": 556,
      "Ġtro": 557,
      "ck": 558,
      "ete": 559,
      "Ġlo": 560,
      "ought": 561,
      "Ġthan": 562,
      "ree": 563,
      "Ġplease": 564,
      "dy": 565,
      "ack": 566,
      "Ġcar": 567,
      "aid": 568,
      "Ġvraiment": 569,
      "Ġwho": 570,
      "Ġdec": 571,
      "Ġcr": 572,
      "riend": 573,
      "Ġvi": 574,
      "avez": 575,
      "st": 576,
      "are": 577,
      "Ġpres": 578,
      "Ġpers": 579,
      "ser": 580,
      "Ġwhere": 581,
      "Ġsais": 582,
      "Ġatt": 583,
      "ner": 584,
      "ist": 585,
      "Ġper": 586,
      "Ġro": 587,
      "Ġsomet": 588,
      "Ġreally": 589,
      "wn": 590,
      "ab": 591,
      "moi": 592,
      "Ġmore": 593,
      "Ġquelque": 594,
      "Ġfin": 595,
      "Ġtalk": 596,
      "ish": 597,
      "Ġbeen": 598,
      "Ġnow": 599,
      "Ġliv": 600,
      "ler": 601,
      "aut": 602,
      "Ġstu": 603,
      "ique": 604,
      "if": 605,
      "Ġor": 606,
      "sez": 607,
      "Ġgot": 608,
      "Ġtoi": 609,
      "lais": 610,
      "Ġnever": 611,
      "Ġseu": 612,
      "pourquoi": 613,
      "Ġtake": 614,
      "Ġoff": 615,
      "Ġproble": 616,
      "Ġbut": 617,
      "ds": 618,
      "ande": 619,
      "Ġdiff": 620,
      "bre": 621,
      "lement": 622,
      "Ġbus": 623,
      "Ġbes": 624,
      "Ġsp": 625,
      "Ġsomething": 626,
      "ud": 627,
      "con": 628,
      "Ġreg": 629,
      "etre": 630,
      "Ġbesoin": 631,
      "be": 632,
      "Ġsommes": 633,
      "Ġaller": 634,
      "Ġmu": 635,
      "coup": 636,
      "Ġaf": 637,
      "Ġspe": 638,
      "Ġmain": 639,
      "ange": 640,
      "Ġwr": 641,
      "orm": 642,
      "ress": 643,
      "lez": 644,
      "Ġfriend": 645,
      "Ġont": 646,
      "Ġsay": 647,
      "Ġhome": 648,
      "ace": 649,
      "Ġask": 650,
      "iture": 651,
      "Ġco": 652,
      "Ġtous": 653,
      "Ġjus": 654,
      "Ġmake": 655,
      "Ġmuch": 656,
      "comment": 657,
      "ass": 658,
      "gent": 659,
      "Ġcela": 660,
      "ound": 661,
      "Ġder": 662,
      "Ġfeel": 663,
      "Ġpren": 664,
      "Ġmat": 665,
      "Ġright": 666,
      "Ġsav": 667,
      "sel": 668,
      "bl": 669,
      "iss": 670,
      "Ġtravail": 671,
      "ather": 672,
      "Ġpeut": 673,
      "Ġbeaucoup": 674,
      "Ġmal": 675,
      "Ġavez": 676,
      "Ġcomm": 677,
      "Ġeat": 678,
      "Ġread": 679,
      "row": 680,
      "Ġavons": 681,
      "Ġint": 682,
      "Ġfer": 683,
      "Ġnew": 684,
      "ies": 685,
      "oire": 686,
      "Ġven": 687,
      "Âł": 688,
      "anc": 689,
      "Ġexp": 690,
      "Ġhappen": 691,
      "ient": 692,
      "Ġparler": 693,
      "etes": 694,
      "Ġquest": 695,
      "Ġlit": 696,
      "ants": 697,
      "Ġpens": 698,
      "Ġmaison": 699,
      "ante": 700,
      "Ġthought": 701,
      "aime": 702,
      "Ġtrop": 703,
      "quel": 704,
      "Ġenc": 705,
      "ger": 706,
      "Ġdr": 707,
      "ick": 708,
      "Ġmes": 709,
      "Ġsure": 710,
      "self": 711,
      "ob": 712,
      "ey": 713,
      "Ġke": 714,
      "Ġjour": 715,
      "Ġbook": 716,
      "Ġsupp": 717,
      "Ġmoney": 718,
      "Ġnouve": 719,
      "Ġquoi": 720,
      "Ġvo": 721,
      "ence": 722,
      "Ġbon": 723,
      "ting": 724,
      "Ġbel": 725,
      "Ġpri": 726,
      "Ġheure": 727,
      "Ġrien": 728,
      "Ġback": 729,
      "Ġvoir": 730,
      "Ġbet": 731,
      "Ġret": 732,
      "ody": 733,
      "Ġbu": 734,
      "Ġpos": 735,
      "Ġdeux": 736,
      "ire": 737,
      "du": 738,
      "Ġlast": 739,
      "iens": 740,
      "ert": 741,
      "ool": 742,
      "Ġpouv": 743,
      "Ġanything": 744,
      "Ġmonde": 745,
      "Ġlove": 746,
      "jours": 747,
      "mon": 748,
      "Ġtoujours": 749,
      "Ġeu": 750,
      "qui": 751,
      "Ġacc": 752,
      "asse": 753,
      "Ġdep": 754,
      "Ġec": 755,
      "Ġide": 756,
      "Ġwat": 757,
      "Ġfaut": 758,
      "ontre": 759,
      "Ġencore": 760,
      "Ġwon": 761,
      "ild": 762,
      "Ġva": 763,
      "pr": 764,
      "tout": 765,
      "Ġsoit": 766,
      "pt": 767,
      "ussi": 768,
      "Ġsm": 769,
      "ried": 770,
      "Ġday": 771,
      "ars": 772,
      "Ġans": 773,
      "rait": 774,
      "aimer": 775,
      "Ġenf": 776,
      "body": 777,
      "ough": 778,
      "ra": 779,
      "etait": 780,
      "Ġcons": 781,
      "Ġthing": 782,
      "Ġph": 783,
      "ret": 784,
      "Ġmo": 785,
      "ques": 786,
      "Ġmust": 787,
      "ople": 788,
      "ord": 789,
      "Ġpeople": 790,
      "bien": 791,
      "ouse": 792,
      "gn": 793,
      "aine": 794,
      "Ġagain": 795,
      "Ġmay": 796,
      "Ġgu": 797,
      "Ġcomme": 798,
      "Ġvie": 799,
      "Ġpasse": 800,
      "ident": 801,
      "Ġavoir": 802,
      "ieve": 803,
      "Ġac": 804,
      "Ġmade": 805,
      "Ġlais": 806,
      "Ġvoiture": 807,
      "Ġund": 808,
      "Ġsem": 809,
      "Ġtele": 810,
      "ted": 811,
      "ures": 812,
      "ese": 813,
      "Ġdoesn": 814,
      "Ġour": 815,
      "ign": 816,
      "Ġway": 817,
      "Ġfais": 818,
      "Ġjap": 819,
      "Ġarrive": 820,
      "Ġbl": 821,
      "Ġvis": 822,
      "Ġpet": 823,
      "Ġgive": 824,
      "riez": 825,
      "Ġap": 826,
      "Ġpa": 827,
      "aimerais": 828,
      "Ġmet": 829,
      "Ġspeak": 830,
      "Ġtw": 831,
      "ves": 832,
      "Ġconn": 833,
      "Ġgrand": 834,
      "aient": 835,
      "ieux": 836,
      "argent": 837,
      "Ġwent": 838,
      "Ġfois": 839,
      "Ġsou": 840,
      "Ġmany": 841,
      "Ġvu": 842,
      "um": 843,
      "Ġlot": 844,
      "Ġold": 845,
      "Ġten": 846,
      "Ġnom": 847,
      "ouvez": 848,
      "Ġrec": 849,
      "Ġbelieve": 850,
      "Ġfu": 851,
      "Ġcare": 852,
      "ning": 853,
      "Ġses": 854,
      "Ġprop": 855,
      "Ġstay": 856,
      "Ġtold": 857,
      "jour": 858,
      "Ġdois": 859,
      "Ġvais": 860,
      "Ġsent": 861,
      "tle": 862,
      "etais": 863,
      "Ġaussi": 864,
      "Ġthem": 865,
      "Ġpris": 866,
      "Ġover": 867,
      "Ġsimp": 868,
      "anger": 869,
      "Ġjuste": 870,
      "Ġcour": 871,
      "Ġtry": 872,
      "tenant": 873,
      "Ġfam": 874,
      "Ġbetter": 875,
      "iz": 876,
      "Ġpol": 877,
      "Ġter": 878,
      "act": 879,
      "oute": 880,
      "ote": 881,
      "Ġchild": 882,
      "Åĵ": 883,
      "Ġhouse": 884,
      "Ġinte": 885,
      "Ġporte": 886,
      "Ġmom": 887,
      "Ġye": 888,
      "Ġmin": 889,
      "att": 890,
      "Ġavait": 891,
      "Ġafter": 892,
      "Ġpu": 893,
      "Ġvoul": 894,
      "ach": 895,
      "Ġhappy": 896,
      "Ġaw": 897,
      "Ġsaid": 898,
      "mber": 899,
      "Ġdown": 900,
      "Ġonly": 901,
      "Ġjob": 902,
      "Ġprom": 903,
      "Ġho": 904,
      "ouver": 905,
      "endre": 906,
      "Ġnight": 907,
      "Ġhand": 908,
      "Ġsch": 909,
      "Ġtoday": 910,
      "Ġdiffic": 911,
      "essay": 912,
      "fore": 913,
      "Ġjou": 914,
      "Ġaut": 915,
      "Ġbefore": 916,
      "Ġplait": 917,
      "Ġchez": 918,
      "itu": 919,
      "Ġmeme": 920,
      "Ġop": 921,
      "Ġplan": 922,
      "orrow": 923,
      "Ġstill": 924,
      "Ġschool": 925,
      "hui": 926,
      "Ġcha": 927,
      "ache": 928,
      "Ġpret": 929,
      "Ġfl": 930,
      "ways": 931,
      "Ġhard": 932,
      "cher": 933,
      "Ġwait": 934,
      "Ġalways": 935,
      "get": 936,
      "Ġveu": 937,
      "Ġwell": 938,
      "Ġplay": 939,
      "Ġpensais": 940,
      "jourd": 941,
      "ph": 942,
      "Ġsort": 943,
      "Ġdern": 944,
      "Ġmaintenant": 945,
      "ity": 946,
      "Ġleave": 947,
      "ces": 948,
      "ft": 949,
      "Ġref": 950,
      "nee": 951,
      "Ġroom": 952,
      "onn": 953,
      "ame": 954,
      "rents": 955,
      "Ġput": 956,
      "ester": 957,
      "ful": 958,
      "ty": 959,
      "Ġim": 960,
      "Ġlivre": 961,
      "Ġdisp": 962,
      "Ġmoment": 963,
      "âĢĻ": 964,
      "erst": 965,
      "ma": 966,
      "ention": 967,
      "Ġdemande": 968,
      "ction": 969,
      "ex": 970,
      "Ġinv": 971,
      "kes": 972,
      "urn": 973,
      "ek": 974,
      "Ġhur": 975,
      "reat": 976,
      "Ġhier": 977,
      "aux": 978,
      "endu": 979,
      "Ġocc": 980,
      "ely": 981,
      "Ġpere": 982,
      "Ġpay": 983,
      "Ġlittle": 984,
      "tes": 985,
      "vers": 986,
      "Ġfather": 987,
      "Ġdet": 988,
      "ja": 989,
      "led": 990,
      "ros": 991,
      "Ġsec": 992,
      "Ġdeja": 993,
      "Ġalone": 994,
      "Ġparents": 995,
      "Ġquestion": 996,
      "oston": 997,
      "Ġyester": 998,
      "Ġboston": 999,
      "Ġseul": 1000,
      "Ġyesterday": 1001,
      "Ġsouv": 1002,
      "Ġemp": 1003,
      "Ġeng": 1004,
      "Ġkeep": 1005,
      "Ġlive": 1006,
      "Ġtwo": 1007,
      "Ġtoutes": 1008,
      "Ġweek": 1009,
      "Ġeverything": 1010,
      "Ġmieux": 1011,
      "Ġtrouve": 1012,
      "ente": 1013,
      "Ġprendre": 1014,
      "Ġdoing": 1015,
      "Ġdisc": 1016,
      "Ġelle": 1017,
      "Ġdog": 1018,
      "Ġunderst": 1019,
      "Ġcall": 1020,
      "avais": 1021,
      "Ġsw": 1022,
      "vis": 1023,
      "ider": 1024,
      "Ġgl": 1025,
      "arde": 1026,
      "Ġhappened": 1027,
      "di": 1028,
      "Ġrem": 1029,
      "leep": 1030,
      "tement": 1031,
      "oint": 1032,
      "hed": 1033,
      "Ġother": 1034,
      "Ġaujourd": 1035,
      "arrive": 1036,
      "Ġrenc": 1037,
      "king": 1038,
      "Ġfind": 1039,
      "acc": 1040,
      "pere": 1041,
      "th": 1042,
      "uss": 1043,
      "Ġstop": 1044,
      "Ġfut": 1045,
      "ition": 1046,
      "ture": 1047,
      "Ġassez": 1048,
      "Ġmarie": 1049,
      "Ġpersonne": 1050,
      "pect": 1051,
      "Ġexc": 1052,
      "Ġdrink": 1053,
      "Ġfriends": 1054,
      "Ġproblem": 1055,
      "Ġtomorrow": 1056,
      "Ġleft": 1057,
      "cle": 1058,
      "Ġsimplement": 1059,
      "ary": 1060,
      "arre": 1061,
      "avant": 1062,
      "Ġconf": 1063,
      "Ġsaw": 1064,
      "Ġinto": 1065,
      "Ġsor": 1066,
      "Ġunderstand": 1067,
      "pers": 1068,
      "Ġmeet": 1069,
      "Ġbonne": 1070,
      "der": 1071,
      "Ġsans": 1072,
      "Ġenough": 1073,
      "xt": 1074,
      "Ġache": 1075,
      "ellement": 1076,
      "Ġcle": 1077,
      "Ġgens": 1078,
      "Ġparle": 1079,
      "Ġdevrais": 1080,
      "Ġwanted": 1081,
      "Ġshow": 1082,
      "Ġcompren": 1083,
      "Ġcat": 1084,
      "Ġisn": 1085,
      "Ġsorry": 1086,
      "Ġsurpr": 1087,
      "personne": 1088,
      "combien": 1089,
      "Ġstart": 1090,
      "iv": 1091,
      "Ġfo": 1092,
      "Ġavant": 1093,
      "Ġaux": 1094,
      "ager": 1095,
      "ated": 1096,
      "Ġrais": 1097,
      "Ġsens": 1098,
      "puis": 1099,
      "ute": 1100,
      "Ġdin": 1101,
      "Ġseem": 1102,
      "ites": 1103,
      "aill": 1104,
      "Ġeven": 1105,
      "Ġend": 1106,
      "Ġtoute": 1107,
      "Ġsavoir": 1108,
      "Ġdemain": 1109,
      "cette": 1110,
      "Ġlis": 1111,
      "Ġces": 1112,
      "Ġquand": 1113,
      "Ġleur": 1114,
      "Ġnuit": 1115,
      "oses": 1116,
      "sible": 1117,
      "jet": 1118,
      "Ġmanger": 1119,
      "Ġprobleme": 1120,
      "Ġturn": 1121,
      "irl": 1122,
      "Ġmor": 1123,
      "Ġetud": 1124,
      "Ġasked": 1125,
      "par": 1126,
      "Ġpartir": 1127,
      "Ġconnais": 1128,
      "per": 1129,
      "Ġmus": 1130,
      "Ġtot": 1131,
      "Ġreme": 1132,
      "Ġenfants": 1133,
      "Ġaff": 1134,
      "Ġfac": 1135,
      "son": 1136,
      "Ġnothing": 1137,
      "Ġbuy": 1138,
      "Ġconc": 1139,
      "vent": 1140,
      "illes": 1141,
      "ult": 1142,
      "Ġaway": 1143,
      "Ġgirl": 1144,
      "autre": 1145,
      "quelle": 1146,
      "Ġplace": 1147,
      "urs": 1148,
      "Ġapres": 1149,
      "Ġinteres": 1150,
      "Ġmed": 1151,
      "Ġfir": 1152,
      "Ġbo": 1153,
      "ade": 1154,
      "Ġwalk": 1155,
      "Ġimport": 1156,
      "Ġthese": 1157,
      "ount": 1158,
      "Ġsoir": 1159,
      "Ġfun": 1160,
      "Ġgen": 1161,
      "uses": 1162,
      "Ġheures": 1163,
      "Ġdone": 1164,
      "ecole": 1165,
      "Ġpo": 1166,
      "ents": 1167,
      "oth": 1168,
      "acher": 1169,
      "Ġpi": 1170,
      "Ġpie": 1171,
      "Ġcro": 1172,
      "Ġnext": 1173,
      "Ġnotre": 1174,
      "li": 1175,
      "Ġalle": 1176,
      "ici": 1177,
      "Ġpouvez": 1178,
      "Ġdro": 1179,
      "Ġdemand": 1180,
      "int": 1181,
      "Ġtes": 1182,
      "ond": 1183,
      "Ġcoup": 1184,
      "Ġengl": 1185,
      "auv": 1186,
      "Ġdiffe": 1187,
      "Ġlate": 1188,
      "Ġremember": 1189,
      "read": 1190,
      "Ġcal": 1191,
      "Ġhope": 1192,
      "upe": 1193,
      "Ġmere": 1194,
      "Ġchien": 1195,
      "Ġlife": 1196,
      "Ġcomment": 1197,
      "Ġpoint": 1198,
      "Ġcert": 1199,
      "Ġpuis": 1200,
      "Ġfre": 1201,
      "arn": 1202,
      "Ġbeing": 1203,
      "og": 1204,
      "Ġenv": 1205,
      "Ġceci": 1206,
      "Ġdoor": 1207,
      "Ġrest": 1208,
      "ense": 1209,
      "Ġchange": 1210,
      "Ġfirst": 1211,
      "Ġmother": 1212,
      "Ġtable": 1213,
      "Ġauc": 1214,
      "cie": 1215,
      "ee": 1216,
      "Ġ1": 1217,
      "Ġanyone": 1218,
      "Ġpetit": 1219,
      "Ġvenir": 1220,
      "Ġwatch": 1221,
      "Ġang": 1222,
      "imes": 1223,
      "Ġcond": 1224,
      "yez": 1225,
      "Ġsleep": 1226,
      "Ġtheir": 1227,
      "Ġrapp": 1228,
      "Ġmind": 1229,
      "Ġhear": 1230,
      "Ġbou": 1231,
      "Ġvos": 1232,
      "Ġeveryone": 1233,
      "Ġsc": 1234,
      "Ġfort": 1235,
      "Ġpass": 1236,
      "rez": 1237,
      "Ġass": 1238,
      "Ġcroire": 1239,
      "Ġwrong": 1240,
      "erre": 1241,
      "veux": 1242,
      "Ġthings": 1243,
      "Ġteleph": 1244,
      "Ġfem": 1245,
      "Ġprof": 1246,
      "Ġcher": 1247,
      "Ġmot": 1248,
      "Ġnu": 1249,
      "Ġansw": 1250,
      "Ġmoin": 1251,
      "Ġconse": 1252,
      "Ġregard": 1253,
      "min": 1254,
      "Ġel": 1255,
      "Ġkind": 1256,
      "Ġtrois": 1257,
      "Ġrendre": 1258,
      "Ġbusy": 1259,
      "Ġpourquoi": 1260,
      "Ġchildren": 1261,
      "Ġessay": 1262,
      "Ġfranc": 1263,
      "Ġwithout": 1264,
      "Ġlors": 1265,
      "Ġsoon": 1266,
      "Ġphot": 1267,
      "Ġopen": 1268,
      "Ġcor": 1269,
      "Ġdesole": 1270,
      "Ġchoses": 1271,
      "ict": 1272,
      "Ġenglish": 1273,
      "Ġfat": 1274,
      "Ġele": 1275,
      "Ġdur": 1276,
      "Ġvoulais": 1277,
      "Ġsuppose": 1278,
      "Ġdou": 1279,
      "rench": 1280,
      "Ġaime": 1281,
      "Ġpat": 1282,
      "Ġvoulez": 1283,
      "Ġfrench": 1284,
      "Ġboy": 1285,
      "Ġthree": 1286,
      "Ġgar": 1287,
      "Ġuse": 1288,
      "Ġlu": 1289,
      "Ġob": 1290,
      "Ġquelques": 1291,
      "Ġrepon": 1292,
      "ience": 1293,
      "endant": 1294,
      "Ġexpl": 1295,
      "Ġfille": 1296,
      "Ġrain": 1297,
      "Ġnouveau": 1298,
      "Ġentre": 1299,
      "Ġveut": 1300,
      "Ġfrancais": 1301,
      "Ġbeca": 1302,
      "Ġteacher": 1303,
      "Ġbed": 1304,
      "ory": 1305,
      "Ġear": 1306,
      "ches": 1307,
      "Ġsemble": 1308,
      "Åĵur": 1309,
      "ving": 1310,
      "Ġcou": 1311,
      "Ġbad": 1312,
      "Ġprie": 1313,
      "Ġderniere": 1314,
      "ious": 1315,
      "Ġseen": 1316,
      "Ġtravaill": 1317,
      "Ġrencontre": 1318,
      "Ġpain": 1319,
      "espere": 1320,
      "ister": 1321,
      "Ġquit": 1322,
      "Ġcame": 1323,
      "Ġage": 1324,
      "Ġheard": 1325,
      "Ġmange": 1326,
      "aider": 1327,
      "Ġprem": 1328,
      "Ġtook": 1329,
      "Ġaccident": 1330,
      "Ġsat": 1331,
      "Ġgave": 1332,
      "Ġchance": 1333,
      "Ġ\"": 1334,
      "Ġyet": 1335,
      "ets": 1336,
      "Ġcouldn": 1337,
      "Ġlaisse": 1338,
      "Ġlang": 1339,
      "Ġjapan": 1340,
      "Ġjapon": 1341,
      "Ġbig": 1342,
      "Ġvoy": 1343,
      "Ġrester": 1344,
      "Ġlost": 1345,
      "Ġhot": 1346,
      "Ġtrouver": 1347,
      "ris": 1348,
      "temps": 1349,
      "Ġwater": 1350,
      "ake": 1351,
      "Ġpolice": 1352,
      "cela": 1353,
      "quand": 1354,
      "Ġyears": 1355,
      "Ġoccupe": 1356,
      "Ġfi": 1357,
      "ince": 1358,
      "Ġsait": 1359,
      "Ġbeg": 1360,
      "Ġsho": 1361,
      "Ġins": 1362,
      "Ġheureux": 1363,
      "ins": 1364,
      "Ġlun": 1365,
      "Ġidea": 1366,
      "Ġmontre": 1367,
      "Ġeff": 1368,
      "Ġhab": 1369,
      "Ġense": 1370,
      "utes": 1371,
      "Ġquestions": 1372,
      "ats": 1373,
      "avoir": 1374,
      "Ġquelqu": 1375,
      "az": 1376,
      "Ġname": 1377,
      "Ġfound": 1378,
      "entre": 1379,
      "Ġjours": 1380,
      "Ġused": 1381,
      "imp": 1382,
      "Ġdeb": 1383,
      "Ġsurpris": 1384,
      "ily": 1385,
      "Ġarri": 1386,
      "oc": 1387,
      "Ġwish": 1388,
      "Ġtelephone": 1389,
      "Ġmiss": 1390,
      "Ġentendu": 1391,
      "ale": 1392,
      "Ġlooking": 1393,
      "Ġpropos": 1394,
      "Ġraison": 1395,
      "Ġreal": 1396,
      "Ġviv": 1397,
      "Ġmort": 1398,
      "Ġseule": 1399,
      "eau": 1400,
      "quer": 1401,
      "aurais": 1402,
      "Ġtra": 1403,
      "Ġappre": 1404,
      "ork": 1405,
      "ments": 1406,
      "Ġcham": 1407,
      "Ġalread": 1408,
      "Ġalready": 1409,
      "Ġrun": 1410,
      "Ġimportant": 1411,
      "Ġstud": 1412,
      "uter": 1413,
      "Ġrev": 1414,
      "ends": 1415,
      "Ġstr": 1416,
      "rit": 1417,
      "Ġdonne": 1418,
      "ige": 1419,
      "Ġbest": 1420,
      "Ġanswer": 1421,
      "Ġinc": 1422,
      "Ġpresent": 1423,
      "Ġidee": 1424,
      "cer": 1425,
      "ues": 1426,
      "Ġyourself": 1427,
      "Ġami": 1428,
      "Ġmorning": 1429,
      "igh": 1430,
      "oud": 1431,
      "Ġconv": 1432,
      "Ġamis": 1433,
      "Ġminutes": 1434,
      "orter": 1435,
      "Ġsomeone": 1436,
      "Ġsal": 1437,
      "tez": 1438,
      "Ġprob": 1439,
      "Ġnombre": 1440,
      "des": 1441,
      "Ġbro": 1442,
      "Ġtired": 1443,
      "Ġcomple": 1444,
      "fait": 1445,
      "Ġkne": 1446,
      "Ġmont": 1447,
      "Ġsame": 1448,
      "mble": 1449,
      "Ġstudy": 1450,
      "Ġmatter": 1451,
      "med": 1452,
      "Ġmauv": 1453,
      "Ġparty": 1454,
      "Ġpiece": 1455,
      "Ġcol": 1456,
      "Ġmauvais": 1457,
      "Ġmist": 1458,
      "aper": 1459,
      "Ġwhile": 1460,
      "uire": 1461,
      "Ġhomme": 1462,
      "Ġnon": 1463,
      "Ġcold": 1464,
      "ished": 1465,
      "jeun": 1466,
      "Ġhaven": 1467,
      "Ġabs": 1468,
      "Ġchambre": 1469,
      "Ġbat": 1470,
      "Ġpendant": 1471,
      "Ġsecret": 1472,
      "Ġyoun": 1473,
      "Ġgreat": 1474,
      "Ġpeur": 1475,
      "Ġcet": 1476,
      "Ġautre": 1477,
      "heure": 1478,
      "Ġeas": 1479,
      "agne": 1480,
      "Ġfemme": 1481,
      "Ġmis": 1482,
      "Ġmeille": 1483,
      "Ġoften": 1484,
      "Ġaround": 1485,
      "ations": 1486,
      "Ġtri": 1487,
      "Ġprefe": 1488,
      "Ġwasn": 1489,
      "Ġknew": 1490,
      "Ġvol": 1491,
      "Ġdifficile": 1492,
      "Ġtard": 1493,
      "Ġmight": 1494,
      "Ġrend": 1495,
      "ses": 1496,
      "Ġsol": 1497,
      "Ġvisit": 1498,
      "gg": 1499,
      "ky": 1500,
      "Ġadv": 1501,
      "Ġbrother": 1502,
      "oke": 1503,
      "ts": 1504,
      "Ġinf": 1505,
      "Ġthank": 1506,
      "rie": 1507,
      "Ġcap": 1508,
      "Ġreve": 1509,
      "aller": 1510,
      "Ġdepuis": 1511,
      "iste": 1512,
      "ages": 1513,
      "Ġvoud": 1514,
      "conn": 1515,
      "Ġbles": 1516,
      "jeuner": 1517,
      "Ġfete": 1518,
      "appre": 1519,
      "Ġperson": 1520,
      "Ġjusqu": 1521,
      "raid": 1522,
      "ich": 1523,
      "Ġquelle": 1524,
      "Ġafraid": 1525,
      "blie": 1526,
      "sa": 1527,
      "Ġreste": 1528,
      "Ġmer": 1529,
      "Ġru": 1530,
      "Ġmarried": 1531,
      "Ġlisten": 1532,
      "Ġfatig": 1533,
      "Ġaider": 1534,
      "Ġfew": 1535,
      "Ġretard": 1536,
      "cess": 1537,
      "Ġmyself": 1538,
      "avantage": 1539,
      "Ġcertain": 1540,
      "leur": 1541,
      "rions": 1542,
      "Ġready": 1543,
      "Ġsujet": 1544,
      "Ġaren": 1545,
      "Ġsois": 1546,
      "ras": 1547,
      "aires": 1548,
      "ital": 1549,
      "illez": 1550,
      "alement": 1551,
      "ock": 1552,
      "Ġsouvent": 1553,
      "util": 1554,
      "ienne": 1555,
      "Ġproch": 1556,
      "Ġletter": 1557,
      "Ġstup": 1558,
      "Ġnouvel": 1559,
      "pl": 1560,
      "Ġnice": 1561,
      "Ġsuch": 1562,
      "meme": 1563,
      "Ġlire": 1564,
      "Ġamer": 1565,
      "Ġelse": 1566,
      "Ġdavantage": 1567,
      "Ġgros": 1568,
      "cept": 1569,
      "Ġinter": 1570,
      "Ġdorm": 1571,
      "ved": 1572,
      "Ġmatin": 1573,
      "ize": 1574,
      "Ġpersonn": 1575,
      "Ġswim": 1576,
      "tif": 1577,
      "Ġsing": 1578,
      "Ġlearn": 1579,
      "Ġmoins": 1580,
      "Ġpic": 1581,
      "Ġsemaine": 1582,
      "ys": 1583,
      "Ġact": 1584,
      "Ġfil": 1585,
      "Ġfar": 1586,
      "Ġsince": 1587,
      "vez": 1588,
      "merci": 1589,
      "aie": 1590,
      "Ġsoyez": 1591,
      "ream": 1592,
      "Ġsau": 1593,
      "Ġbre": 1594,
      "Ġfai": 1595,
      "Ġtalking": 1596,
      "Ġyear": 1597,
      "Ġglad": 1598,
      "Ġperdu": 1599,
      "toi": 1600,
      "Ġey": 1601,
      "Ġsister": 1602,
      "Ġfood": 1603,
      "Ġmean": 1604,
      "Ġgetting": 1605,
      "Ġhurt": 1606,
      "Ġfall": 1607,
      "Ġown": 1608,
      "nez": 1609,
      "Ġpourrait": 1610,
      "Ġlooks": 1611,
      "Ġcommence": 1612,
      "Ġwants": 1613,
      "Ġpossible": 1614,
      "ignore": 1615,
      "Ġaide": 1616,
      "Ġdeven": 1617,
      "ber": 1618,
      "Ġsera": 1619,
      "Ġtravailler": 1620,
      "Ġonce": 1621,
      "Ġexpect": 1622,
      "Ġresp": 1623,
      "Ġearly": 1624,
      "Ġanother": 1625,
      "ced": 1626,
      "nes": 1627,
      "ĠÂ": 1628,
      "Ġpasser": 1629,
      "Ġsortir": 1630,
      "Ġcount": 1631,
      "Ġbeautif": 1632,
      "Ġlongtemps": 1633,
      "Ġsun": 1634,
      "Ġemb": 1635,
      "Ġchar": 1636,
      "Ġcontin": 1637,
      "ivers": 1638,
      "osed": 1639,
      "Ġjouer": 1640,
      "Ġfatigue": 1641,
      "00": 1642,
      "Ġpouvons": 1643,
      "Ġdoct": 1644,
      "Ġyoung": 1645,
      "ife": 1646,
      "Ġetaient": 1647,
      "Ġwrite": 1648,
      "Ġbeautiful": 1649,
      "Ġbought": 1650,
      "ater": 1651,
      "Ġcoming": 1652,
      "Ġfrere": 1653,
      "Ġtour": 1654,
      "Ġdanger": 1655,
      "oid": 1656,
      "man": 1657,
      "Ġwind": 1658,
      "Ġnat": 1659,
      "este": 1660,
      "Ġdont": 1661,
      "Ġarre": 1662,
      "Ġachete": 1663,
      "Ġbecause": 1664,
      "rant": 1665,
      "Ġwhich": 1666,
      "Ġdinner": 1667,
      "Ġville": 1668,
      "Ġhate": 1669,
      "Ġcoff": 1670,
      "ieur": 1671,
      "Ġnour": 1672,
      "accord": 1673,
      "Ġvois": 1674,
      "Ġnecess": 1675,
      "omme": 1676,
      "Ġtrue": 1677,
      "Ġbreak": 1678,
      "Ġdays": 1679,
      "ains": 1680,
      "Ġforget": 1681,
      "Ġeverybody": 1682,
      "Ġattention": 1683,
      "iction": 1684,
      "Ġfel": 1685,
      "Ġgard": 1686,
      "Ġlettre": 1687,
      "Ġment": 1688,
      "iser": 1689,
      "Ġenj": 1690,
      "Ġfaites": 1691,
      "Ġgrande": 1692,
      "emp": 1693,
      "most": 1694,
      "Ġtellement": 1695,
      "Ġchau": 1696,
      "Ġretour": 1697,
      "Ġphoto": 1698,
      "Ġnouvelle": 1699,
      "Ġtried": 1700,
      "Ġhun": 1701,
      "Ġdevriez": 1702,
      "Ġenjoy": 1703,
      "Ġmen": 1704,
      "avons": 1705,
      "hab": 1706,
      "Ġwar": 1707,
      "eler": 1708,
      "Ġsuff": 1709,
      "Ġsign": 1710,
      "ken": 1711,
      "Ġcafe": 1712,
      "Ġworld": 1713,
      "Ġappe": 1714,
      "Ġjournee": 1715,
      "Ġbooks": 1716,
      "nis": 1717,
      "ĠsÅĵur": 1718,
      "Ġalmost": 1719,
      "Ġpresque": 1720,
      "Ġcrois": 1721,
      "Ġmost": 1722,
      "Ġcommen": 1723,
      "Ġempl": 1724,
      "Ġameric": 1725,
      "Ġgent": 1726,
      "Ġchoi": 1727,
      "Ġforg": 1728,
      "Ġwonder": 1729,
      "Ġknows": 1730,
      "Ġboth": 1731,
      "Ġdonner": 1732,
      "Ġcareful": 1733,
      "iment": 1734,
      "Ġfelt": 1735,
      "ited": 1736,
      "aught": 1737,
      "gether": 1738,
      "Ġfacile": 1739,
      "Ġstation": 1740,
      "Ġlar": 1741,
      "used": 1742,
      "Ġmag": 1743,
      "Ġtravaille": 1744,
      "Ġdoctor": 1745,
      "Ġable": 1746,
      "teur": 1747,
      "ames": 1748,
      "Ġtennis": 1749,
      "Ġfau": 1750,
      "Ġthose": 1751,
      "olog": 1752,
      "Ġnews": 1753,
      "Ġcop": 1754,
      "Ġtogether": 1755,
      "Ġperm": 1756,
      "Ġlivres": 1757,
      "Ġprofess": 1758,
      "Ġface": 1759,
      "veu": 1760,
      "Ġdoit": 1761,
      "icy": 1762,
      "Ġsk": 1763,
      "rendre": 1764,
      "medi": 1765,
      "Ġcoffee": 1766,
      "more": 1767,
      "pouvez": 1768,
      "tr": 1769,
      "Ġair": 1770,
      "Ġcook": 1771,
      "ances": 1772,
      "Ġty": 1773,
      "Ġsit": 1774,
      "Ġbir": 1775,
      "ateur": 1776,
      "Ġtrust": 1777,
      "Ġstand": 1778,
      "Ġwouldn": 1779,
      "Ġtemp": 1780,
      "Ġmov": 1781,
      "Ġmeeting": 1782,
      "dis": 1783,
      "Ġlight": 1784,
      "adore": 1785,
      "Ġfilm": 1786,
      "Ġgone": 1787,
      "Ġprod": 1788,
      "Ġdix": 1789,
      "Ġword": 1790,
      "Ġimmedi": 1791,
      "Ġfoll": 1792,
      "Ġdress": 1793,
      "ton": 1794,
      "aide": 1795,
      "Ġann": 1796,
      "pped": 1797,
      "ip": 1798,
      "pre": 1799,
      "rire": 1800,
      "uth": 1801,
      "Ġerre": 1802,
      "Ġain": 1803,
      "Ġdiction": 1804,
      "Ġdejeuner": 1805,
      "Ġrentre": 1806,
      "Ġtonight": 1807,
      "Ġfamille": 1808,
      "Ġseems": 1809,
      "Ġappreci": 1810,
      "Ġprefere": 1811,
      "veuillez": 1812,
      "ank": 1813,
      "Ġjeune": 1814,
      "friend": 1815,
      "Ġmine": 1816,
      "Ġwin": 1817,
      "Ġkid": 1818,
      "Ġanymore": 1819,
      "Ġimag": 1820,
      "Ġlorsque": 1821,
      "ume": 1822,
      "Ġeach": 1823,
      "Ġdevoir": 1824,
      "Ġchat": 1825,
      "Ġdifferent": 1826,
      "iers": 1827,
      "Ġsoi": 1828,
      "Ġprep": 1829,
      "Ġsatis": 1830,
      "Ġfamily": 1831,
      "Ġbure": 1832,
      "peux": 1833,
      "Ġsucc": 1834,
      "Ġcombien": 1835,
      "Ġstarted": 1836,
      "io": 1837,
      "ug": 1838,
      "rer": 1839,
      "Ġcuis": 1840,
      "Ġfeu": 1841,
      "come": 1842,
      "Ġfini": 1843,
      "Ġtrou": 1844,
      "Ġverite": 1845,
      "Ġpetite": 1846,
      "Ġchaque": 1847,
      "Ġsitu": 1848,
      "Ġpartie": 1849,
      "Ġbureau": 1850,
      "Ġdir": 1851,
      "Ġwom": 1852,
      "Ġdevons": 1853,
      "Ġetudi": 1854,
      "Ġvac": 1855,
      "Ġred": 1856,
      "Ġrel": 1857,
      "Ġfinished": 1858,
      "Ġspend": 1859,
      "Ġviens": 1860,
      "Ġtruth": 1861,
      "mine": 1862,
      "Ġluck": 1863,
      "Ġfollow": 1864,
      "iques": 1865,
      "uie": 1866,
      "rence": 1867,
      "Ġdecis": 1868,
      "Ġord": 1869,
      "ime": 1870,
      "Ġep": 1871,
      "Ġdoll": 1872,
      "ible": 1873,
      "Ġcri": 1874,
      "Ġyeux": 1875,
      "Ġbicy": 1876,
      "urer": 1877,
      "Ġlooked": 1878,
      "Ġtelevis": 1879,
      "Ġgarcon": 1880,
      "Ġrespons": 1881,
      "Ġcel": 1882,
      "Ġvue": 1883,
      "Ġvenu": 1884,
      "Ġfig": 1885,
      "Ġbeh": 1886,
      "Ġmaniere": 1887,
      "Ġlaisser": 1888,
      "Ġainsi": 1889,
      "gne": 1890,
      "Ġvoi": 1891,
      "Ġris": 1892,
      "Ġaucun": 1893,
      "fais": 1894,
      "Ġutil": 1895,
      "Ġport": 1896,
      "Ġprend": 1897,
      "roit": 1898,
      "avor": 1899,
      "iness": 1900,
      "Ġplais": 1901,
      "Ġwrit": 1902,
      ".\"": 1903,
      "Ġfit": 1904,
      "Ġgare": 1905,
      "Ġeg": 1906,
      "Ġlikes": 1907,
      "Ġanybody": 1908,
      "Ġdecide": 1909,
      "Ġaucune": 1910,
      "Ġvoudrais": 1911,
      "fer": 1912,
      "lot": 1913,
      "Ġtete": 1914,
      "Ġsick": 1915,
      "Ġbag": 1916,
      "Ġdel": 1917,
      "Ġdied": 1918,
      "itude": 1919,
      "Ġeyes": 1920,
      "Ġbicycle": 1921,
      "ied": 1922,
      "we": 1923,
      "Ġdecid": 1924,
      "Ġcole": 1925,
      "erai": 1926,
      "Ġwife": 1927,
      "Ġvit": 1928,
      "Ġhor": 1929,
      "icon": 1930,
      "Ġprud": 1931,
      "ateau": 1932,
      "Ġworking": 1933,
      "Ġpian": 1934,
      "Ġvoyage": 1935,
      "connais": 1936,
      "Ġcolere": 1937,
      "Ġimpress": 1938,
      "Ġvoulait": 1939,
      "Ġpretty": 1940,
      "Ġconfi": 1941,
      "Ġmedec": 1942,
      "reux": 1943,
      "anche": 1944,
      "dez": 1945,
      "Ġenfant": 1946,
      "riture": 1947,
      "Ġmess": 1948,
      "Ġrom": 1949,
      "Ġnobody": 1950,
      "Ġrestau": 1951,
      "Ġsous": 1952,
      "Ġfavor": 1953,
      "Ġbit": 1954,
      "Ġdevez": 1955,
      "ark": 1956,
      "Ġetr": 1957,
      "ured": 1958,
      "Ġshouldn": 1959,
      "Ġeasy": 1960,
      "peu": 1961,
      "Ġner": 1962,
      "Ġweather": 1963,
      "iconque": 1964,
      "ene": 1965,
      "Ġclass": 1966,
      "Ġsavais": 1967,
      "Ġmalade": 1968,
      "Ġphone": 1969,
      "Ġmettre": 1970,
      "ib": 1971,
      "Ġhum": 1972,
      "Ġsuiv": 1973,
      "Ġparti": 1974,
      "Ġguess": 1975,
      "Ġlunch": 1976,
      "kyo": 1977,
      "Ġetiez": 1978,
      "ared": 1979,
      "Ġinst": 1980,
      "Ġmarche": 1981,
      "Ġcompl": 1982,
      "Ġcompte": 1983,
      "Ġattend": 1984,
      "Ġcolle": 1985,
      "Ġpersonnes": 1986,
      "cu": 1987,
      "lent": 1988,
      "Ġquite": 1989,
      "Ġdispose": 1990,
      "Ġdemander": 1991,
      "ever": 1992,
      "Ġreading": 1993,
      "Ġwaiting": 1994,
      "Ġmedic": 1995,
      "Ġanglais": 1996,
      "Ġtelevision": 1997,
      "garde": 1998,
      "aise": 1999,
      "vel": 2000,
      "Ġexam": 2001,
      "Ġexact": 2002,
      "Ġvieux": 2003,
      "Ġstupid": 2004,
      "Ġsituation": 2005,
      "Ġmil": 2006,
      "Ġhigh": 2007,
      "oyez": 2008,
      "Ġtrying": 2009,
      "Ġwindow": 2010,
      "oon": 2011,
      "Ġtokyo": 2012,
      "Ġmakes": 2013,
      "Ġadd": 2014,
      "Ġdifficult": 2015,
      "Ġcomprendre": 2016,
      "til": 2017,
      "Ġnager": 2018,
      "Ġboire": 2019,
      "Ġvel": 2020,
      "Ġvite": 2021,
      "Ġreun": 2022,
      "Ġtombe": 2023,
      "Ġrap": 2024,
      "Ġcontr": 2025,
      "Ġfeeling": 2026,
      "Ġdeteste": 2027,
      "gu": 2028,
      "ron": 2029,
      "Ġdream": 2030,
      "Ġsour": 2031,
      "Ġhair": 2032,
      "Ġnear": 2033,
      "Ġhaving": 2034,
      "Ġhist": 2035,
      "Ġserais": 2036,
      "Ġboulot": 2037,
      "Ġdecision": 2038,
      "Ġem": 2039,
      "Ġrou": 2040,
      "Ġlonger": 2041,
      "Ġheureuse": 2042,
      "Ġpouvoir": 2043,
      "Ġmusic": 2044,
      "lf": 2045,
      "Ġste": 2046,
      "ath": 2047,
      "Ġbring": 2048,
      "uc": 2049,
      "resse": 2050,
      "Ġsemb": 2051,
      "Ġregarde": 2052,
      "quelqu": 2053,
      "Ġfils": 2054,
      "rir": 2055,
      "Ġcause": 2056,
      "Ġsix": 2057,
      "Ġunder": 2058,
      "Ġcomprends": 2059,
      "Ġregarder": 2060,
      "Ġ2": 2061,
      "Ġdrive": 2062,
      "Ġval": 2063,
      "Ġfroid": 2064,
      "comp": 2065,
      "Ġferais": 2066,
      "Ġnourriture": 2067,
      "Ġpiano": 2068,
      "Ġcote": 2069,
      "Ġfour": 2070,
      "ises": 2071,
      "Ġlieu": 2072,
      "Ġautres": 2073,
      "Ġensemble": 2074,
      "Ġsl": 2075,
      "Ġcours": 2076,
      "Ġfon": 2077,
      "Ġbor": 2078,
      "Ġbelle": 2079,
      "idi": 2080,
      "Ġpremier": 2081,
      "Ġhotel": 2082,
      "ason": 2083,
      "Ġhon": 2084,
      "Ġsuc": 2085,
      "Ġpourrais": 2086,
      "Ġworry": 2087,
      "anglais": 2088,
      "Ġvivre": 2089,
      "Ġblesse": 2090,
      "Ġcas": 2091,
      "Ġrad": 2092,
      "Ġalors": 2093,
      "Ġjoue": 2094,
      "apprecie": 2095,
      "Ġrestaurant": 2096,
      "Ġtv": 2097,
      "Ġign": 2098,
      "Ġvas": 2099,
      "Ġgre": 2100,
      "tur": 2101,
      "Ġoublie": 2102,
      "Ġadvis": 2103,
      "ientot": 2104,
      "na": 2105,
      "ually": 2106,
      "work": 2107,
      "Ġcaught": 2108,
      "Ġexac": 2109,
      "Ġseulement": 2110,
      "Ġsmall": 2111,
      "ia": 2112,
      "ny": 2113,
      "iner": 2114,
      "Ġclose": 2115,
      "Ġvelo": 2116,
      "Ġpays": 2117,
      "ject": 2118,
      "Ġuntil": 2119,
      "Ġamie": 2120,
      "sive": 2121,
      "Ġactu": 2122,
      "Ġconduire": 2123,
      "Ġadvice": 2124,
      "Ġbroke": 2125,
      "vou": 2126,
      "where": 2127,
      "Ġtant": 2128,
      "Ġjoin": 2129,
      "Ġserv": 2130,
      "Ġjapanese": 2131,
      "occ": 2132,
      "Ġmois": 2133,
      "Ġfire": 2134,
      "Ġsurprised": 2135,
      "Ġconfiance": 2136,
      "Ġreunion": 2137,
      "voulez": 2138,
      "tous": 2139,
      "Ġthr": 2140,
      "Ġetais": 2141,
      "Ġtrouv": 2142,
      "laisse": 2143,
      "Ġreponse": 2144,
      "Ġstudents": 2145,
      "Ġsus": 2146,
      "anter": 2147,
      "Ġran": 2148,
      "Ġdevrions": 2149,
      "Ġchemin": 2150,
      "Ġvisite": 2151,
      "Ġenvie": 2152,
      "Ġtrouble": 2153,
      "Ġadvised": 2154,
      "Ġbientot": 2155,
      "Ġev": 2156,
      "ghter": 2157,
      "Ġjourn": 2158,
      "Ġhands": 2159,
      "Ġautant": 2160,
      "Ġhead": 2161,
      "amment": 2162,
      "Ġtermine": 2163,
      "Ġdiner": 2164,
      "Ġcalled": 2165,
      "Ġprobable": 2166,
      "Ġcelui": 2167,
      "uv": 2168,
      "Ġloin": 2169,
      "Ġdef": 2170,
      "Ġrej": 2171,
      "tenir": 2172,
      "Ġpied": 2173,
      "Ġrapide": 2174,
      "ze": 2175,
      "Ġfast": 2176,
      "Ġchang": 2177,
      "Ġyours": 2178,
      "less": 2179,
      "Ġstory": 2180,
      "Ġart": 2181,
      "Ġserious": 2182,
      "Ġcontre": 2183,
      "Ġconnait": 2184,
      "Ġturned": 2185,
      "donne": 2186,
      "not": 2187,
      "Ġfree": 2188,
      "ates": 2189,
      "Ġserait": 2190,
      "Ġhurry": 2191,
      "Ġessaye": 2192,
      "alth": 2193,
      "Ġprev": 2194,
      "Ġthinking": 2195,
      "aille": 2196,
      "Ġlives": 2197,
      "Ġarriver": 2198,
      "Ġfen": 2199,
      "ating": 2200,
      "als": 2201,
      "cha": 2202,
      "Ġterri": 2203,
      "Ġprofesseur": 2204,
      "Ġappreciate": 2205,
      "ward": 2206,
      "Ġsil": 2207,
      "Ġcin": 2208,
      "Ġfore": 2209,
      "Ġfell": 2210,
      "vert": 2211,
      "Ġtrans": 2212,
      "Ġdevrait": 2213,
      "Ġecrit": 2214,
      "Ġmovie": 2215,
      "ball": 2216,
      "Ġsong": 2217,
      "Ġpark": 2218,
      "Ġmedecin": 2219,
      "Ġnos": 2220,
      "Ġfou": 2221,
      "Ġbar": 2222,
      "Ġvers": 2223,
      "Ġplaying": 2224,
      "Ġclean": 2225,
      "Ġidi": 2226,
      "Ġsum": 2227,
      "Ġju": 2228,
      "Ġadm": 2229,
      "Ġexactement": 2230,
      "iend": 2231,
      "viens": 2232,
      "Ġanim": 2233,
      "Ġhimself": 2234,
      "Ġtax": 2235,
      "Ġprison": 2236,
      "Ġcorre": 2237,
      "Ġmistake": 2238,
      "Ġpicture": 2239,
      "Ġforgot": 2240,
      "homme": 2241,
      "Ġdri": 2242,
      "Ġhours": 2243,
      "Ġwear": 2244,
      "Ġplut": 2245,
      "Ġpubl": 2246,
      "Ġopin": 2247,
      "ener": 2248,
      "Ġcry": 2249,
      "Ġmour": 2250,
      "Ġok": 2251,
      "iller": 2252,
      "cial": 2253,
      "apres": 2254,
      "Ġdites": 2255,
      "Ġpouvais": 2256,
      "Ġinteress": 2257,
      "Ġminute": 2258,
      "Ġacheter": 2259,
      "Ġpop": 2260,
      "aite": 2261,
      "Ġdist": 2262,
      "ables": 2263,
      "Ġangry": 2264,
      "Ġmonth": 2265,
      "Ġtick": 2266,
      "Ġbi": 2267,
      "Ġmanque": 2268,
      "Ġeating": 2269,
      "Ġconnaiss": 2270,
      "Ġmeilleur": 2271,
      "Ġthrough": 2272,
      "Ġbois": 2273,
      "Ġgrow": 2274,
      "lles": 2275,
      "outer": 2276,
      "Ġpenser": 2277,
      "appe": 2278,
      "importe": 2279,
      "Ġfle": 2280,
      "Ġchin": 2281,
      "venu": 2282,
      "Ġlangu": 2283,
      "Ġdormir": 2284,
      "Ġdollars": 2285,
      "Ġaim": 2286,
      "Ġpois": 2287,
      "ett": 2288,
      "oyer": 2289,
      "Ġserai": 2290,
      "Ġagree": 2291,
      "Ġoffice": 2292,
      "Ġprix": 2293,
      "Ġdiscuss": 2294,
      "Ġpremiere": 2295,
      "Ġago": 2296,
      "Ġbusiness": 2297,
      "Ġexplain": 2298,
      "Ġtrip": 2299,
      "pren": 2300,
      "Ġpap": 2301,
      "Ġech": 2302,
      "Ġcheveux": 2303,
      "Ġvient": 2304,
      "Ġdernier": 2305,
      "Ġcatch": 2306,
      "br": 2307,
      "Ġdau": 2308,
      "Ġsecon": 2309,
      "Ġregret": 2310,
      "Ġleurs": 2311,
      "Ġnumber": 2312,
      "em": 2313,
      "Ġsnow": 2314,
      "asses": 2315,
      "Ġaccept": 2316,
      "Ġsuper": 2317,
      "oss": 2318,
      "Ġcontro": 2319,
      "ross": 2320,
      "paravant": 2321,
      "Ġmusique": 2322,
      "let": 2323,
      "Ġparf": 2324,
      "icul": 2325,
      "Ġerreur": 2326,
      "hors": 2327,
      "oking": 2328,
      "Ġtre": 2329,
      "Ġthen": 2330,
      "Ġverre": 2331,
      "Ġarrived": 2332,
      "Ġsecur": 2333,
      "Ġpuisse": 2334,
      "Ġradio": 2335,
      "Ġtimes": 2336,
      "Ġobl": 2337,
      "aines": 2338,
      "Ġagainst": 2339,
      "Ġfull": 2340,
      "Ġinform": 2341,
      "Ġimmediate": 2342,
      "Ġtown": 2343,
      "Ġsub": 2344,
      "Ġchans": 2345,
      "usement": 2346,
      "Ġsaying": 2347,
      "ission": 2348,
      "ized": 2349,
      "Ġexactly": 2350,
      "Ġdead": 2351,
      "user": 2352,
      "Ġreason": 2353,
      "Ġauparavant": 2354,
      "Ġdispos": 2355,
      "Ġdesolee": 2356,
      "Ġproduit": 2357,
      "Ġplutot": 2358,
      "Ġpopul": 2359,
      "Ġlie": 2360,
      "ettes": 2361,
      "Ġresult": 2362,
      "arer": 2363,
      "Ġsouh": 2364,
      "Ġchauss": 2365,
      "Ġinteresting": 2366,
      "Ġtype": 2367,
      "cons": 2368,
      "ther": 2369,
      "Ġouv": 2370,
      "any": 2371,
      "Ġbab": 2372,
      "arr": 2373,
      "orth": 2374,
      "Ġkept": 2375,
      "Ġsupposed": 2376,
      "ned": 2377,
      "uf": 2378,
      "ule": 2379,
      "Ġsac": 2380,
      "Ġsays": 2381,
      "Ġtor": 2382,
      "Ġhomework": 2383,
      "Ġendroit": 2384,
      "Ġpatient": 2385,
      "Ġpick": 2386,
      "Ġvole": 2387,
      "comm": 2388,
      "Ġpeuvent": 2389,
      "Ġcontent": 2390,
      "Ġrencontrer": 2391,
      "Ġsuffis": 2392,
      "uer": 2393,
      "Ġcut": 2394,
      "Ġvin": 2395,
      "Ġkiss": 2396,
      "Ġnouvelles": 2397,
      "Ġrefle": 2398,
      "Ġbegin": 2399,
      "Ġprochaine": 2400,
      "ĠÂ»": 2401,
      "Ġlik": 2402,
      "ical": 2403,
      "Ġsto": 2404,
      "cient": 2405,
      "Ġargent": 2406,
      "Ġprin": 2407,
      "enses": 2408,
      "Ġexper": 2409,
      "Ġfix": 2410,
      "Ġbout": 2411,
      "atre": 2412,
      "Ġgame": 2413,
      "Ġentendre": 2414,
      "Ġpenses": 2415,
      "attend": 2416,
      "Ġhung": 2417,
      "Ġjournal": 2418,
      "Ġdaughter": 2419,
      "Ġdehors": 2420,
      "ately": 2421,
      "Ġthir": 2422,
      "Ġleav": 2423,
      "Ġmari": 2424,
      "Ġappro": 2425,
      "ably": 2426,
      "Ġsummer": 2427,
      "Ġtomber": 2428,
      "Ġliving": 2429,
      "laissez": 2430,
      "Ġapolog": 2431,
      "Ġdecided": 2432,
      "midi": 2433,
      "noon": 2434,
      "uy": 2435,
      "Ġcoute": 2436,
      "arrete": 2437,
      "Ġarrete": 2438,
      "Ġcoin": 2439,
      "ination": 2440,
      "Ġquick": 2441,
      "Ġshort": 2442,
      "ched": 2443,
      "Ġfoot": 2444,
      "Ġconvain": 2445,
      "Ġappele": 2446,
      "cl": 2447,
      "rou": 2448,
      "Ġhealth": 2449,
      "antes": 2450,
      "Ġsold": 2451,
      "Ġmarcher": 2452,
      "Ġusually": 2453,
      "Ġcheck": 2454,
      "Ġafternoon": 2455,
      "Ġconcert": 2456,
      "Ġopinion": 2457,
      "dd": 2458,
      "fu": 2459,
      "enir": 2460,
      "Ġcent": 2461,
      "inst": 2462,
      "ettre": 2463,
      "Ġsurv": 2464,
      "Ġsafe": 2465,
      "Ġimpos": 2466,
      "faites": 2467,
      "Ġcountry": 2468,
      "ech": 2469,
      "ta": 2470,
      "Ġfive": 2471,
      "Ġrece": 2472,
      "Ġclasse": 2473,
      "Ġhold": 2474,
      "Ġchaud": 2475,
      "Ġimmediatement": 2476,
      "ered": 2477,
      "Ġsel": 2478,
      "Ġbas": 2479,
      "cep": 2480,
      "Ġweren": 2481,
      "osp": 2482,
      "Ġviend": 2483,
      "Ġattendre": 2484,
      "Ġpouvait": 2485,
      "Ġrencont": 2486,
      "Ġnombreux": 2487,
      "Ġdevoirs": 2488,
      "notre": 2489,
      "ower": 2490,
      "rente": 2491,
      "Ġmach": 2492,
      "venir": 2493,
      "akes": 2494,
      "Ġfinish": 2495,
      "Ġinterested": 2496,
      "Ġhabit": 2497,
      "Ġdiv": 2498,
      "Ġwine": 2499,
      "Ġlau": 2500,
      "Ġcompany": 2501,
      "Ġpeine": 2502,
      "Ġpayer": 2503,
      "riere": 2504,
      "Ġfenetre": 2505,
      "port": 2506,
      "Ġcu": 2507,
      "Ġhit": 2508,
      "Ġleg": 2509,
      "Ġrich": 2510,
      "ellig": 2511,
      "Ġtaking": 2512,
      "side": 2513,
      "Ġtree": 2514,
      "Ġsy": 2515,
      "Ġsorte": 2516,
      "Ġmoy": 2517,
      "Ġve": 2518,
      "Ġtrave": 2519,
      "Ġpresident": 2520,
      "quipe": 2521,
      "Ġrecu": 2522,
      "Ġpromise": 2523,
      "Ġswe": 2524,
      "Ġrepondre": 2525,
      "Ġfaim": 2526,
      "Ġsound": 2527,
      "Ġlater": 2528,
      "Ġsuit": 2529,
      "Ġferme": 2530,
      "peut": 2531,
      "Ġbri": 2532,
      "Ġcannot": 2533,
      "Ġdim": 2534,
      "inateur": 2535,
      "etud": 2536,
      "dem": 2537,
      "Ġallons": 2538,
      "lace": 2539,
      "Ġmains": 2540,
      "ctionne": 2541,
      "Ġdiscuter": 2542,
      "?\"": 2543,
      "gr": 2544,
      "votre": 2545,
      "alent": 2546,
      "Ġparc": 2547,
      "ication": 2548,
      "Ġmaking": 2549,
      "Ġapprendre": 2550,
      "Ġpropre": 2551,
      "Ġgirlfriend": 2552,
      "Ġsugg": 2553,
      "Ġcomputer": 2554,
      "Ġreco": 2555,
      "Ġfunny": 2556,
      "Ġgener": 2557,
      "Ġjaponais": 2558,
      "Ġlarge": 2559,
      "Ġimpossible": 2560,
      "Ġsuggest": 2561,
      "unk": 2562,
      "Ġparce": 2563,
      "agner": 2564,
      "Ġpensez": 2565,
      "Ġintellig": 2566,
      "Ġprobablement": 2567,
      "Ġdie": 2568,
      "Ġsante": 2569,
      "Ġbecome": 2570,
      "ution": 2571,
      "Ġfront": 2572,
      "Ġpromis": 2573,
      "Ġcinq": 2574,
      "rons": 2575,
      "Ġcost": 2576,
      "Ġdeal": 2577,
      "eter": 2578,
      "Ġrac": 2579,
      "Ġcloth": 2580,
      "Ġagre": 2581,
      "Ġbox": 2582,
      "Ġsecurite": 2583,
      "Ġbaby": 2584,
      "aff": 2585,
      "va": 2586,
      "oupe": 2587,
      "Ġpun": 2588,
      "Ġcomes": 2589,
      "Ġchercher": 2590,
      "Ġetrange": 2591,
      "ying": 2592,
      "Ġaband": 2593,
      "agit": 2594,
      "Ġneeds": 2595,
      "Ġnumer": 2596,
      "Ġprochain": 2597,
      "Ġborn": 2598,
      "mar": 2599,
      "ines": 2600,
      "Ġge": 2601,
      "Ġchanger": 2602,
      "Ġteam": 2603,
      "Ġdesc": 2604,
      "illed": 2605,
      "Ġparticul": 2606,
      "Ġtouch": 2607,
      "pourriez": 2608,
      "ifie": 2609,
      "Ġexcuses": 2610,
      "Ġgenre": 2611,
      "Ġprobably": 2612,
      "Ġhistoire": 2613,
      "Ġwhe": 2614,
      "Ġchanter": 2615,
      "Ġstre": 2616,
      "Ġfumer": 2617,
      "Ġsurprise": 2618,
      "Ġidiot": 2619,
      "nent": 2620,
      "oh": 2621,
      "Ġfish": 2622,
      "pping": 2623,
      "sib": 2624,
      "Ġecrire": 2625,
      "Ġstudent": 2626,
      "naire": 2627,
      "voud": 2628,
      "Ġsave": 2629,
      "Ġreconnais": 2630,
      "Ġopp": 2631,
      "amed": 2632,
      "Ġappris": 2633,
      "Ġils": 2634,
      "Ġeaten": 2635,
      "Ġwatching": 2636,
      "Ġrappelle": 2637,
      "Ġshoes": 2638,
      "ming": 2639,
      "Ġcre": 2640,
      "Ġbruit": 2641,
      "Ġbuild": 2642,
      "Ġconsider": 2643,
      "Ġterre": 2644,
      "Ġbirth": 2645,
      "Ġwoman": 2646,
      "bas": 2647,
      "ges": 2648,
      "Ġur": 2649,
      "ĠÅĵ": 2650,
      "Ġdark": 2651,
      "Ġlum": 2652,
      "Ġfas": 2653,
      "Ġfier": 2654,
      "inter": 2655,
      "Ġvont": 2656,
      "lly": 2657,
      "Ġtea": 2658,
      "oye": 2659,
      "Ġproblemes": 2660,
      "Ġsmoking": 2661,
      "Ġsouci": 2662,
      "Ġrefuse": 2663,
      "Ġcompletement": 2664,
      "Ġcomplain": 2665,
      "Ġpublic": 2666,
      "regarde": 2667,
      "Ġsavez": 2668,
      "Ġsug": 2669,
      "Ġchois": 2670,
      "pourrais": 2671,
      "Ġaffaire": 2672,
      "Ġlangue": 2673,
      "Ġmagas": 2674,
      "Ġlaugh": 2675,
      "Ġelles": 2676,
      "Ġsca": 2677,
      "erve": 2678,
      "arri": 2679,
      "ieres": 2680,
      "Ġimpat": 2681,
      "Ġcertaine": 2682,
      "Ġessayer": 2683,
      "Ġimpression": 2684,
      "Ġrapidement": 2685,
      "Ġset": 2686,
      "Ġcity": 2687,
      "ither": 2688,
      "Ġgun": 2689,
      "ede": 2690,
      "Ġenn": 2691,
      "Ġarm": 2692,
      "essaie": 2693,
      "Ġprete": 2694,
      "comme": 2695,
      "Ġoutside": 2696,
      "Ġpleuv": 2697,
      "fect": 2698,
      "accident": 2699,
      "Ġstrong": 2700,
      "30": 2701,
      "rap": 2702,
      "Ġdate": 2703,
      "enf": 2704,
      "Ġcasse": 2705,
      "Ġhosp": 2706,
      "avait": 2707,
      "Ġriche": 2708,
      "Ġwords": 2709,
      "ormais": 2710,
      "Ġclear": 2711,
      "Ġnecessaire": 2712,
      "Ġmessage": 2713,
      "Ġtest": 2714,
      "annee": 2715,
      "Ġdeath": 2716,
      "Ġguit": 2717,
      "ics": 2718,
      "Ġspecial": 2719,
      "Ġmaybe": 2720,
      "Ġpolit": 2721,
      "fast": 2722,
      "set": 2723,
      "Ġhat": 2724,
      "Ġgagne": 2725,
      "Ġneige": 2726,
      "ric": 2727,
      "Ġplain": 2728,
      "Ġprote": 2729,
      "Ġchoix": 2730,
      "Ġbehind": 2731,
      "Ġhospital": 2732,
      "bed": 2733,
      "bres": 2734,
      "cet": 2735,
      "Ġpoi": 2736,
      "Ġpaper": 2737,
      "ĠcÅĵur": 2738,
      "Ġble": 2739,
      "Ġind": 2740,
      "Ġkill": 2741,
      "Ġallow": 2742,
      "Ġamou": 2743,
      "Ġworks": 2744,
      "Ġcraz": 2745,
      "Ġdifference": 2746,
      "Ġcommencer": 2747,
      "Ġmachine": 2748,
      "Ġclothes": 2749,
      "gan": 2750,
      "lors": 2751,
      "ps": 2752,
      "Ġyork": 2753,
      "Ġban": 2754,
      "Ġbal": 2755,
      "ature": 2756,
      "Ġproud": 2757,
      "airs": 2758,
      "Ġsimple": 2759,
      "Ġbreakfast": 2760,
      "Ġfavorite": 2761,
      "hot": 2762,
      "sais": 2763,
      "Ġz": 2764,
      "Ġlond": 2765,
      "Ġmur": 2766,
      "Ġlaw": 2767,
      "Ġforce": 2768,
      "Ġguy": 2769,
      "attends": 2770,
      "Ġvoulons": 2771,
      "Ġemploi": 2772,
      "ray": 2773,
      "ensive": 2774,
      "ceed": 2775,
      "ended": 2776,
      "Ġatte": 2777,
      "Ġprojet": 2778,
      "mbre": 2779,
      "Ġneeded": 2780,
      "Ġoccupee": 2781,
      "Ġchaussures": 2782,
      "Ġhungry": 2783,
      "Ġquickly": 2784,
      "Ġtravel": 2785,
      "Ġcrazy": 2786,
      "Ġbase": 2787,
      "veille": 2788,
      "ommes": 2789,
      "Ġbebe": 2790,
      "Ġperdre": 2791,
      "Ġsenti": 2792,
      "Ġsouviens": 2793,
      "Ġvacances": 2794,
      "Ġnumero": 2795,
      "aw": 2796,
      "hier": 2797,
      "Ġdeg": 2798,
      "Ġhi": 2799,
      "iter": 2800,
      "Ġdess": 2801,
      "Ġress": 2802,
      "Ġpleas": 2803,
      "Ġsomebody": 2804,
      "Ġrobe": 2805,
      "Ġstayed": 2806,
      "Ġinvite": 2807,
      "by": 2808,
      "nees": 2809,
      "aged": 2810,
      "Ġferai": 2811,
      "exc": 2812,
      "Ġbecame": 2813,
      "Ġsunday": 2814,
      "oubl": 2815,
      "Ġnorm": 2816,
      "oose": 2817,
      "Ġkn": 2818,
      "Ġsoin": 2819,
      "Ġlived": 2820,
      "Ġlorsqu": 2821,
      "Ġplaisir": 2822,
      "Ġsuffisamment": 2823,
      "Ġreflech": 2824,
      "iel": 2825,
      "Ġhour": 2826,
      "Ġetions": 2827,
      "Ġcade": 2828,
      "Ġroute": 2829,
      "Ġdesormais": 2830,
      "ustr": 2831,
      "Ġprefer": 2832,
      "Ġrespect": 2833,
      "Ġposte": 2834,
      "intention": 2835,
      "Ġsatisf": 2836,
      "Ġoblige": 2837,
      "Ġdest": 2838,
      "Ġquiconque": 2839,
      "ush": 2840,
      "Ġchante": 2841,
      "peau": 2842,
      "Ġhandle": 2843,
      "Ġrevoir": 2844,
      "ĠÂ«": 2845,
      "pen": 2846,
      "ub": 2847,
      "Ġworth": 2848,
      "Ġfasse": 2849,
      "itie": 2850,
      "Ġheart": 2851,
      "teau": 2852,
      "allez": 2853,
      "Ġteach": 2854,
      "Ġplein": 2855,
      "Ġguerre": 2856,
      "Ġtravers": 2857,
      "Ġpaid": 2858,
      "Ġlose": 2859,
      "Ġbetwe": 2860,
      "Ġaffaires": 2861,
      "Ġelect": 2862,
      "Ġutiliser": 2863,
      "Ġchanson": 2864,
      "Ġstreet": 2865,
      "Ġbetween": 2866,
      "asion": 2867,
      "Ġreuss": 2868,
      "Ġrue": 2869,
      "Ġrather": 2870,
      "Ġgoes": 2871,
      "Ġriver": 2872,
      "Ġfruit": 2873,
      "cked": 2874,
      "Ġothers": 2875,
      "arreter": 2876,
      "Ġcomplet": 2877,
      "Ġsuccess": 2878,
      "cte": 2879,
      "Ġtent": 2880,
      "Ġtim": 2881,
      "era": 2882,
      "etr": 2883,
      "Ġalong": 2884,
      "Ġsometimes": 2885,
      "Ġfinally": 2886,
      "Ġprends": 2887,
      "Ġolder": 2888,
      "Ġmagasin": 2889,
      "indre": 2890,
      "els": 2891,
      "Ġrecomm": 2892,
      "tures": 2893,
      "Ġupset": 2894,
      "Ġpleurer": 2895,
      "Ġviol": 2896,
      "Ġderriere": 2897,
      "Ġpossib": 2898,
      "Ġconside": 2899,
      "Ġabsent": 2900,
      "Ġdevenir": 2901,
      "Ġlanguage": 2902,
      "Ġbot": 2903,
      "Ġasleep": 2904,
      "Ġsty": 2905,
      "Ġavais": 2906,
      "arth": 2907,
      "Ġperfect": 2908,
      "Ġveulent": 2909,
      "Ġetudier": 2910,
      "Ġ19": 2911,
      "Ġordinateur": 2912,
      "Ġbuilding": 2913,
      "ness": 2914,
      "Ġpous": 2915,
      "ane": 2916,
      "rest": 2917,
      "Ġcamp": 2918,
      "Ġsole": 2919,
      "Ġexcuse": 2920,
      "Ġnombreuses": 2921,
      "Ġchanged": 2922,
      "Ġtaxi": 2923,
      "Ġstopped": 2924,
      "Ġimpatient": 2925,
      "Ġsense": 2926,
      "Ġearth": 2927,
      "auc": 2928,
      "Ġlibre": 2929,
      "irai": 2930,
      "oser": 2931,
      "orts": 2932,
      "Ġtakes": 2933,
      "Ġresse": 2934,
      "Ġcru": 2935,
      "Ġdrunk": 2936,
      "Ġmesure": 2937,
      "acheter": 2938,
      "Ġbegan": 2939,
      "Ġrentrer": 2940,
      "run": 2941,
      "Ġ5": 2942,
      "Ġmill": 2943,
      "Ġfus": 2944,
      "Ġboss": 2945,
      "Ġgi": 2946,
      "Ġstore": 2947,
      "illage": 2948,
      "Ġconfe": 2949,
      "Ġamies": 2950,
      "Ġbras": 2951,
      "Ġinvited": 2952,
      "Ġmontrer": 2953,
      "Ġarreter": 2954,
      "habitude": 2955,
      "Ġreconnaiss": 2956,
      "dites": 2957,
      "Ġtall": 2958,
      "oudre": 2959,
      "Ġfri": 2960,
      "Ġcamer": 2961,
      "Ġsomme": 2962,
      "Ġallez": 2963,
      "Ġfrance": 2964,
      "venient": 2965,
      "Ġconcer": 2966,
      "Ġmots": 2967,
      "Ġdictionary": 2968,
      "Ġdictionnaire": 2969,
      "pensez": 2970,
      "Ġsoleil": 2971,
      "soyez": 2972,
      "Ġill": 2973,
      "Ġcup": 2974,
      "inte": 2975,
      "Ġhalf": 2976,
      "Ġplans": 2977,
      "Ġform": 2978,
      "Ġaurait": 2979,
      "Ġkilled": 2980,
      "Ġshut": 2981,
      "Ġriv": 2982,
      "Ġgets": 2983,
      "Ġdisapp": 2984,
      "Ġderange": 2985,
      "exp": 2986,
      "Ġremar": 2987,
      "Ġmoindre": 2988,
      "Ġstudying": 2989,
      "Ġcapable": 2990,
      "iversaire": 2991,
      "Ġchoice": 2992,
      "Ġfigured": 2993,
      "fully": 2994,
      "savez": 2995,
      "tte": 2996,
      "onner": 2997,
      "Ġlait": 2998,
      "Ġmit": 2999,
      "iche": 3000,
      "Ġwhatever": 3001,
      "Ġdevant": 3002,
      "Ġrendu": 3003,
      "areil": 3004,
      "Ġattr": 3005,
      "Ġspeaking": 3006,
      "Ġcourt": 3007,
      "Ġenvir": 3008,
      "Ġcontinue": 3009,
      "Ġkids": 3010,
      "Ġcuisine": 3011,
      "Ġetudiants": 3012,
      "Ġprudent": 3013,
      "fort": 3014,
      "Ġate": 3015,
      "Ġfilles": 3016,
      "Ġvete": 3017,
      "ative": 3018,
      "Ġquatre": 3019,
      "room": 3020,
      "Ġwhole": 3021,
      "Ġbeer": 3022,
      "ira": 3023,
      "Ġrire": 3024,
      "Ġclim": 3025,
      "Ġreport": 3026,
      "Ġconseil": 3027,
      "Ġrouge": 3028,
      "Ġrejou": 3029,
      "Ġbirthday": 3030,
      "Ġeux": 3031,
      "Ġcard": 3032,
      "Ġfact": 3033,
      "Ġhors": 3034,
      "ility": 3035,
      "enty": 3036,
      "Ġparis": 3037,
      "Ġextre": 3038,
      "ettez": 3039,
      "Ġspent": 3040,
      "Ġposs": 3041,
      "Ġmilk": 3042,
      "Ġdimanche": 3043,
      "Ġwhether": 3044,
      "ding": 3045,
      "oue": 3046,
      "onge": 3047,
      "Ġneg": 3048,
      "Ġtrom": 3049,
      "Ġorgan": 3050,
      "Ġmove": 3051,
      "Ġfurent": 3052,
      "Ġboite": 3053,
      "Ġdroit": 3054,
      "Ġterrible": 3055,
      "cert": 3056,
      "penses": 3057,
      "Ġait": 3058,
      "Ġmad": 3059,
      "Ġfont": 3060,
      "Ġfight": 3061,
      "Ġvide": 3062,
      "unes": 3063,
      "Ġger": 3064,
      "Ġnote": 3065,
      "Ġcoat": 3066,
      "Ġvoulu": 3067,
      "prenez": 3068,
      "Ġsucceed": 3069,
      "Ġmourir": 3070,
      "Ġticket": 3071,
      "Ġapologize": 3072,
      "Ġsymp": 3073,
      "Ġlumiere": 3074,
      "Ġcamera": 3075,
      "ded": 3076,
      "dess": 3077,
      "Ġbiere": 3078,
      "Ġhar": 3079,
      "rib": 3080,
      "rope": 3081,
      "Ġits": 3082,
      "Ġamus": 3083,
      "Ġresoudre": 3084,
      "ounds": 3085,
      "Ġposer": 3086,
      "Ġchapeau": 3087,
      "Ġabsol": 3088,
      "Ġexpected": 3089,
      "Ġgarder": 3090,
      "Ġsucces": 3091,
      "prends": 3092,
      "oque": 3093,
      "Ġu": 3094,
      "Ġcir": 3095,
      "Ġknown": 3096,
      "igne": 3097,
      "chez": 3098,
      "Ġcrit": 3099,
      "Ġsavait": 3100,
      "Ġhappening": 3101,
      "Ġmissed": 3102,
      "Ġlucky": 3103,
      "Ġignore": 3104,
      "Ġcorrect": 3105,
      "dden": 3106,
      "Ġvetements": 3107,
      "iot": 3108,
      "Ġcelle": 3109,
      "aim": 3110,
      "Ġgagner": 3111,
      "Ġbeach": 3112,
      "cip": 3113,
      "Ġmanteau": 3114,
      "usee": 3115,
      "Ġbrought": 3116,
      "Ġsouff": 3117,
      "liquer": 3118,
      "Ġcharge": 3119,
      "cteur": 3120,
      "noc": 3121,
      "Ġpan": 3122,
      "Ġborrow": 3123,
      "ome": 3124,
      "Ġplage": 3125,
      "Ġrav": 3126,
      "Ġworried": 3127,
      "Ġseeing": 3128,
      "Ġpersu": 3129,
      "Ġorder": 3130,
      "Ġwrote": 3131,
      "Ġvieille": 3132,
      "Ġweekend": 3133,
      "Ġdrinking": 3134,
      "Ġconseille": 3135,
      "cal": 3136,
      "cise": 3137,
      "Ġfine": 3138,
      "lame": 3139,
      "appelle": 3140,
      "Ġexpensive": 3141,
      "Ġfaisait": 3142,
      "Ġblack": 3143,
      "Ġinteresse": 3144,
      "Ġthanks": 3145,
      "Ġnature": 3146,
      "Ġinformation": 3147,
      "Ġtort": 3148,
      "Ġdivor": 3149,
      "lo": 3150,
      "Ġtalent": 3151,
      "Ġvaut": 3152,
      "iles": 3153,
      "Ġchoose": 3154,
      "Ġtruc": 3155,
      "Ġpluie": 3156,
      "raient": 3157,
      "Ġserie": 3158,
      "eurs": 3159,
      "Ġrapport": 3160,
      "Ġmistakes": 3161,
      "Ġembarr": 3162,
      "Ġaddress": 3163,
      "Ġscared": 3164,
      "ustral": 3165,
      "Ġtelle": 3166,
      "Ġporter": 3167,
      "erais": 3168,
      "Ġretur": 3169,
      "Ġleve": 3170,
      "Ġrare": 3171,
      "opital": 3172,
      "Ġperd": 3173,
      "Ġkey": 3174,
      "prise": 3175,
      "Ġdemanda": 3176,
      "Ġrunning": 3177,
      "hist": 3178,
      "Ġed": 3179,
      "Ġdoi": 3180,
      "Ġceux": 3181,
      "Ġcase": 3182,
      "Ġfis": 3183,
      "Ġlaquelle": 3184,
      "Ġinnoc": 3185,
      "Ġprodu": 3186,
      "Ġamb": 3187,
      "Ġchem": 3188,
      "Ġtelling": 3189,
      "Ġloves": 3190,
      "Ġoffer": 3191,
      "Ġproblems": 3192,
      "Ġassis": 3193,
      "Ġenseign": 3194,
      "emb": 3195,
      "Ġequipe": 3196,
      "Ġcake": 3197,
      "Ġsoci": 3198,
      "Ġroad": 3199,
      "Ġconsc": 3200,
      "Ġfamil": 3201,
      "Ġflo": 3202,
      "Ġflow": 3203,
      "Ġcrying": 3204,
      "lorsque": 3205,
      "Ġcadeau": 3206,
      "Ġdange": 3207,
      "onde": 3208,
      "Ġbord": 3209,
      "ries": 3210,
      "verse": 3211,
      "agn": 3212,
      "ointed": 3213,
      "Ġfaute": 3214,
      "Ġsouhait": 3215,
      "Ġden": 3216,
      "Ġhid": 3217,
      "ilite": 3218,
      "Ġcele": 3219,
      "Ġquiet": 3220,
      "Ġnovel": 3221,
      "Ġfinalement": 3222,
      "Ġproposition": 3223,
      "Ġmauvaise": 3224,
      "cul": 3225,
      "lui": 3226,
      "Ġtrente": 3227,
      "Ġinj": 3228,
      "roy": 3229,
      "Ġjard": 3230,
      "Ġannee": 3231,
      "Ġless": 3232,
      "Ġhappens": 3233,
      "Ġrepas": 3234,
      "Ġworked": 3235,
      "Ġcarte": 3236,
      "convenient": 3237,
      "prit": 3238,
      "Ġfacon": 3239,
      "Ġwalked": 3240,
      "Ġstupide": 3241,
      "Ġdangerous": 3242,
      "Ġslow": 3243,
      "Ġexperience": 3244,
      "Ġsell": 3245,
      "inc": 3246,
      "entendre": 3247,
      "Ġchoc": 3248,
      "Ġforward": 3249,
      "amen": 3250,
      "Ġtire": 3251,
      "Ġhommes": 3252,
      "Ġhelped": 3253,
      "Ġferiez": 3254,
      "rape": 3255,
      "Ġspeaks": 3256,
      "Ġfuture": 3257,
      "Ġdogs": 3258,
      "Ġpuiss": 3259,
      "Ġstrange": 3260,
      "Ġbroken": 3261,
      "Ġcollege": 3262,
      "Ġactually": 3263,
      "Ġdise": 3264,
      "Ġnoise": 3265,
      "Ġreparer": 3266,
      "Ġtalked": 3267,
      "Ġfamous": 3268,
      "Ġpainting": 3269,
      "Ġcrime": 3270,
      "Ġhonest": 3271,
      "clock": 3272,
      "cre": 3273,
      "irent": 3274,
      "Ġsoup": 3275,
      "Ġmens": 3276,
      "Ġvillage": 3277,
      "rien": 3278,
      "Ġdonc": 3279,
      "Ġrh": 3280,
      "illa": 3281,
      "Ġecole": 3282,
      "Ġsmoke": 3283,
      "Ġevening": 3284,
      "Ġshopping": 3285,
      "Ġriviere": 3286,
      "cy": 3287,
      "Â«": 3288,
      "oublie": 3289,
      "Ġdom": 3290,
      "Ġbateau": 3291,
      "orme": 3292,
      "Ġneigh": 3293,
      "Ġsuite": 3294,
      "Ġsudden": 3295,
      "Ġcompris": 3296,
      "Ġclosed": 3297,
      "Ġdepend": 3298,
      "Ġdifficul": 3299,
      "Ġpoor": 3300,
      "Ġphotos": 3301,
      "Ġduring": 3302,
      "Ġmeilleure": 3303,
      "Ġinteressant": 3304,
      "Ġrejouis": 3305,
      "Ġneighb": 3306,
      "pose": 3307,
      "esse": 3308,
      "quis": 3309,
      "Ġgateau": 3310,
      "oto": 3311,
      "Ġplup": 3312,
      "Ġpress": 3313,
      "Ġplane": 3314,
      "Ġemprun": 3315,
      "rasser": 3316,
      "Ġswimming": 3317,
      "Ġsembl": 3318,
      "Ġplupart": 3319,
      "gue": 3320,
      "uve": 3321,
      "Ġsad": 3322,
      "Ġsang": 3323,
      "Ġwarn": 3324,
      "Ġnett": 3325,
      "itation": 3326,
      "Ġship": 3327,
      "Ġchev": 3328,
      "Ġesp": 3329,
      "ortez": 3330,
      "Ġfinir": 3331,
      "essayer": 3332,
      "Ġdetail": 3333,
      "arretez": 3334,
      "Ġgirls": 3335,
      "Ġquitter": 3336,
      "Ġimagine": 3337,
      "Ġrecogn": 3338,
      "histoire": 3339,
      "Ġjardin": 3340,
      "ru": 3341,
      "rist": 3342,
      "Ġside": 3343,
      "Ġvend": 3344,
      "Ġhonn": 3345,
      "Ġeither": 3346,
      "idence": 3347,
      "Ġseat": 3348,
      "Ġtrad": 3349,
      "Ġride": 3350,
      "ived": 3351,
      "Ġcommun": 3352,
      "Ġvouloir": 3353,
      "Ġentrer": 3354,
      "ieurs": 3355,
      "Ġfonctionne": 3356,
      "Ġwearing": 3357,
      "Ġsecond": 3358,
      "dans": 3359,
      "Ġpou": 3360,
      "Ġmem": 3361,
      "irt": 3362,
      "Ġcanad": 3363,
      "Ġjeu": 3364,
      "Ġautour": 3365,
      "Ġrappeler": 3366,
      "Ġapprecie": 3367,
      "Ġwriting": 3368,
      "Ġwritten": 3369,
      "Ġfleurs": 3370,
      "Ġpoisson": 3371,
      "etranger": 3372,
      "Ġnoir": 3373,
      "ined": 3374,
      "Ġblame": 3375,
      "Ġheav": 3376,
      "Ġlibr": 3377,
      "Ġparviens": 3378,
      "allons": 3379,
      "Ġrid": 3380,
      "ague": 3381,
      "Ġeurope": 3382,
      "Ġpaye": 3383,
      "Ġshowed": 3384,
      "Ġdurant": 3385,
      "Ġgarden": 3386,
      "Ġliked": 3387,
      "Ġcuri": 3388,
      "Ġintelligent": 3389,
      "form": 3390,
      "Ġtreat": 3391,
      "heque": 3392,
      "aimes": 3393,
      "Ġfool": 3394,
      "road": 3395,
      "Ġserez": 3396,
      "Ġstar": 3397,
      "utile": 3398,
      "Ġtaken": 3399,
      "bliot": 3400,
      "Ġautor": 3401,
      "Ġetudie": 3402,
      "Ġnecessary": 3403,
      "Ġfigure": 3404,
      "Ġbibliot": 3405,
      "dessus": 3406,
      "bes": 3407,
      "cs": 3408,
      "ctu": 3409,
      "Ġpauv": 3410,
      "Ġgas": 3411,
      "Ġjol": 3412,
      "Ġwilling": 3413,
      "Ġmatch": 3414,
      "Ġaccep": 3415,
      "Ġcouple": 3416,
      "Ġpresenter": 3417,
      "Ġgentil": 3418,
      "Ġcompletely": 3419,
      "Ġlibrary": 3420,
      "Ġbibliotheque": 3421,
      "ged": 3422,
      "Ġmign": 3423,
      "Ġleast": 3424,
      "Ġlac": 3425,
      "Ġannees": 3426,
      "Ġchrist": 3427,
      "Ġparap": 3428,
      "Ġrum": 3429,
      "Ġappar": 3430,
      "Ġentend": 3431,
      "Ġcontact": 3432,
      "autres": 3433,
      "Ġintro": 3434,
      "Ġtenir": 3435,
      "Ġendorm": 3436,
      "Ġfemmes": 3437,
      "instant": 3438,
      "amp": 3439,
      "ial": 3440,
      "quiconque": 3441,
      "isc": 3442,
      "Ġbill": 3443,
      "Ġreussi": 3444,
      "Ġchiens": 3445,
      "dered": 3446,
      "Ġdesk": 3447,
      "olved": 3448,
      "venez": 3449,
      "Ġimpro": 3450,
      "Ġrecher": 3451,
      "Ġwomen": 3452,
      "Ġflowers": 3453,
      "ev": 3454,
      "Ġtasse": 3455,
      "Ġdent": 3456,
      "Ġgarde": 3457,
      "usb": 3458,
      "Ġweight": 3459,
      "Ġdonna": 3460,
      "ained": 3461,
      "Ġjeunes": 3462,
      "ffic": 3463,
      "Ġprit": 3464,
      "Ġspeech": 3465,
      "Ġvenue": 3466,
      "irer": 3467,
      "Ġsmell": 3468,
      "Ġoccup": 3469,
      "Ġtableau": 3470,
      "Ġcherche": 3471,
      "Ġsatisfait": 3472,
      "Ġmedicine": 3473,
      "Ġdistance": 3474,
      "Ġleaving": 3475,
      "Ġpleuvoir": 3476,
      "Ġpoids": 3477,
      "Ġnormal": 3478,
      "Ġsommeil": 3479,
      "Ġconscience": 3480,
      "Ġsout": 3481,
      "Ġcred": 3482,
      "Ġuncle": 3483,
      "Ġlever": 3484,
      "Ġtran": 3485,
      "Ġpreter": 3486,
      "Ġappareil": 3487,
      "toutes": 3488,
      "Ġconseils": 3489,
      "Ġsolve": 3490,
      "plus": 3491,
      "ian": 3492,
      "rup": 3493,
      "Ġdance": 3494,
      "Ġpost": 3495,
      "Ġpower": 3496,
      "ann": 3497,
      "Ġdeter": 3498,
      "Ġremp": 3499,
      "rice": 3500,
      "Ġchair": 3501,
      "Ġconstr": 3502,
      "Ġallee": 3503,
      "Ġrules": 3504,
      "Ġnewsp": 3505,
      "Ġprepare": 3506,
      "arriver": 3507,
      "Ġamoureux": 3508,
      "mbrell": 3509,
      "Ġumbrell": 3510,
      "usband": 3511,
      "lique": 3512,
      "Ġsounds": 3513,
      "Ġpur": 3514,
      "head": 3515,
      "Ġlist": 3516,
      "Ġhusband": 3517,
      "Ġky": 3518,
      "Ġtue": 3519,
      "Ġshot": 3520,
      "Ġquelcon": 3521,
      "ierement": 3522,
      "Ġloved": 3523,
      "Ġboyfriend": 3524,
      "Ġamerican": 3525,
      "ape": 3526,
      "rom": 3527,
      "Ġaustral": 3528,
      "Ġdoute": 3529,
      "Ġlend": 3530,
      "Ġmount": 3531,
      "Ġtop": 3532,
      "Ġbother": 3533,
      "mee": 3534,
      "Ġoncle": 3535,
      "Ġalive": 3536,
      "Ġdevenu": 3537,
      "Ġnervous": 3538,
      "Ġparfois": 3539,
      "Ġgerman": 3540,
      "cent": 3541,
      "hes": 3542,
      "uite": 3543,
      "voi": 3544,
      "way": 3545,
      "aisse": 3546,
      "icle": 3547,
      "Ġclub": 3548,
      "ifier": 3549,
      "Ġglass": 3550,
      "desole": 3551,
      "Ġwarm": 3552,
      "Ġsucre": 3553,
      "Ġmoyen": 3554,
      "hip": 3555,
      "hopital": 3556,
      "oles": 3557,
      "so": 3558,
      "Ġmention": 3559,
      "Ġball": 3560,
      "Ġgout": 3561,
      "Ġecon": 3562,
      "ides": 3563,
      "Ġchou": 3564,
      "iennes": 3565,
      "Ġmalad": 3566,
      "Ġsupporter": 3567,
      "Ġecoute": 3568,
      "Ġaccomp": 3569,
      "Ġacross": 3570,
      "Ġsentir": 3571,
      "Ġcourir": 3572,
      "Ġsorti": 3573,
      "Ġ10": 3574,
      "Ġdoub": 3575,
      "appreci": 3576,
      "Ġracon": 3577,
      "Ġtranqu": 3578,
      "luie": 3579,
      "ove": 3580,
      "rase": 3581,
      "vre": 3582,
      "Ġbank": 3583,
      "Ġhang": 3584,
      "Ġjoke": 3585,
      "ortun": 3586,
      "Ġabroad": 3587,
      "tenu": 3588,
      "Ġregles": 3589,
      "Ġsmart": 3590,
      "attendre": 3591,
      "Ġreveille": 3592,
      "Ġlistening": 3593,
      "Ġlearned": 3594,
      "Ġtempete": 3595,
      "Ġroman": 3596,
      "Ġdangereux": 3597,
      "Ġchocol": 3598,
      "Ġparapluie": 3599,
      "Ġumbrella": 3600,
      "montre": 3601,
      "sois": 3602,
      "yons": 3603,
      "zy": 3604,
      "Ġtrait": 3605,
      "Ġcand": 3606,
      "Ġstorm": 3607,
      "Ġalles": 3608,
      "Ġtuer": 3609,
      "Ġrent": 3610,
      "Ġhasn": 3611,
      "Ġadore": 3612,
      "beau": 3613,
      "Ġcoll": 3614,
      "Ġsmile": 3615,
      "Ġdormi": 3616,
      "Ġvacation": 3617,
      "Ġegalement": 3618,
      "Ġcontrar": 3619,
      "Ġpapier": 3620,
      "Ġthirty": 3621,
      "Ġdisappointed": 3622,
      "Ġfloor": 3623,
      "Ġeconom": 3624,
      "ament": 3625,
      "mas": 3626,
      "ual": 3627,
      "Ġbreat": 3628,
      "Ġhaut": 3629,
      "Ġwhite": 3630,
      "Ġparl": 3631,
      "gere": 3632,
      "amour": 3633,
      "iennent": 3634,
      "Ġargu": 3635,
      "Ġseriez": 3636,
      "Ġconst": 3637,
      "ouvert": 3638,
      "Ġinvolved": 3639,
      "Ġfaul": 3640,
      "Ġrisque": 3641,
      "gram": 3642,
      "Ġamusant": 3643,
      "af": 3644,
      "dge": 3645,
      "gen": 3646,
      "Ġpire": 3647,
      "Ġir": 3648,
      "Ġcross": 3649,
      "itch": 3650,
      "Ġowe": 3651,
      "Ġinqui": 3652,
      "Ġinconvenient": 3653,
      "Ġetats": 3654,
      "aujourd": 3655,
      "inee": 3656,
      "Ġattendu": 3657,
      "ression": 3658,
      "Ġbelong": 3659,
      "Ġliste": 3660,
      "Ġopened": 3661,
      "Ġhabitu": 3662,
      "Ġcontinu": 3663,
      "Ġpieds": 3664,
      "Ġrhume": 3665,
      "Ġkyoto": 3666,
      "gie": 3667,
      "gment": 3668,
      "hor": 3669,
      "lu": 3670,
      "lier": 3671,
      "mment": 3672,
      "Ġtel": 3673,
      "Ġtie": 3674,
      "Ġsn": 3675,
      "Ġpommes": 3676,
      "Ġlying": 3677,
      "Ġcache": 3678,
      "Ġcute": 3679,
      "erature": 3680,
      "Ġni": 3681,
      "Ġtoile": 3682,
      "atique": 3683,
      "nement": 3684,
      "Ġsever": 3685,
      "echer": 3686,
      "Ġapart": 3687,
      "Ġcarefully": 3688,
      "Ġexcell": 3689,
      "Ġsleeping": 3690,
      "Ġgarcons": 3691,
      "Ġtraffic": 3692,
      "Ġbath": 3693,
      "Ġgrosse": 3694,
      "Ġski": 3695,
      "Ġvict": 3696,
      "Ġdeep": 3697,
      "Ġwhose": 3698,
      "Ġtriste": 3699,
      "Ġext": 3700,
      "Ġpron": 3701,
      "Ġouvert": 3702,
      "Ġkeys": 3703,
      "Ġlaissez": 3704,
      "Ġsentiment": 3705,
      "Ġmagaz": 3706,
      "Ġsuivre": 3707,
      "Ġsuspect": 3708,
      "Ġforeign": 3709,
      "beaucoup": 3710,
      "hi": 3711,
      "ives": 3712,
      "obe": 3713,
      "Ġice": 3714,
      "Ġmir": 3715,
      "Ġvec": 3716,
      "orais": 3717,
      "ustom": 3718,
      "Ġreconn": 3719,
      "Ġunivers": 3720,
      "Ġindi": 3721,
      "aces": 3722,
      "Ġfrapp": 3723,
      "Ġcomporte": 3724,
      "Ġrendez": 3725,
      "Ġseras": 3726,
      "Ġsomewhere": 3727,
      "Ġfermer": 3728,
      "ograp": 3729,
      "Ġpassed": 3730,
      "miner": 3731,
      "Ġpatron": 3732,
      "Ġquitte": 3733,
      "Ġetudiant": 3734,
      "Ġurgent": 3735,
      "Ġreussir": 3736,
      "Ġchristmas": 3737,
      "Ġseveral": 3738,
      "mets": 3739,
      "ring": 3740,
      "esp": 3741,
      "oned": 3742,
      "Ġcer": 3743,
      "Ġnai": 3744,
      "Ġheld": 3745,
      "aint": 3746,
      "Ġcancer": 3747,
      "ored": 3748,
      "ffe": 3749,
      "Ġdanser": 3750,
      "Ġspoke": 3751,
      "aimez": 3752,
      "quels": 3753,
      "Ġvoit": 3754,
      "Ġguys": 3755,
      "Ġpassee": 3756,
      "Ġvoix": 3757,
      "occup": 3758,
      "Ġdessus": 3759,
      "land": 3760,
      "Ġdut": 3761,
      "Ġpose": 3762,
      "univers": 3763,
      "Ġdos": 3764,
      "alle": 3765,
      "Ġlim": 3766,
      "dejeuner": 3767,
      "Ġparlez": 3768,
      "Ġwaste": 3769,
      "Ġaurais": 3770,
      "amer": 3771,
      "Ġplusieurs": 3772,
      "Ġreser": 3773,
      "Ġserieux": 3774,
      "Ġouver": 3775,
      "ecrire": 3776,
      "Ġfera": 3777,
      "quelque": 3778,
      "Ġpropres": 3779,
      "Ġwaited": 3780,
      "examen": 3781,
      "Ġdiscours": 3782,
      "Ġvoyager": 3783,
      "Ġlunettes": 3784,
      "Ġsalle": 3785,
      "Ġdirait": 3786,
      "rouille": 3787,
      "Ġrencontres": 3788,
      "Ġopportun": 3789,
      "Ġgiven": 3790,
      "Ġtaille": 3791,
      "Ġdure": 3792,
      "env": 3793,
      "Ġwall": 3794,
      "Ġgif": 3795,
      "ots": 3796,
      "Ġmeans": 3797,
      "Ġlake": 3798,
      "auche": 3799,
      "Ġproche": 3800,
      "appeler": 3801,
      "Ġvivent": 3802,
      "Ġattent": 3803,
      "Ġecl": 3804,
      "Ġcats": 3805,
      "Ġboys": 3806,
      "Ġanniversaire": 3807,
      "Ġrisk": 3808,
      "Ġdriving": 3809,
      "Ġcontrol": 3810,
      "Ġagreed": 3811,
      "mi": 3812,
      "opp": 3813,
      "pas": 3814,
      "Ġess": 3815,
      "Ġsle": 3816,
      "Ġscient": 3817,
      "Ġcit": 3818,
      "Ġfail": 3819,
      "ilt": 3820,
      "Ġopt": 3821,
      "roche": 3822,
      "Ġweb": 3823,
      "Ġchats": 3824,
      "Ġshop": 3825,
      "Ġapple": 3826,
      "venue": 3827,
      "Ġdirect": 3828,
      "Ġlock": 3829,
      "Ġcarry": 3830,
      "Ġprice": 3831,
      "Ġrecent": 3832,
      "Ġdebut": 3833,
      "Ġeasily": 3834,
      "Ġsolution": 3835,
      "empl": 3836,
      "Ġamerica": 3837,
      "Ġdressed": 3838,
      "Ġconnaitre": 3839,
      "Ġcredit": 3840,
      "voici": 3841,
      "od": 3842,
      "Ġbille": 3843,
      "ator": 3844,
      "itable": 3845,
      "Ġlequel": 3846,
      "Ġegg": 3847,
      "Ġexer": 3848,
      "Ġaccord": 3849,
      "Ġhardly": 3850,
      "Ġmariee": 3851,
      "Ġcalme": 3852,
      "Ġcondition": 3853,
      "Ġdouleur": 3854,
      "Ġmariage": 3855,
      "voudriez": 3856,
      "Ġallowed": 3857,
      "Ġbaseball": 3858,
      "Ġenviron": 3859,
      "Ġembarrass": 3860,
      "Ġpauvre": 3861,
      "ctement": 3862,
      "ior": 3863,
      "mat": 3864,
      "ront": 3865,
      "Ġmail": 3866,
      "Ġfair": 3867,
      "Ġlead": 3868,
      "Ġcomb": 3869,
      "avion": 3870,
      "lax": 3871,
      "Ġcompter": 3872,
      "Ġcrains": 3873,
      "Ġsport": 3874,
      "Ġsouvenir": 3875,
      "Ġdrole": 3876,
      "Ġsignifie": 3877,
      "Ġhorri": 3878,
      "Ġhonte": 3879,
      "Ġpromised": 3880,
      "Ġcertainement": 3881,
      "Ġguitar": 3882,
      "ket": 3883,
      "Ġtend": 3884,
      "Ġahead": 3885,
      "Ġsend": 3886,
      "esprit": 3887,
      "Ġcul": 3888,
      "Ġcig": 3889,
      "Ġmout": 3890,
      "Ġbons": 3891,
      "Ġvent": 3892,
      "Ġving": 3893,
      "Ġoise": 3894,
      "ieme": 3895,
      "alite": 3896,
      "Ġprogram": 3897,
      "Ġcourant": 3898,
      "Ġcourage": 3899,
      "Ġharder": 3900,
      "Ġcontinuer": 3901,
      "Ġfacilement": 3902,
      "Ġprepared": 3903,
      "Ġressemble": 3904,
      "book": 3905,
      "Ġer": 3906,
      "Ġnav": 3907,
      "Ġfond": 3908,
      "Ġbiz": 3909,
      "Ġpast": 3910,
      "Ġjack": 3911,
      "Ġjud": 3912,
      "ief": 3913,
      "acle": 3914,
      "Ġmarier": 3915,
      "ctive": 3916,
      "Ġthinks": 3917,
      "Ġtwice": 3918,
      "Ġpromen": 3919,
      "Ġglasses": 3920,
      "Ġremind": 3921,
      "Ġearlier": 3922,
      "yste": 3923,
      "Ġfatiguee": 3924,
      "Ġpermis": 3925,
      "Ġfeelings": 3926,
      "Ġsusp": 3927,
      "donnez": 3928,
      "dedans": 3929,
      "Ġvingt": 3930,
      "ele": 3931,
      "Ġtente": 3932,
      "Ġpai": 3933,
      "Ġwel": 3934,
      "Ġremerci": 3935,
      "restez": 3936,
      "Ġchaise": 3937,
      "Ġparole": 3938,
      "ouvrir": 3939,
      "Ġviande": 3940,
      "Ġsupport": 3941,
      "Ġbonnes": 3942,
      "Ġpermission": 3943,
      "Ġimmediately": 3944,
      "Ġdiscussion": 3945,
      "Ġviendra": 3946,
      "main": 3947,
      "Ġ3": 3948,
      "Ġnation": 3949,
      "Ġfly": 3950,
      "Ġhy": 3951,
      "Ġhop": 3952,
      "Ġgouver": 3953,
      "Ġenem": 3954,
      "Ġdipl": 3955,
      "Ġherself": 3956,
      "Ġrends": 3957,
      "Ġvieil": 3958,
      "Ġstaying": 3959,
      "Ġafford": 3960,
      "Ġcoucher": 3961,
      "Ġinside": 3962,
      "Ġretourner": 3963,
      "Ġairport": 3964,
      "Ġerreurs": 3965,
      "Ġwinter": 3966,
      "Ġimagination": 3967,
      "Ġimpressed": 3968,
      "Ġtransl": 3969,
      "Ġpopulation": 3970,
      "Ġreflechir": 3971,
      "Ġreconnaissant": 3972,
      "Ġintrodu": 3973,
      "of": 3974,
      "rew": 3975,
      "Ġciel": 3976,
      "erop": 3977,
      "isse": 3978,
      "Ġvote": 3979,
      "unis": 3980,
      "Ġrelax": 3981,
      "Ġsuic": 3982,
      "mere": 3983,
      "reste": 3984,
      "icated": 3985,
      "âĢī": 3986,
      "cieux": 3987,
      "Ġcondu": 3988,
      "Ġamuse": 3989,
      "Ġsight": 3990,
      "ecoute": 3991,
      "Ġeut": 3992,
      "Ġaccused": 3993,
      "Ġsentence": 3994,
      "Ġshower": 3995,
      "Ġcomprend": 3996,
      "Ġeleves": 3997,
      "Ġeffray": 3998,
      "Ġbatiment": 3999,
      "Ġsoiree": 4000,
      "Ġadmit": 4001,
      "ufs": 4002,
      "Ġleaves": 4003,
      "Ġtranquille": 4004,
      "Ġfault": 4005,
      "Ġaille": 4006,
      "Ġcles": 4007,
      "aig": 4008,
      "ering": 4009,
      "arret": 4010,
      "Ġglace": 4011,
      "Ġmeat": 4012,
      "rier": 4013,
      "Ġlic": 4014,
      "vern": 4015,
      "Ġaviez": 4016,
      "Ġconvers": 4017,
      "Ġexh": 4018,
      "Ġnoel": 4019,
      "Ġappl": 4020,
      "aked": 4021,
      "Ġadresse": 4022,
      "Ġdecl": 4023,
      "ists": 4024,
      "Ġrob": 4025,
      "Ġmod": 4026,
      "Ġcourse": 4027,
      "Ġvouliez": 4028,
      "Ġdispar": 4029,
      "Ġboat": 4030,
      "Ġwalking": 4031,
      "Ġcolor": 4032,
      "Ġwonderful": 4033,
      "Ġcooking": 4034,
      "Ġservi": 4035,
      "Ġservice": 4036,
      "ohn": 4037,
      "interieur": 4038,
      "Ġmillion": 4039,
      "Ġchemise": 4040,
      "Ġsociete": 4041,
      "Ġheavy": 4042,
      "bles": 4043,
      "uck": 4044,
      "oux": 4045,
      "Ġsyste": 4046,
      "Ġline": 4047,
      "Ġwake": 4048,
      "Ġbur": 4049,
      "ales": 4050,
      "urance": 4051,
      "Ġgovern": 4052,
      "Ġshirt": 4053,
      "cted": 4054,
      "avec": 4055,
      "Ġworse": 4056,
      "Ġgrat": 4057,
      "Ġintern": 4058,
      "Ġpictures": 4059,
      "Ġeye": 4060,
      "Ġembr": 4061,
      "Ġtemperature": 4062,
      "Ġjump": 4063,
      "Ġlondon": 4064,
      "aucun": 4065,
      "Ġbizarre": 4066,
      "cont": 4067,
      "mettez": 4068,
      "Ġsky": 4069,
      "arbre": 4070,
      "tee": 4071,
      "rige": 4072,
      "Ġplenty": 4073,
      "Ġpard": 4074,
      "Ġring": 4075,
      "aded": 4076,
      "Ġmonday": 4077,
      "Ġpartici": 4078,
      "Ġgrad": 4079,
      "Ġpresente": 4080,
      "Ġasking": 4081,
      "Ġideas": 4082,
      "Ġphrase": 4083,
      "Ġpull": 4084,
      "Ġimm": 4085,
      "Ġraining": 4086,
      "000": 4087,
      "Ġenjoyed": 4088,
      "Ġcopine": 4089,
      "ferme": 4090,
      "Ġhorse": 4091,
      "Ġanimaux": 4092,
      "Ġfootball": 4093,
      "Ġinnocent": 4094,
      "Ġsuddenly": 4095,
      "Ġrecognize": 4096,
      "Ġconversation": 4097,
      "Ġours": 4098,
      "oule": 4099,
      "Ġayez": 4100,
      "Ġsand": 4101,
      "Ġpot": 4102,
      "Ġmou": 4103,
      "issez": 4104,
      "Ġdece": 4105,
      "Ġdepe": 4106,
      "Ġjohn": 4107,
      "ionn": 4108,
      "Ġarme": 4109,
      "Ġanywhere": 4110,
      "Ġought": 4111,
      "Ġattrape": 4112,
      "Ġblue": 4113,
      "Ġblood": 4114,
      "Ġrefused": 4115,
      "Ġpieces": 4116,
      "Ġconseilla": 4117,
      "Ġeleve": 4118,
      "Ġlawy": 4119,
      "Ġnewspaper": 4120,
      "Ġquelconque": 4121,
      "Ġchouette": 4122,
      "Ġcontrarie": 4123,
      "Ġcigare": 4124,
      "eroport": 4125,
      "suis": 4126,
      "Ġtas": 4127,
      "reuse": 4128,
      "ened": 4129,
      "Ġcous": 4130,
      "Ġhol": 4131,
      "Ġmemb": 4132,
      "Ġital": 4133,
      "Ġparfait": 4134,
      "Ġforme": 4135,
      "terieur": 4136,
      "imag": 4137,
      "Ġgod": 4138,
      "Ġmarch": 4139,
      "Ġmarry": 4140,
      "ards": 4141,
      "Ġfeed": 4142,
      "Ġgroupe": 4143,
      "Ġsemaines": 4144,
      "ignorais": 4145,
      "Ġvisage": 4146,
      "Ġpainted": 4147,
      "attendais": 4148,
      "Ġennuy": 4149,
      "Ġcheval": 4150,
      "sons": 4151,
      "Ġcense": 4152,
      "Ġwood": 4153,
      "Ġos": 4154,
      "Ġlaug": 4155,
      "Ġliar": 4156,
      "acun": 4157,
      "Ġash": 4158,
      "Ġstick": 4159,
      "Ġshare": 4160,
      "Ġcompet": 4161,
      "isee": 4162,
      "Ġdecider": 4163,
      "Ġdepart": 4164,
      "ached": 4165,
      "Ġoccasion": 4166,
      "entretenir": 4167,
      "import": 4168,
      "Ġmerveille": 4169,
      "Ġfallu": 4170,
      "Ġouvrir": 4171,
      "Ġbanque": 4172,
      "hotel": 4173,
      "Ġhonnete": 4174,
      "Ġjolie": 4175,
      "Ġmountain": 4176,
      "Ġvecu": 4177,
      "Ġslept": 4178,
      "Ġremercier": 4179,
      "Ġholid": 4180,
      "Ġlaughed": 4181,
      "aeroport": 4182,
      "iquer": 4183,
      "ling": 4184,
      "ttes": 4185,
      "enn": 4186,
      "Ġcrow": 4187,
      "itions": 4188,
      "Ġener": 4189,
      "Ġsejour": 4190,
      "dev": 4191,
      "Ġavoc": 4192,
      "Ġmanquer": 4193,
      "Ġpleut": 4194,
      "Ġappeler": 4195,
      "stairs": 4196,
      "Ġfaisons": 4197,
      "iving": 4198,
      "Ġdrop": 4199,
      "Ġdebout": 4200,
      "Ġfailed": 4201,
      "Ġcuisiner": 4202,
      "Ġepouse": 4203,
      "Ġcourses": 4204,
      "Ġseriously": 4205,
      "iendra": 4206,
      "Ġanimals": 4207,
      "Ġaimer": 4208,
      "Ġlikely": 4209,
      "Ġmoyens": 4210,
      "men": 4211,
      "met": 4212,
      "Ġdanc": 4213,
      "Ġmien": 4214,
      "Ġbody": 4215,
      "Ġvot": 4216,
      "Ġprog": 4217,
      "cts": 4218,
      "Ġarbre": 4219,
      "Ġarret": 4220,
      "Ġfrappe": 4221,
      "Ġprecise": 4222,
      "igner": 4223,
      "ouvre": 4224,
      "Ġesc": 4225,
      "Ġstuff": 4226,
      "Ġbuilt": 4227,
      "Ġmoitie": 4228,
      "Ġlundi": 4229,
      "Ġmovies": 4230,
      "Ġresponsable": 4231,
      "Ġjoindre": 4232,
      "Ġkissed": 4233,
      "Ġressent": 4234,
      "oubliez": 4235,
      "Ġextreme": 4236,
      "Ġcelebre": 4237,
      "Ġemprunter": 4238,
      "Ġnettoyer": 4239,
      "Ġhabituellement": 4240,
      "gl": 4241,
      "iar": 4242,
      "Ġaimes": 4243,
      "aitement": 4244,
      "inture": 4245,
      "ila": 4246,
      "iling": 4247,
      "und": 4248,
      "alous": 4249,
      "Ġsep": 4250,
      "aps": 4251,
      "angers": 4252,
      "Ġcouleur": 4253,
      "Ġincroy": 4254,
      "Ġfallait": 4255,
      "Ġignor": 4256,
      "Ġveget": 4257,
      "voudrais": 4258,
      "cin": 4259,
      "time": 4260,
      "ument": 4261,
      "Ġpont": 4262,
      "Ġpage": 4263,
      "Ġnage": 4264,
      "Ġburn": 4265,
      "arter": 4266,
      "itive": 4267,
      "Ġgolf": 4268,
      "Ġrespe": 4269,
      "Ġpartout": 4270,
      "Ġapples": 4271,
      "Ġdirection": 4272,
      "Ġaies": 4273,
      "istance": 4274,
      "abilite": 4275,
      "Ġgotten": 4276,
      "ressed": 4277,
      "Ġcommit": 4278,
      "Ġsoucie": 4279,
      "Ġweeks": 4280,
      "Ġenvoye": 4281,
      "Ġobject": 4282,
      "Ġcoupe": 4283,
      "Ġrealize": 4284,
      "empecher": 4285,
      "Ġhundre": 4286,
      "Ġcommenca": 4287,
      "Ġbehav": 4288,
      "ucation": 4289,
      "Ġarticle": 4290,
      "Ġprevu": 4291,
      "Ġsuitc": 4292,
      "affaire": 4293,
      "Ġsatisfied": 4294,
      "Ġstylo": 4295,
      "Ġenseignant": 4296,
      "Ġwarned": 4297,
      "maintenant": 4298,
      "hum": 4299,
      "Ġlente": 4300,
      "Ġcur": 4301,
      "Ġfur": 4302,
      "inced": 4303,
      "Ġboute": 4304,
      "eth": 4305,
      "Ġquant": 4306,
      "Ġgri": 4307,
      "ings": 4308,
      "aiss": 4309,
      "Ġrequ": 4310,
      "Ġmeant": 4311,
      "eum": 4312,
      "Ġeche": 4313,
      "ayez": 4314,
      "verser": 4315,
      "Ġrate": 4316,
      "olen": 4317,
      "Ġcompre": 4318,
      "Ġdemission": 4319,
      "Ġloc": 4320,
      "istes": 4321,
      "Ġmater": 4322,
      "Ġblague": 4323,
      "Ġterminer": 4324,
      "essayez": 4325,
      "ituteur": 4326,
      "Ġplayed": 4327,
      "exterieur": 4328,
      "Ġdouche": 4329,
      "Ġmenti": 4330,
      "Ġbird": 4331,
      "Ġprefererais": 4332,
      "Ġtombee": 4333,
      "Ġchinois": 4334,
      "Ġchinese": 4335,
      "Ġsurviv": 4336,
      "Ġchoisir": 4337,
      "Ġguns": 4338,
      "Ġlondres": 4339,
      "Ġpleased": 4340,
      "Ġduty": 4341,
      "Ġpromenade": 4342,
      "Ġgouvernement": 4343,
      "father": 4344,
      "Ġutile": 4345,
      "Ġsen": 4346,
      "Ġsim": 4347,
      "Ġlou": 4348,
      "Ġland": 4349,
      "Ġcot": 4350,
      "Ġnone": 4351,
      "qua": 4352,
      "Ġfass": 4353,
      "Ġfiche": 4354,
      "Ġlear": 4355,
      "acter": 4356,
      "Ġaugment": 4357,
      "amb": 4358,
      "tendez": 4359,
      "Ġappa": 4360,
      "ecouter": 4361,
      "Ġcontente": 4362,
      "Ġstudi": 4363,
      "Ġspring": 4364,
      "Ġblanc": 4365,
      "Ġpromesse": 4366,
      "Ġseemed": 4367,
      "Ġfired": 4368,
      "Ġcrimin": 4369,
      "occupe": 4370,
      "Ġprincip": 4371,
      "Ġtrompe": 4372,
      "quisition": 4373,
      "universite": 4374,
      "Ġgovernment": 4375,
      "iore": 4376,
      "jus": 4377,
      "mand": 4378,
      "Â»": 4379,
      "Ġlon": 4380,
      "Ġcart": 4381,
      "Ġfant": 4382,
      "leve": 4383,
      "vered": 4384,
      "Ġthough": 4385,
      "ceci": 4386,
      "Ġdocteur": 4387,
      "Ġparles": 4388,
      "Ġstood": 4389,
      "Ġstolen": 4390,
      "Ġdisent": 4391,
      "Ġcompagn": 4392,
      "Ġtouche": 4393,
      "Ġclo": 4394,
      "acked": 4395,
      "Ġmathe": 4396,
      "Ġconnu": 4397,
      "Ġempty": 4398,
      "Ġmuseum": 4399,
      "Ġfortune": 4400,
      "Ġsooner": 4401,
      "Ġpatience": 4402,
      "Ġgarage": 4403,
      "Ġefforts": 4404,
      "Ġproposal": 4405,
      "Ġconvinced": 4406,
      "Ġmontagne": 4407,
      "Ġsitting": 4408,
      "Ġinstru": 4409,
      "Ġtrees": 4410,
      "Ġhabitue": 4411,
      "Ġbridge": 4412,
      "Ġparticular": 4413,
      "Ġcruel": 4414,
      "Ġdoubt": 4415,
      "Ġexcellent": 4416,
      "hood": 4417,
      "voir": 4418,
      "Ġpier": 4419,
      "Ġcess": 4420,
      "Ġmel": 4421,
      "Ġfol": 4422,
      "inqui": 4423,
      "ased": 4424,
      "assi": 4425,
      "ushed": 4426,
      "Ġnez": 4427,
      "Ġneuf": 4428,
      "teen": 4429,
      "Ġseven": 4430,
      "Ġcomfort": 4431,
      "Ġauriez": 4432,
      "Ġstri": 4433,
      "Ġalso": 4434,
      "Ġamaz": 4435,
      "aveur": 4436,
      "Ġpleure": 4437,
      "apprendre": 4438,
      "cape": 4439,
      "Ġintention": 4440,
      "irez": 4441,
      "Ġgrandfather": 4442,
      "Ġinvest": 4443,
      "Ġbuying": 4444,
      "Ġcorps": 4445,
      "Ġobtenu": 4446,
      "Ġlangues": 4447,
      "impression": 4448,
      "Ġsinging": 4449,
      "Ġfollowed": 4450,
      "Ġdelic": 4451,
      "Ġactuellement": 4452,
      "Ġsouhaite": 4453,
      "Ġbeginning": 4454,
      "Ġlaughing": 4455,
      "Ġinjured": 4456,
      "rupt": 4457,
      "Ġenemy": 4458,
      "Ġashamed": 4459,
      "Ġmathemat": 4460,
      "gy": 4461,
      "iff": 4462,
      "Ġ8": 4463,
      "Ġdad": 4464,
      "Ġdents": 4465,
      "ences": 4466,
      "aies": 4467,
      "quelles": 4468,
      "Ġfile": 4469,
      "Ġfif": 4470,
      "Ġfaveur": 4471,
      "cee": 4472,
      "resh": 4473,
      "Ġallait": 4474,
      "uise": 4475,
      "Ġlongue": 4476,
      "Ġimplique": 4477,
      "Ġfeels": 4478,
      "Ġferait": 4479,
      "Ġmoved": 4480,
      "izz": 4481,
      "Ġrefus": 4482,
      "Ġseuls": 4483,
      "Ġmorce": 4484,
      "Ġhabite": 4485,
      "Ġpersonal": 4486,
      "Ġmerite": 4487,
      "Ġprudente": 4488,
      "Ġsourire": 4489,
      "Ġhistory": 4490,
      "Ġtickets": 4491,
      "Ġpopular": 4492,
      "Ġconvaincu": 4493,
      "Ġattraper": 4494,
      "Ġserieusement": 4495,
      "Ġdetails": 4496,
      "Ġmaladie": 4497,
      "Ġeggs": 4498,
      "dom": 4499,
      "eff": 4500,
      "ired": 4501,
      "pres": 4502,
      "Ġsie": 4503,
      "Ġreellement": 4504,
      "Ġrevenu": 4505,
      "Ġram": 4506,
      "Ġprov": 4507,
      "Ġarr": 4508,
      "Ġprenez": 4509,
      "uler": 4510,
      "Ġfear": 4511,
      "Ġclos": 4512,
      "aka": 4513,
      "Ġbutton": 4514,
      "Ġafin": 4515,
      "Ġderanger": 4516,
      "Ġcommande": 4517,
      "Ġdrank": 4518,
      "Ġidees": 4519,
      "Ġblind": 4520,
      "Ġcalm": 4521,
      "Ġsleepy": 4522,
      "ception": 4523,
      "Ġmentir": 4524,
      "regardez": 4525,
      "Ġsuggere": 4526,
      "Ġennuis": 4527,
      "Ġbottle": 4528,
      "Ġvideo": 4529,
      "Ġhorrible": 4530,
      "Ġincroyable": 4531,
      "Ġlentement": 4532,
      "co": 4533,
      "Ġtaller": 4534,
      "Ġfresh": 4535,
      "Ġmeur": 4536,
      "Ġobe": 4537,
      "riv": 4538,
      "tume": 4539,
      "rested": 4540,
      "Ġplu": 4541,
      "iced": 4542,
      "Ġwashing": 4543,
      "accep": 4544,
      "Ġkil": 4545,
      "Ġvert": 4546,
      "Ġoui": 4547,
      "Ġescape": 4548,
      "ectu": 4549,
      "Ġadop": 4550,
      "Ġseules": 4551,
      "Ġgrands": 4552,
      "icious": 4553,
      "Ġconduit": 4554,
      "Ġsemblez": 4555,
      "Ġnative": 4556,
      "Ġportes": 4557,
      "Ġinstant": 4558,
      "Ġconvaincre": 4559,
      "Ġreceived": 4560,
      "Ġsweet": 4561,
      "ĠÅĵil": 4562,
      "Ġguitare": 4563,
      "Ġfishing": 4564,
      "cel": 4565,
      "dit": 4566,
      "pes": 4567,
      "sy": 4568,
      "Ġcow": 4569,
      "Ġcool": 4570,
      "Ġmid": 4571,
      "ash": 4572,
      "Ġbain": 4573,
      "ety": 4574,
      "ilar": 4575,
      "ories": 4576,
      "Ġrevenir": 4577,
      "Ġant": 4578,
      "Ġsept": 4579,
      "Ġtraite": 4580,
      "Ġtears": 4581,
      "rends": 4582,
      "Ġmaj": 4583,
      "Ġavion": 4584,
      "Ġtient": 4585,
      "Ġpract": 4586,
      "Ġchef": 4587,
      "Ġcrav": 4588,
      "ounded": 4589,
      "Åĵil": 4590,
      "Ġdrinks": 4591,
      "Ġregarda": 4592,
      "Ġarrives": 4593,
      "Ġcapit": 4594,
      "Ġsauf": 4595,
      "Ġvoice": 4596,
      "Ġsilence": 4597,
      "marie": 4598,
      "Ġsugar": 4599,
      "enfant": 4600,
      "Ġespoir": 4601,
      "Ġouverte": 4602,
      "Ġlawyer": 4603,
      "mary": 4604,
      "rouve": 4605,
      "Ġpomme": 4606,
      "Ġloi": 4607,
      "Ġmusee": 4608,
      "Ġwed": 4609,
      "inaire": 4610,
      "Ġvus": 4611,
      "arch": 4612,
      "eliore": 4613,
      "Ġthrow": 4614,
      "oie": 4615,
      "Ġens": 4616,
      "Ġmonte": 4617,
      "Ġavions": 4618,
      "Ġtight": 4619,
      "Ġfeet": 4620,
      "Ġhadn": 4621,
      "Ġgrave": 4622,
      "Ġspo": 4623,
      "Ġsavons": 4624,
      "Ġdraw": 4625,
      "Ġaccount": 4626,
      "Ġpromets": 4627,
      "Ġpretend": 4628,
      "Ġimportante": 4629,
      "Ġcroit": 4630,
      "Ġpreparer": 4631,
      "Ġemot": 4632,
      "Ġdriver": 4633,
      "Ġlanguages": 4634,
      "Ġagreable": 4635,
      "Ġrarement": 4636,
      "Ġslowly": 4637,
      "Ġmagazine": 4638,
      "Ġwelcome": 4639,
      "Ġgunshot": 4640,
      "Ġlearning": 4641,
      "fois": 4642,
      "ror": 4643,
      "voyez": 4644,
      "Ġtaught": 4645,
      "reg": 4646,
      "Ġsche": 4647,
      "esper": 4648,
      "once": 4649,
      "Ġly": 4650,
      "Ġcine": 4651,
      "Ġmienne": 4652,
      "Ġyen": 4653,
      "ilty": 4654,
      "tead": 4655,
      "rique": 4656,
      "Ġhaute": 4657,
      "Ġplays": 4658,
      "terre": 4659,
      "Ġwash": 4660,
      "Ġpourriez": 4661,
      "avis": 4662,
      "Ġrang": 4663,
      "Ġstrai": 4664,
      "urg": 4665,
      "Ġmanager": 4666,
      "Ġsurve": 4667,
      "Ġarrested": 4668,
      "lable": 4669,
      "Ġsale": 4670,
      "cket": 4671,
      "Ġregle": 4672,
      "Ġpriv": 4673,
      "Ġguilty": 4674,
      "Ġarrivee": 4675,
      "Ġmets": 4676,
      "Ġsoud": 4677,
      "Ġconcl": 4678,
      "entrer": 4679,
      "Ġvisited": 4680,
      "Ġacting": 4681,
      "Ġsignif": 4682,
      "Ġfollowing": 4683,
      "Ġgreen": 4684,
      "Ġechoue": 4685,
      "Ġprintemps": 4686,
      "Ġbouton": 4687,
      "Ġzoo": 4688,
      "Ġconsidered": 4689,
      "Ġremarque": 4690,
      "certains": 4691,
      "Ġreturn": 4692,
      "Ġsemblait": 4693,
      "Ġbreath": 4694,
      "Ġnaive": 4695,
      "Ġgift": 4696,
      "Ġmouth": 4697,
      "Ġstudied": 4698,
      "Ġstraight": 4699,
      "ares": 4700,
      "cil": 4701,
      "ple": 4702,
      "sont": 4703,
      "sui": 4704,
      "Ġding": 4705,
      "Ġpizz": 4706,
      "Ġloud": 4707,
      "Ġcoo": 4708,
      "Ġmorte": 4709,
      "Ġtow": 4710,
      "Ġvienne": 4711,
      "Ġevent": 4712,
      "Ġtomb": 4713,
      "own": 4714,
      "Ġparv": 4715,
      "Ġforte": 4716,
      "Ġproject": 4717,
      "Ġsonge": 4718,
      "Ġclair": 4719,
      "Ġcray": 4720,
      "moire": 4721,
      "ifique": 4722,
      "Ġordered": 4723,
      "Ġnouveaux": 4724,
      "action": 4725,
      "exper": 4726,
      "Ġinvitation": 4727,
      "Ġyounger": 4728,
      "Ġmedicament": 4729,
      "Ġfourn": 4730,
      "etudier": 4731,
      "Ġfruits": 4732,
      "expliquer": 4733,
      "Ġpossede": 4734,
      "Ġravi": 4735,
      "Ġmemory": 4736,
      "ograph": 4737,
      "Ġpaix": 4738,
      "Ġavocat": 4739,
      "Ġcravate": 4740,
      "ok": 4741,
      "tres": 4742,
      "Ġsache": 4743,
      "Ġpique": 4744,
      "Ġcustom": 4745,
      "Ġmille": 4746,
      "Ġfing": 4747,
      "inv": 4748,
      "Ġhuit": 4749,
      "etres": 4750,
      "Ġlave": 4751,
      "Ġjealous": 4752,
      "uts": 4753,
      "Ġdieu": 4754,
      "usted": 4755,
      "raite": 4756,
      "Ġdevraient": 4757,
      "Ġapporte": 4758,
      "anges": 4759,
      "Ġpeace": 4760,
      "cks": 4761,
      "Ġlog": 4762,
      "Ġprofonde": 4763,
      "Ġrepondu": 4764,
      "Ġinstead": 4765,
      "Ġcertainly": 4766,
      "Ġfonction": 4767,
      "demain": 4768,
      "Ġsentiments": 4769,
      "Ġdoig": 4770,
      "Ġfamiliar": 4771,
      "Ġneighbor": 4772,
      "Ġendormi": 4773,
      "Ġcandid": 4774,
      "Ġattentive": 4775,
      "Ġprecisement": 4776,
      "Ġextremement": 4777,
      "Ġbouteille": 4778,
      "Ġcinema": 4779,
      "cture": 4780,
      "ieu": 4781,
      "pir": 4782,
      "Ġ4": 4783,
      "Ġtast": 4784,
      "Ġcell": 4785,
      "inform": 4786,
      "Ġvendre": 4787,
      "ousand": 4788,
      "omb": 4789,
      "ities": 4790,
      "Ġthousand": 4791,
      "Ġmeal": 4792,
      "Ġlied": 4793,
      "Ġdeserve": 4794,
      "Ġavaient": 4795,
      "Ġfrais": 4796,
      "Ġverifier": 4797,
      "ulle": 4798,
      "Ġresol": 4799,
      "uits": 4800,
      "artient": 4801,
      "Ġstuck": 4802,
      "Ġencour": 4803,
      "Ġecouter": 4804,
      "Ġkeeps": 4805,
      "Ġremettre": 4806,
      "Ġdroite": 4807,
      "Ġvoler": 4808,
      "Ġrude": 4809,
      "Ġsauve": 4810,
      "Ġdirai": 4811,
      "Ġnerveux": 4812,
      "Ġ20": 4813,
      "Ġblessee": 4814,
      "Ġtrouvait": 4815,
      "Ġprevois": 4816,
      "Ġsubject": 4817,
      "Ġcouteau": 4818,
      "Ġsaved": 4819,
      "Ġknife": 4820,
      "Ġsympa": 4821,
      "Ġdivorce": 4822,
      "Ġtrucs": 4823,
      "Ġembrasse": 4824,
      "Ġlonely": 4825,
      "ms": 4826,
      "mis": 4827,
      "mage": 4828,
      "ores": 4829,
      "sc": 4830,
      "Ġdort": 4831,
      "Ġlos": 4832,
      "Ġcried": 4833,
      "Ġmas": 4834,
      "entends": 4835,
      "unte": 4836,
      "Ġreach": 4837,
      "aitre": 4838,
      "rois": 4839,
      "ird": 4840,
      "ury": 4841,
      "Ġavoid": 4842,
      "Ġconne": 4843,
      "ession": 4844,
      "Ġpred": 4845,
      "ouvons": 4846,
      "Ġpleine": 4847,
      "Ġbrave": 4848,
      "Ġcars": 4849,
      "selves": 4850,
      "Ġheureuses": 4851,
      "asseoir": 4852,
      "Ġconsac": 4853,
      "Ġflat": 4854,
      "Ġexcited": 4855,
      "itesse": 4856,
      "Ġtelephon": 4857,
      "Ġpaint": 4858,
      "Ġenseigne": 4859,
      "Ġbattre": 4860,
      "Ġlistened": 4861,
      "Ġterrif": 4862,
      "Ġsilen": 4863,
      "Ġcorrectement": 4864,
      "Ġconnaissance": 4865,
      "Ġseconde": 4866,
      "Ġfaster": 4867,
      "excuse": 4868,
      "certaines": 4869,
      "aimait": 4870,
      "Ġfurther": 4871,
      "aque": 4872,
      "cis": 4873,
      "iments": 4874,
      "raper": 4875,
      "vos": 4876,
      "Ġlour": 4877,
      "Ġnose": 4878,
      "leg": 4879,
      "Ġbread": 4880,
      "usse": 4881,
      "Ġbeat": 4882,
      "aurai": 4883,
      "Ġchine": 4884,
      "Ġsea": 4885,
      "acquisition": 4886,
      "Ġkitch": 4887,
      "Ġnotice": 4888,
      "ama": 4889,
      "Ġgold": 4890,
      "Ġshall": 4891,
      "Ġsurs": 4892,
      "idee": 4893,
      "Ġrepro": 4894,
      "Ġhelping": 4895,
      "Ġimporte": 4896,
      "Ġdecla": 4897,
      "ifs": 4898,
      "active": 4899,
      "Ġcherch": 4900,
      "Ġvolont": 4901,
      "Ġgentle": 4902,
      "Ġforgive": 4903,
      "Ġlarmes": 4904,
      "Ġgrew": 4905,
      "Ġgrowing": 4906,
      "Ġparfaitement": 4907,
      "Ġprotect": 4908,
      "Ġnaturel": 4909,
      "Ġmensonge": 4910,
      "Ġbillet": 4911,
      "Ġlow": 4912,
      "Ġbour": 4913,
      "Ġhu": 4914,
      "ouser": 4915,
      "orie": 4916,
      "Ġgauche": 4917,
      "Ġdocu": 4918,
      "Ġchur": 4919,
      "Ġking": 4920,
      "Ġasse": 4921,
      "Ġamong": 4922,
      "ctions": 4923,
      "sign": 4924,
      "Ġpeint": 4925,
      "Ġclaire": 4926,
      "Ġaiment": 4927,
      "Ġcommon": 4928,
      "Ġdepri": 4929,
      "Ġfaisais": 4930,
      "Ġsoupe": 4931,
      "Ġawake": 4932,
      "Ġsortie": 4933,
      "Ġrains": 4934,
      "Ġtraverser": 4935,
      "Ġtourne": 4936,
      "Ġretourne": 4937,
      "Ġemploy": 4938,
      "Ġstanding": 4939,
      "Ġsoient": 4940,
      "Ġstep": 4941,
      "Ġfoule": 4942,
      "Ġchina": 4943,
      "Ġregrette": 4944,
      "demande": 4945,
      "Ġabandonne": 4946,
      "Ġrecherche": 4947,
      "Ġvoitures": 4948,
      "Ġexha": 4949,
      "Ġgradu": 4950,
      "Ġkitchen": 4951,
      "bo": 4952,
      "neu": 4953,
      "Ġ6": 4954,
      "enne": 4955,
      "Ġmise": 4956,
      "erie": 4957,
      "leterre": 4958,
      "isation": 4959,
      "Ġbais": 4960,
      "Ġhide": 4961,
      "ata": 4962,
      "ara": 4963,
      "entr": 4964,
      "Ġlegu": 4965,
      "riger": 4966,
      "outes": 4967,
      "irm": 4968,
      "ural": 4969,
      "Ġparties": 4970,
      "Ġdemen": 4971,
      "Ġhasard": 4972,
      "Ġoubl": 4973,
      "Ġdecouvert": 4974,
      "Ġtalks": 4975,
      "Ġsavent": 4976,
      "issent": 4977,
      "Ġprisonn": 4978,
      "Ġprets": 4979,
      "Ġflu": 4980,
      "Ġdetest": 4981,
      "Ġcoupable": 4982,
      "Ġbouche": 4983,
      "Ġscream": 4984,
      "Ġskin": 4985,
      "Ġnearly": 4986,
      "Ġboring": 4987,
      "chaque": 4988,
      "Ġcomplaining": 4989,
      "Ġproteger": 4990,
      "aucune": 4991,
      "Ġcircul": 4992,
      "Ġpersuade": 4993,
      "Ġuniversity": 4994,
      "Ġopportunity": 4995,
      "Ġrecently": 4996,
      "Ġenergy": 4997,
      "Ġensuite": 4998,
      "experience": 4999,
      "dra": 5000,
      "eche": 5001,
      "gest": 5002,
      "mely": 5003,
      "vois": 5004,
      "vious": 5005,
      "Ġ30": 5006,
      "Ġpon": 5007,
      "Ġira": 5008,
      "eng": 5009,
      "heur": 5010,
      "Ġfed": 5011,
      "Ġbored": 5012,
      "orn": 5013,
      "Ġmemoire": 5014,
      "Ġoct": 5015,
      "Ġlaver": 5016,
      "Ġlazy": 5017,
      "Ġequ": 5018,
      "Ġweird": 5019,
      "alors": 5020,
      "tenez": 5021,
      "Ġseront": 5022,
      "Ġgroup": 5023,
      "ighted": 5024,
      "astic": 5025,
      "Ġilleg": 5026,
      "Ġretire": 5027,
      "Ġmoder": 5028,
      "Ġflight": 5029,
      "Ġexcit": 5030,
      "Ġclever": 5031,
      "Ġgene": 5032,
      "Ġconduis": 5033,
      "Ġscene": 5034,
      "Ġobvious": 5035,
      "Ġmissing": 5036,
      "Ġvolunte": 5037,
      "Ġbless": 5038,
      "Ġnerve": 5039,
      "Ġvalise": 5040,
      "occasion": 5041,
      "Ġjuge": 5042,
      "Ġgerer": 5043,
      "excuser": 5044,
      "Ġreturned": 5045,
      "Ġaustralia": 5046,
      "Ġapartment": 5047,
      "occuper": 5048,
      "Ġosaka": 5049,
      "Ġschedu": 5050,
      "Ġchurch": 5051,
      "bon": 5052,
      "equipe": 5053,
      "ging": 5054,
      "rage": 5055,
      "rees": 5056,
      "Ġlune": 5057,
      "Ġcreat": 5058,
      "aign": 5059,
      "quent": 5060,
      "Ġfie": 5061,
      "Ġfaux": 5062,
      "attendez": 5063,
      "Ġqual": 5064,
      "entend": 5065,
      "its": 5066,
      "Ġreves": 5067,
      "Ġunited": 5068,
      "Ġjal": 5069,
      "Ġstock": 5070,
      "Ġdesp": 5071,
      "Ġdirige": 5072,
      "Ġworst": 5073,
      "oph": 5074,
      "oyons": 5075,
      "Ġdemarre": 5076,
      "Ġgrab": 5077,
      "aken": 5078,
      "Ġenter": 5079,
      "Ġentierement": 5080,
      "Ġrepond": 5081,
      "Ġperte": 5082,
      "Ġallerg": 5083,
      "Ġfriendly": 5084,
      "Ġvenus": 5085,
      "Ġwatched": 5086,
      "Ġgrandes": 5087,
      "attraper": 5088,
      "Ġaware": 5089,
      "Ġcalling": 5090,
      "Ġscience": 5091,
      "Ġobser": 5092,
      "Ġexplan": 5093,
      "Ġshoot": 5094,
      "Ġeffic": 5095,
      "entreprise": 5096,
      "Ġvoudriez": 5097,
      "Ġrule": 5098,
      "Ġproduire": 5099,
      "Ġresponsible": 5100,
      "Ġresponsib": 5101,
      "Ġportait": 5102,
      "Ġdelighted": 5103,
      "Ġhuman": 5104,
      "Ġdreams": 5105,
      "Ġsteal": 5106,
      "Ġsilent": 5107,
      "Ġselon": 5108,
      "Ġparticulier": 5109,
      "ĠÅĵufs": 5110,
      "Ġpolitique": 5111,
      "Ġelectric": 5112,
      "Ġconference": 5113,
      "Ġextremely": 5114,
      "Ġappartement": 5115,
      "Ġraconter": 5116,
      "Ġextra": 5117,
      "Ġhyp": 5118,
      "Ġwedding": 5119,
      "Ġlegumes": 5120,
      "bum": 5121,
      "cut": 5122,
      "deux": 5123,
      "sur": 5124,
      "Ġtar": 5125,
      "Ġach": 5126,
      "Ġpair": 5127,
      "het": 5128,
      "Ġcos": 5129,
      "arrasser": 5130,
      "Ġgiving": 5131,
      "Ġreached": 5132,
      "antage": 5133,
      "Ġteeth": 5134,
      "Ġpourrions": 5135,
      "Ġcab": 5136,
      "Ġmarrant": 5137,
      "Ġsurf": 5138,
      "pourv": 5139,
      "Ġenfin": 5140,
      "Ġmeth": 5141,
      "onna": 5142,
      "Ġoccur": 5143,
      "Ġengland": 5144,
      "Ġdouble": 5145,
      "Ġjaponaise": 5146,
      "Ġvisiter": 5147,
      "Ġmeaning": 5148,
      "Ġrelig": 5149,
      "Ġanimal": 5150,
      "energie": 5151,
      "Ġexplained": 5152,
      "Ġcontrole": 5153,
      "Ġballe": 5154,
      "Ġknock": 5155,
      "Ġsuicide": 5156,
      "Ġhundred": 5157,
      "Ġcompagnie": 5158,
      "Ġcloche": 5159,
      "dois": 5160,
      "off": 5161,
      "vas": 5162,
      "Ġtur": 5163,
      "Ġlat": 5164,
      "Ġband": 5165,
      "Ġdevel": 5166,
      "Ġtheory": 5167,
      "jection": 5168,
      "Ġrever": 5169,
      "Ġeight": 5170,
      "Ġepuis": 5171,
      "Ġinde": 5172,
      "Ġjet": 5173,
      "Ġanc": 5174,
      "tern": 5175,
      "Ġaura": 5176,
      "andis": 5177,
      "Ġsocc": 5178,
      "Ġmagn": 5179,
      "Ġavance": 5180,
      "Ġdue": 5181,
      "Ġsigne": 5182,
      "Ġprepar": 5183,
      "Ġrestes": 5184,
      "Ġclient": 5185,
      "Ġentire": 5186,
      "Ġcontrib": 5187,
      "Ġdecu": 5188,
      "Ġorig": 5189,
      "Ġecriv": 5190,
      "Ġvaleur": 5191,
      "Ġtwenty": 5192,
      "Ġplanning": 5193,
      "Ġfreres": 5194,
      "Ġobtenir": 5195,
      "Ġentreprise": 5196,
      "Ġbigger": 5197,
      "Ġshocked": 5198,
      "Ġeffectu": 5199,
      "Ġconvince": 5200,
      "Ġchaude": 5201,
      "Ġkidding": 5202,
      "Ġbagages": 5203,
      "Ġmonths": 5204,
      "Ġresultat": 5205,
      "Ġdescri": 5206,
      "Ġearthqu": 5207,
      "Ġpanne": 5208,
      "Ġgasp": 5209,
      "amerique": 5210,
      "Ġlicense": 5211,
      "Ġbehavior": 5212,
      "Ġsuitcase": 5213,
      "Ġcomfortable": 5214,
      "Ġmorceau": 5215,
      "Ġsoccer": 5216,
      "cool": 5217,
      "tiens": 5218,
      "wh": 5219,
      "Ġ7": 5220,
      "Ġdan": 5221,
      "Ġid": 5222,
      "onom": 5223,
      "inue": 5224,
      "istre": 5225,
      "Ġvain": 5226,
      "Ġdepourv": 5227,
      "Ġtheorie": 5228,
      "Ġgate": 5229,
      "Ġrepe": 5230,
      "Ġemer": 5231,
      "depe": 5232,
      "Ġcam": 5233,
      "Ġstole": 5234,
      "Ġstates": 5235,
      "utely": 5236,
      "Ġsoyons": 5237,
      "Ġpenetre": 5238,
      "Ġfaits": 5239,
      "Ġprecip": 5240,
      "Ġprot": 5241,
      "Ġclock": 5242,
      "Ġbrule": 5243,
      "Ġrose": 5244,
      "Ġspot": 5245,
      "Ġeats": 5246,
      "Ġexpert": 5247,
      "Ġtenu": 5248,
      "Ġchaleur": 5249,
      "Ġpretes": 5250,
      "Ġinvites": 5251,
      "Ġcalls": 5252,
      "Ġtotally": 5253,
      "Ġcouper": 5254,
      "Ġbrothers": 5255,
      "Ġmerci": 5256,
      "Ġsingle": 5257,
      "Ġbirds": 5258,
      "Ġplaisanter": 5259,
      "iendrai": 5260,
      "Ġinteressante": 5261,
      "Ġchansons": 5262,
      "Ġpicked": 5263,
      "Ġhealthy": 5264,
      "Ġplaindre": 5265,
      "Ġressemb": 5266,
      "Ġabsolument": 5267,
      "Ġabsolutely": 5268,
      "Ġdoivent": 5269,
      "Ġhiding": 5270,
      "Ġoccupes": 5271,
      "Ġcombat": 5272,
      "underst": 5273,
      "Ġvegetables": 5274,
      "Ġpizza": 5275,
      "fs": 5276,
      "ires": 5277,
      "line": 5278,
      "old": 5279,
      "sortez": 5280,
      "Ġdote": 5281,
      "Ġwoke": 5282,
      "Ġbare": 5283,
      "Ġvase": 5284,
      "etage": 5285,
      "usion": 5286,
      "Ġunique": 5287,
      "Ġunless": 5288,
      "rimer": 5289,
      "Ġchick": 5290,
      "Ġligne": 5291,
      "ications": 5292,
      "Ġcanape": 5293,
      "Ġmys": 5294,
      "aman": 5295,
      "amis": 5296,
      "Ġmap": 5297,
      "Ġalbum": 5298,
      "Ġarbres": 5299,
      "Ġprevent": 5300,
      "iger": 5301,
      "aped": 5302,
      "Ġpartis": 5303,
      "Ġappel": 5304,
      "Ġlettres": 5305,
      "venus": 5306,
      "Ġjambe": 5307,
      "Ġlocked": 5308,
      "Ġpresence": 5309,
      "Ġcommis": 5310,
      "Ġsmarter": 5311,
      "Ġmoon": 5312,
      "Ġpale": 5313,
      "Ġpause": 5314,
      "Ġcesse": 5315,
      "Ġessaya": 5316,
      "Ġeffe": 5317,
      "Ġdebarrasser": 5318,
      "Ġrealized": 5319,
      "Ġsalaire": 5320,
      "Ġrendit": 5321,
      "Ġexpecting": 5322,
      "habitu": 5323,
      "Ġcookies": 5324,
      "Ġlights": 5325,
      "Ġexamen": 5326,
      "Ġdefin": 5327,
      "Ġsongs": 5328,
      "Ġbike": 5329,
      "Ġautorise": 5330,
      "Ġaccepte": 5331,
      "Ġdisparu": 5332,
      "Ġholiday": 5333,
      "information": 5334,
      "Ġsilencieux": 5335,
      "Ġschedule": 5336,
      "Ġexplanation": 5337,
      "feu": 5338,
      "jam": 5339,
      "no": 5340,
      "Ġpack": 5341,
      "oncer": 5342,
      "Ġcelles": 5343,
      "quet": 5344,
      "Ġbrie": 5345,
      "Ġvint": 5346,
      "Ġvitesse": 5347,
      "jeune": 5348,
      "itut": 5349,
      "rog": 5350,
      "ieves": 5351,
      "Ġtech": 5352,
      "Ġtext": 5353,
      "mpe": 5354,
      "endie": 5355,
      "Ġcaused": 5356,
      "adm": 5357,
      "Ġsombre": 5358,
      "Ġmaries": 5359,
      "Ġconge": 5360,
      "Ġabove": 5361,
      "Ġappoint": 5362,
      "Ġgoodby": 5363,
      "Ġrepos": 5364,
      "Ġwhenever": 5365,
      "Ġbrise": 5366,
      "Ġador": 5367,
      "Ġpresse": 5368,
      "Ġprices": 5369,
      "Ġposition": 5370,
      "Ġmode": 5371,
      "Ġvues": 5372,
      "attention": 5373,
      "Ġchamp": 5374,
      "Ġveuilles": 5375,
      "Ġcorde": 5376,
      "Ġbedroom": 5377,
      "Ġincap": 5378,
      "Ġmatters": 5379,
      "Ġsincere": 5380,
      "Ġfilms": 5381,
      "Ġoblig": 5382,
      "Ġeducation": 5383,
      "Ġdifficultes": 5384,
      "Ġcurious": 5385,
      "Ġreserv": 5386,
      "Ġexercise": 5387,
      "Ġcartes": 5388,
      "Ġcirculation": 5389,
      "jou": 5390,
      "ker": 5391,
      "pendant": 5392,
      "pouvons": 5393,
      "sans": 5394,
      "Ġtill": 5395,
      "Ġsqu": 5396,
      "isez": 5397,
      "Ġhob": 5398,
      "orde": 5399,
      "ita": 5400,
      "eless": 5401,
      "Ġheat": 5402,
      "Ġore": 5403,
      "Ġlecture": 5404,
      "Ġlady": 5405,
      "Ġeveille": 5406,
      "Ġhall": 5407,
      "Ġetat": 5408,
      "ney": 5409,
      "Ġtrac": 5410,
      "Ġplaces": 5411,
      "Ġpars": 5412,
      "icule": 5413,
      "cious": 5414,
      "allais": 5415,
      "ulte": 5416,
      "Ġpeinture": 5417,
      "aband": 5418,
      "Ġspect": 5419,
      "Ġexpliquer": 5420,
      "Ġdrug": 5421,
      "Ġview": 5422,
      "Ġspeaker": 5423,
      "Ġpretended": 5424,
      "Ġderniers": 5425,
      "cesse": 5426,
      "Ġdisputer": 5427,
      "exer": 5428,
      "Ġcroy": 5429,
      "Ġdropped": 5430,
      "Ġaccidents": 5431,
      "Ġeffort": 5432,
      "querir": 5433,
      "Ġsalt": 5434,
      "Ġcomplete": 5435,
      "Ġsauver": 5436,
      "Ġdonnerai": 5437,
      "Ġprendra": 5438,
      "Ġgeneral": 5439,
      "Ġmurder": 5440,
      "Ġfright": 5441,
      "Ġconcerned": 5442,
      "Ġattractive": 5443,
      "Ġharm": 5444,
      "importance": 5445,
      "Ġmajor": 5446,
      "Ġspoken": 5447,
      "Ġexhausted": 5448,
      "do": 5449,
      "lac": 5450,
      "nic": 5451,
      "xim": 5452,
      "Ġtandis": 5453,
      "Ġailles": 5454,
      "Ġdam": 5455,
      "hered": 5456,
      "Ġmic": 5457,
      "Ġnulle": 5458,
      "Ġtoward": 5459,
      "lequel": 5460,
      "arme": 5461,
      "orge": 5462,
      "Ġthreat": 5463,
      "Ġhero": 5464,
      "Ġremon": 5465,
      "Ġlay": 5466,
      "rop": 5467,
      "Ġenne": 5468,
      "Ġparait": 5469,
      "Ġpoursui": 5470,
      "Ġaud": 5471,
      "Ġautom": 5472,
      "Ġnoticed": 5473,
      "Ġroi": 5474,
      "Ġdesire": 5475,
      "Ġproc": 5476,
      "cice": 5477,
      "Ġshar": 5478,
      "Ġnoy": 5479,
      "anged": 5480,
      "Ġpecher": 5481,
      "sert": 5482,
      "Ġrope": 5483,
      "issait": 5484,
      "Ġaccuse": 5485,
      "ieved": 5486,
      "Ġrecord": 5487,
      "Ġauthor": 5488,
      "Ġconnaissez": 5489,
      "Ġpoe": 5490,
      "Ġdrown": 5491,
      "Ġmorts": 5492,
      "Ġmisunderst": 5493,
      "Ġcapital": 5494,
      "Ġletters": 5495,
      "Ġemploye": 5496,
      "Ġpermettre": 5497,
      "Ġtrusted": 5498,
      "Ġannoy": 5499,
      "Ġcash": 5500,
      "Ġchanges": 5501,
      "Ġconfectionne": 5502,
      "Ġcritique": 5503,
      "Ġneighbors": 5504,
      "Ġpurpose": 5505,
      "Ġinquiet": 5506,
      "Ġjudge": 5507,
      "Ġinternet": 5508,
      "Ġcrayon": 5509,
      "Ġgentleman": 5510,
      "cue": 5511,
      "gre": 5512,
      "gner": 5513,
      "ji": 5514,
      "mother": 5515,
      "oci": 5516,
      "pro": 5517,
      "vant": 5518,
      "Ġtiens": 5519,
      "Ġpant": 5520,
      "Ġpare": 5521,
      "Ġwise": 5522,
      "Ġnuts": 5523,
      "Ġfiere": 5524,
      "Ġfasses": 5525,
      "asun": 5526,
      "Ġbisc": 5527,
      "arm": 5528,
      "Ġquot": 5529,
      "unt": 5530,
      "eds": 5531,
      "Ġmecs": 5532,
      "Ġetasun": 5533,
      "Ġchances": 5534,
      "Ġliqu": 5535,
      "chois": 5536,
      "Ġforced": 5537,
      "icier": 5538,
      "osition": 5539,
      "rend": 5540,
      "Ġstone": 5541,
      "Ġaveug": 5542,
      "Ġpencil": 5543,
      "Ġriches": 5544,
      "Ġveritable": 5545,
      "lage": 5546,
      "Ġserons": 5547,
      "Ġtoucher": 5548,
      "Ġentered": 5549,
      "Ġroses": 5550,
      "Ġsports": 5551,
      "Ġmath": 5552,
      "Ġmalheure": 5553,
      "Ġsupplement": 5554,
      "Ġdepense": 5555,
      "Ġsoul": 5556,
      "Ġbelieved": 5557,
      "Ġoper": 5558,
      "Ġraise": 5559,
      "Ġboit": 5560,
      "Ġpoem": 5561,
      "Ġ100": 5562,
      "Ġassister": 5563,
      "Ġexplique": 5564,
      "Ġsatur": 5565,
      "Ġtraverse": 5566,
      "Ġincre": 5567,
      "Ġsinger": 5568,
      "Ġdirais": 5569,
      "Ġdirty": 5570,
      "faisons": 5571,
      "Ġemm": 5572,
      "Ġforever": 5573,
      "Ġidiote": 5574,
      "Ġtremble": 5575,
      "Ġdisposons": 5576,
      "Ġattemp": 5577,
      "Ġobligee": 5578,
      "Ġaccepter": 5579,
      "Ġsandw": 5580,
      "Ġmeurtre": 5581,
      "Ġlosing": 5582,
      "Ġgoodbye": 5583,
      "ode": 5584,
      "pa": 5585,
      "sors": 5586,
      "Ġsamed": 5587,
      "Ġpush": 5588,
      "Ġcout": 5589,
      "Ġcoun": 5590,
      "Ġwal": 5591,
      "quette": 5592,
      "ilites": 5593,
      "Ġmech": 5594,
      "Ġuns": 5595,
      "Ġearn": 5596,
      "Ġsures": 5597,
      "Ġnotes": 5598,
      "Ġavai": 5599,
      "Ġmanaged": 5600,
      "ellerai": 5601,
      "Ġtirer": 5602,
      "Ġpratique": 5603,
      "Ġdevint": 5604,
      "Ġsaf": 5605,
      "Ġserve": 5606,
      "Ġattitude": 5607,
      "Ġcovered": 5608,
      "assurer": 5609,
      "Ġpensent": 5610,
      "Ġretraite": 5611,
      "Ġacqu": 5612,
      "Ġfume": 5613,
      "Ġcouru": 5614,
      "Ġpolite": 5615,
      "Ġexplication": 5616,
      "Ġrealite": 5617,
      "Ġadvantage": 5618,
      "Ġdevenue": 5619,
      "Ġcountries": 5620,
      "Ġtourner": 5621,
      "Ġgentille": 5622,
      "Ġfeuilles": 5623,
      "Ġresponsabilite": 5624,
      "Ġdecida": 5625,
      "Ġwindows": 5626,
      "Ġlegs": 5627,
      "Ġsweater": 5628,
      "Ġchoisi": 5629,
      "Ġimpressionne": 5630,
      "Ġtraveling": 5631,
      "Ġrecommande": 5632,
      "Ġinteressee": 5633,
      "Ġchocolat": 5634,
      "montrez": 5635,
      "Ġnavire": 5636,
      "Ġdingue": 5637,
      "Ġattentivement": 5638,
      "Ġcostume": 5639,
      "Ġsaturday": 5640,
      "ere": 5641,
      "fin": 5642,
      "ouille": 5643,
      "Ġavert": 5644,
      "Ġpul": 5645,
      "Ġprive": 5646,
      "Ġpsy": 5647,
      "Ġcream": 5648,
      "Ġmood": 5649,
      "Ġnine": 5650,
      "Ġyes": 5651,
      "Ġfa": 5652,
      "Ġhes": 5653,
      "Ġmec": 5654,
      "Ġlab": 5655,
      "Ġiss": 5656,
      "Ġetage": 5657,
      "ieuse": 5658,
      "Ġbear": 5659,
      "Ġweap": 5660,
      "Ġanx": 5661,
      "Ġchess": 5662,
      "Ġchoque": 5663,
      "Ġlies": 5664,
      "Ġforces": 5665,
      "tery": 5666,
      "Ġaurez": 5667,
      "avance": 5668,
      "avenir": 5669,
      "Ġalla": 5670,
      "ader": 5671,
      "Ġprove": 5672,
      "Ġdiet": 5673,
      "Ġdistur": 5674,
      "Ġsach": 5675,
      "Ġmaisons": 5676,
      "aking": 5677,
      "Ġlocal": 5678,
      "Ġcarried": 5679,
      "Ġbetray": 5680,
      "aimeriez": 5681,
      "Ġmoque": 5682,
      "Ġgrandmother": 5683,
      "Ġlots": 5684,
      "Ġsentis": 5685,
      "Ġthemselves": 5686,
      "Åĵurs": 5687,
      "Ġdetr": 5688,
      "Ġunderstood": 5689,
      "Ġconfused": 5690,
      "lik": 5691,
      "Ġassistance": 5692,
      "Ġabsence": 5693,
      "Ġnatural": 5694,
      "Ġvoisins": 5695,
      "Ġmenteur": 5696,
      "Ġprendrai": 5697,
      "Ġbicyclette": 5698,
      "Ġsembles": 5699,
      "Ġsuggestion": 5700,
      "Ġclimb": 5701,
      "Ġfighting": 5702,
      "Ġdommage": 5703,
      "Ġcanada": 5704,
      "anniversaire": 5705,
      "Ġargument": 5706,
      "Ġcomportement": 5707,
      "Ġembarrassed": 5708,
      "Ġcousin": 5709,
      "Ġamazing": 5710,
      "accepter": 5711,
      "Ġlycee": 5712,
      "Ġresponsibility": 5713,
      "Ġdanse": 5714,
      "Ġwallet": 5715,
      "aree": 5716,
      "dle": 5717,
      "nique": 5718,
      "naie": 5719,
      "pu": 5720,
      "reur": 5721,
      "Ġpal": 5722,
      "Ġpoin": 5723,
      "Ġpaie": 5724,
      "Ġpisc": 5725,
      "Ġcouver": 5726,
      "Ġyell": 5727,
      "Ġfal": 5728,
      "Ġfill": 5729,
      "Ġbul": 5730,
      "Ġvar": 5731,
      "Ġneither": 5732,
      "Ġbecom": 5733,
      "acite": 5734,
      "Ġauras": 5735,
      "endroit": 5736,
      "Ġmonter": 5737,
      "Ġmarket": 5738,
      "Ġconte": 5739,
      "Ġmanu": 5740,
      "Ġsurvenu": 5741,
      "Ġprise": 5742,
      "Ġdishes": 5743,
      "Ġpartage": 5744,
      "ouvrez": 5745,
      "apper": 5746,
      "Ġcheer": 5747,
      "Ġclou": 5748,
      "Ġesper": 5749,
      "Ġrepres": 5750,
      "Ġbrill": 5751,
      "ecris": 5752,
      "istic": 5753,
      "Ġrole": 5754,
      "Ġregul": 5755,
      "Ġmatinee": 5756,
      "Ġexpress": 5757,
      "Ġpensait": 5758,
      "Ġprior": 5759,
      "Ġdepressed": 5760,
      "Ġguest": 5761,
      "Ġengage": 5762,
      "Ġexcite": 5763,
      "Ġhearing": 5764,
      "azz": 5765,
      "Ġmauvaises": 5766,
      "Ġmeilleurs": 5767,
      "Ġskier": 5768,
      "Ġdifferentes": 5769,
      "Ġforgotten": 5770,
      "Ġboisson": 5771,
      "Ġvoleur": 5772,
      "Ġpunctu": 5773,
      "Ġclearly": 5774,
      "Ġindust": 5775,
      "Ġpossibility": 5776,
      "Ġpousser": 5777,
      "Ġcampagne": 5778,
      "Ġconcern": 5779,
      "Ġdenied": 5780,
      "Ġchocolate": 5781,
      "gency": 5782,
      "Ġaccording": 5783,
      "Ġoiseaux": 5784,
      "Ġescaped": 5785,
      "Ġfolle": 5786,
      "Ġcooper": 5787,
      "Ġtastes": 5788,
      "Ġponctu": 5789,
      "Ġappointment": 5790,
      "Ġhobby": 5791,
      "Ġavailable": 5792,
      "eh": 5793,
      "haps": 5794,
      "rite": 5795,
      "Ġmi": 5796,
      "Ġmons": 5797,
      "Ġwet": 5798,
      "Ġfab": 5799,
      "Ġfache": 5800,
      "ato": 5801,
      "itot": 5802,
      "Ġnee": 5803,
      "Ġrese": 5804,
      "Ġjeter": 5805,
      "Ġenvers": 5806,
      "Ġweak": 5807,
      "Ġchanc": 5808,
      "depuis": 5809,
      "Ġparlent": 5810,
      "Ġjeux": 5811,
      "Ġshy": 5812,
      "Ġmanage": 5813,
      "Ġriz": 5814,
      "Ġrice": 5815,
      "compl": 5816,
      "apped": 5817,
      "apporte": 5818,
      "redi": 5819,
      "Ġperhaps": 5820,
      "Ġprize": 5821,
      "Ġretr": 5822,
      "ordinaire": 5823,
      "Ġlaissa": 5824,
      "Ġoldest": 5825,
      "Ġproper": 5826,
      "phone": 5827,
      "Ġstarting": 5828,
      "Ġended": 5829,
      "Ġaffe": 5830,
      "Ġconcentr": 5831,
      "Ġteachers": 5832,
      "Ġpoliceman": 5833,
      "Ġincl": 5834,
      "heureusement": 5835,
      "Ġpreferee": 5836,
      "Ġblesser": 5837,
      "Ġchauff": 5838,
      "Ġportable": 5839,
      "connaissez": 5840,
      "Ġsuivi": 5841,
      "Ġcinqu": 5842,
      "Ġpoison": 5843,
      "Ġresultats": 5844,
      "Ġbright": 5845,
      "oublier": 5846,
      "Ġcards": 5847,
      "Ġharv": 5848,
      "Ġmignonne": 5849,
      "Ġpardonner": 5850,
      "Ġmerveilleux": 5851,
      "Ġcrowd": 5852,
      "Ġillegal": 5853,
      "feuille": 5854,
      "Ġincapable": 5855,
      "Ġsamedi": 5856,
      "Ġpiscine": 5857,
      "bable": 5858,
      "go": 5859,
      "honn": 5860,
      "oila": 5861,
      "rain": 5862,
      "zen": 5863,
      "Ġtit": 5864,
      "Ġdying": 5865,
      "ĠsÅĵurs": 5866,
      "Ġpaire": 5867,
      "Ġpool": 5868,
      "Ġbell": 5869,
      "Ġbatt": 5870,
      "Ġbene": 5871,
      "Ġvive": 5872,
      "Ġhous": 5873,
      "Ġhire": 5874,
      "arante": 5875,
      "Ġquart": 5876,
      "Ġgames": 5877,
      "Ġears": 5878,
      "Ġinse": 5879,
      "Ġjazz": 5880,
      "aurait": 5881,
      "Ġparvenir": 5882,
      "ainted": 5883,
      "Ġcapt": 5884,
      "adresse": 5885,
      "Ġproced": 5886,
      "Ġexcept": 5887,
      "Ġsize": 5888,
      "raine": 5889,
      "Ġdevais": 5890,
      "Ġdevait": 5891,
      "Ġdevient": 5892,
      "Ġdisag": 5893,
      "Ġsaches": 5894,
      "oya": 5895,
      "Ġsert": 5896,
      "Ġeverywhere": 5897,
      "astique": 5898,
      "Ġspends": 5899,
      "Ġgrandi": 5900,
      "Ġsoulage": 5901,
      "Ġtenait": 5902,
      "Ġsentez": 5903,
      "Ġportefeuille": 5904,
      "Ġdispon": 5905,
      "expl": 5906,
      "ussitot": 5907,
      "Ġdrogue": 5908,
      "Ġanswers": 5909,
      "Ġaimez": 5910,
      "Ġoccupees": 5911,
      "Ġarriv": 5912,
      "Ġtrah": 5913,
      "Ġincred": 5914,
      "Ġappear": 5915,
      "Ġgentilles": 5916,
      "Ġfaudra": 5917,
      "Ġutilise": 5918,
      "Ġrome": 5919,
      "Ġhighly": 5920,
      "appelez": 5921,
      "Ġresults": 5922,
      "Ġbasket": 5923,
      "etudie": 5924,
      "Ġhiver": 5925,
      "Ġconsidere": 5926,
      "Ġstyle": 5927,
      "Ġcritic": 5928,
      "Ġsemblant": 5929,
      "Ġskiing": 5930,
      "Ġcercle": 5931,
      "Ġoiseau": 5932,
      "Ġjackson": 5933,
      "Ġdiplom": 5934,
      "Ġcigarette": 5935,
      "Ġennuyeux": 5936,
      "Ġpierre": 5937,
      "Ġprotest": 5938,
      "itutrice": 5939,
      "Ġquotid": 5940,
      "Ġpsych": 5941,
      "iant": 5942,
      "ls": 5943,
      "mal": 5944,
      "ners": 5945,
      "rat": 5946,
      "ram": 5947,
      "uction": 5948,
      "Ġtache": 5949,
      "Ġmaig": 5950,
      "Ġnag": 5951,
      "Ġfaill": 5952,
      "Ġveste": 5953,
      "entree": 5954,
      "elves": 5955,
      "Ġrequi": 5956,
      "Ġresign": 5957,
      "Ġunh": 5958,
      "Ġeau": 5959,
      "Ġisland": 5960,
      "Ġenvis": 5961,
      "ided": 5962,
      "ices": 5963,
      "Ġalliez": 5964,
      "Ġdesert": 5965,
      "Ġsommet": 5966,
      "Ġwithin": 5967,
      "Ġexemp": 5968,
      "Ġexamp": 5969,
      "sier": 5970,
      "Ġpleur": 5971,
      "Ġhappiness": 5972,
      "Ġjambes": 5973,
      "Ġrepeter": 5974,
      "Ġbrit": 5975,
      "Ġvire": 5976,
      "Ġoffre": 5977,
      "Ġderoule": 5978,
      "Ġcommand": 5979,
      "Ġvenez": 5980,
      "ancer": 5981,
      "Ġbonheur": 5982,
      "Ġretirer": 5983,
      "Ġconscient": 5984,
      "Ġmayor": 5985,
      "Ġengine": 5986,
      "Ġpoche": 5987,
      "Ġeleph": 5988,
      "Ġcoule": 5989,
      "Ġvivant": 5990,
      "Ġpersonnel": 5991,
      "Ġvoisin": 5992,
      "Ġimaginer": 5993,
      "Ġcomplique": 5994,
      "Ġexamination": 5995,
      "Ġmiles": 5996,
      "Ġrejoin": 5997,
      "Ġarrivera": 5998,
      "champ": 5999,
      "Ġadmire": 6000,
      "Ġsoldats": 6001,
      "Ġsoldiers": 6002,
      "Ġseldom": 6003,
      "Ġdescend": 6004,
      "Ġamoureuse": 6005,
      "Ġatteint": 6006,
      "Ġprojets": 6007,
      "Ġdisease": 6008,
      "Ġmignon": 6009,
      "Ġimprobable": 6010,
      "Ġmiracle": 6011,
      "Ġculture": 6012,
      "Ġdiplome": 6013,
      "Ġintroduced": 6014,
      "Ġourselves": 6015,
      "Ġsimilar": 6016,
      "Ġsiege": 6017,
      "Ġprofondement": 6018,
      "Ġdoigt": 6019,
      "Ġdocument": 6020,
      "Ġearthquake": 6021,
      "Ġemergency": 6022,
      "Ġsharp": 6023,
      "Ġpunctual": 6024,
      "eus": 6025,
      "mange": 6026,
      "obl": 6027,
      "passe": 6028,
      "sh": 6029,
      "urent": 6030,
      "Ġtien": 6031,
      "Ġdry": 6032,
      "Ġpoupe": 6033,
      "Ġcacher": 6034,
      "Ġcentre": 6035,
      "Ġnames": 6036,
      "ana": 6037,
      "Ġfurn": 6038,
      "Ġbud": 6039,
      "Ġhates": 6040,
      "Ġgars": 6041,
      "Ġgorge": 6042,
      "eday": 6043,
      "Ġmeals": 6044,
      "anted": 6045,
      "ayed": 6046,
      "ional": 6047,
      "aule": 6048,
      "Ġchic": 6049,
      "Ġchacun": 6050,
      "Ġsepar": 6051,
      "Ġtru": 6052,
      "Ġplante": 6053,
      "amuser": 6054,
      "Ġdeser": 6055,
      "Ġsomeday": 6056,
      "Ġexige": 6057,
      "Ġanyway": 6058,
      "Ġpreuve": 6059,
      "Ġprouver": 6060,
      "Ġdisg": 6061,
      "Ġdisting": 6062,
      "Ġsaou": 6063,
      "Ġsonne": 6064,
      "Ġupstairs": 6065,
      "Ġcheap": 6066,
      "Ġshoulder": 6067,
      "rivez": 6068,
      "Ġescal": 6069,
      "Ġbrush": 6070,
      "econom": 6071,
      "Ġoffended": 6072,
      "Ġspell": 6073,
      "Ġregime": 6074,
      "Ġsuppl": 6075,
      "Ġmoving": 6076,
      "Ġmett": 6077,
      "Ġpaying": 6078,
      "Ġremained": 6079,
      "Ġinterest": 6080,
      "Ġdifferente": 6081,
      "Ġprofond": 6082,
      "Ġanswered": 6083,
      "Ġuseful": 6084,
      "Ġruns": 6085,
      "Ġsales": 6086,
      "Ġrendue": 6087,
      "habite": 6088,
      "Ġcuisin": 6089,
      "Ġrelations": 6090,
      "Ġcontroler": 6091,
      "Ġcoinc": 6092,
      "Ġrencontree": 6093,
      "Ġviolence": 6094,
      "posez": 6095,
      "hiver": 6096,
      "Ġeffraye": 6097,
      "Ġsystem": 6098,
      "Ġtaste": 6099,
      "Ġmembers": 6100,
      "Ġdancing": 6101,
      "Ġfassiez": 6102,
      "Ġfinger": 6103,
      "Ġorigin": 6104,
      "Ġchicken": 6105,
      "exercice": 6106,
      "Ġaveugle": 6107,
      "siere": 6108,
      "sommes": 6109,
      "ude": 6110,
      "voila": 6111,
      "Ġ9": 6112,
      "Ġtienne": 6113,
      "Ġcla": 6114,
      "Ġcast": 6115,
      "Ġciv": 6116,
      "Ġtoit": 6117,
      "Ġdejeune": 6118,
      "etiez": 6119,
      "Ġthin": 6120,
      "Ġthief": 6121,
      "Ġthrew": 6122,
      "Ġgro": 6123,
      "Ġgos": 6124,
      "memes": 6125,
      "Ġjo": 6126,
      "ressive": 6127,
      "Ġparie": 6128,
      "onses": 6129,
      "Ġrab": 6130,
      "ami": 6131,
      "Ġsof": 6132,
      "Ġmondi": 6133,
      "Ġdiz": 6134,
      "Ġmarre": 6135,
      "Ġsurpren": 6136,
      "agers": 6137,
      "esses": 6138,
      "Ġreserve": 6139,
      "Ġdiss": 6140,
      "Ġpeindre": 6141,
      "Ġvraie": 6142,
      "Ġclot": 6143,
      "Ġcloser": 6144,
      "Ġtells": 6145,
      "Ġreply": 6146,
      "Ġrepare": 6147,
      "Ġreponses": 6148,
      "epouser": 6149,
      "Ġrock": 6150,
      "Ġbutter": 6151,
      "Ġmatins": 6152,
      "Ġveniez": 6153,
      "obile": 6154,
      "Ġpropose": 6155,
      "Ġpolicier": 6156,
      "attrape": 6157,
      "Ġveuille": 6158,
      "Ġconnaisse": 6159,
      "Ġallees": 6160,
      "Ġallemand": 6161,
      "ician": 6162,
      "Ġvoyez": 6163,
      "Ġstranger": 6164,
      "Ġconvient": 6165,
      "Ġsecrets": 6166,
      "Ġblesses": 6167,
      "Ġrestee": 6168,
      "Ġamerique": 6169,
      "Ġpicnic": 6170,
      "Ġsisters": 6171,
      "Ġcops": 6172,
      "Ġtyph": 6173,
      "Ġcelib": 6174,
      "Ġegard": 6175,
      "Ġetranger": 6176,
      "ibles": 6177,
      "Ġaccepted": 6178,
      "rouiller": 6179,
      "Ġcosts": 6180,
      "Ġbleu": 6181,
      "Ġtimide": 6182,
      "Ġtimbres": 6183,
      "Ġgives": 6184,
      "Ġtraiter": 6185,
      "Ġreconnu": 6186,
      "Ġprogramme": 6187,
      "Ġtranslate": 6188,
      "Ġchanceux": 6189,
      "Ġunhapp": 6190,
      "Ġcelibat": 6191,
      "coh": 6192,
      "fle": 6193,
      "lache": 6194,
      "nos": 6195,
      "orent": 6196,
      "Ġ$": 6197,
      "Ġlent": 6198,
      "Ġlaid": 6199,
      "inze": 6200,
      "Ġtooth": 6201,
      "isme": 6202,
      "Ġbite": 6203,
      "Ġded": 6204,
      "Ġdeli": 6205,
      "Ġhill": 6206,
      "unately": 6207,
      "Ġgue": 6208,
      "Ġhey": 6209,
      "Ġunlik": 6210,
      "oigne": 6211,
      "alcool": 6212,
      "Ġplantes": 6213,
      "acted": 6214,
      "Ġaliments": 6215,
      "ulaire": 6216,
      "Ġdistr": 6217,
      "Ġdisappe": 6218,
      "Ġusual": 6219,
      "Ġadoles": 6220,
      "Ġperform": 6221,
      "assit": 6222,
      "Ġpouviez": 6223,
      "Ġlovely": 6224,
      "Ġcareless": 6225,
      "Ġchildhood": 6226,
      "Ġrefaire": 6227,
      "Ġdiscute": 6228,
      "Ġremis": 6229,
      "Ġconfident": 6230,
      "Ġraisons": 6231,
      "parlez": 6232,
      "Ġpoll": 6233,
      "Ġcalcul": 6234,
      "Ġpoints": 6235,
      "Ġassure": 6236,
      "Ġeleg": 6237,
      "Ġrained": 6238,
      "Ġinsurance": 6239,
      "Ġhabille": 6240,
      "Ġeasier": 6241,
      "Ġinflu": 6242,
      "Ġcertains": 6243,
      "Ġfoods": 6244,
      "Ġcopy": 6245,
      "Ġcollection": 6246,
      "Ġemail": 6247,
      "Ġtrouves": 6248,
      "Ġconnaissait": 6249,
      "Ġself": 6250,
      "Ġabandonner": 6251,
      "Ġfascin": 6252,
      "Ġpleasure": 6253,
      "Ġteaching": 6254,
      "Ġreconnaissante": 6255,
      "Ġfoolish": 6256,
      "Ġdentist": 6257,
      "Ġdentiste": 6258,
      "Ġpostp": 6259,
      "Ġconstruit": 6260,
      "Ġlimite": 6261,
      "Ġleader": 6262,
      "Ġburned": 6263,
      "Ġcomprenez": 6264,
      "Ġstrict": 6265,
      "Ġresolu": 6266,
      "Ġmaster": 6267,
      "Ġclairement": 6268,
      "Ġoublier": 6269,
      "Ġdemarrer": 6270,
      "jamais": 6271,
      "Ġbiscuits": 6272,
      "cohol": 6273,
      "Ġunlikely": 6274,
      "cles": 6275,
      "cens": 6276,
      "magne": 6277,
      "ym": 6278,
      "Ġug": 6279,
      "Ġtir": 6280,
      "Ġaj": 6281,
      "esome": 6282,
      "endez": 6283,
      "Ġloss": 6284,
      "Ġcaisse": 6285,
      "Ġnaked": 6286,
      "Ġyens": 6287,
      "inf": 6288,
      "ases": 6289,
      "Ġviennent": 6290,
      "Ġdech": 6291,
      "vere": 6292,
      "omas": 6293,
      "ung": 6294,
      "oti": 6295,
      "llo": 6296,
      "Ġchand": 6297,
      "accomp": 6298,
      "Ġsta": 6299,
      "Ġdiary": 6300,
      "Ġmarri": 6301,
      "indiquer": 6302,
      "Ġappartient": 6303,
      "venues": 6304,
      "enser": 6305,
      "Ġroof": 6306,
      "assa": 6307,
      "Ġdrag": 6308,
      "ignit": 6309,
      "Ġcourrier": 6310,
      "Ġsortit": 6311,
      "Ġhurried": 6312,
      "Ġremain": 6313,
      "perer": 6314,
      "Ġresta": 6315,
      "Ġ16": 6316,
      "Ġbouge": 6317,
      "Ġpassport": 6318,
      "Ġfilled": 6319,
      "Ġcouche": 6320,
      "gged": 6321,
      "Ġacted": 6322,
      "Ġamericans": 6323,
      "Ġcopain": 6324,
      "Ġairpl": 6325,
      "Ġmilieu": 6326,
      "Ġdrives": 6327,
      "Ġdisposer": 6328,
      "Ġapprop": 6329,
      "instituteur": 6330,
      "Ġpunished": 6331,
      "Ġetrangere": 6332,
      "Ġabandoned": 6333,
      "Ġfash": 6334,
      "Ġhired": 6335,
      "Ġdestin": 6336,
      "Ġdestination": 6337,
      "Ġdestroy": 6338,
      "Ġpossibilite": 6339,
      "Ġsympath": 6340,
      "Ġtalented": 6341,
      "Ġperdit": 6342,
      "Ġambit": 6343,
      "embrasser": 6344,
      "Ġsouper": 6345,
      "Ġrumeur": 6346,
      "Ġtoilettes": 6347,
      "Ġwebs": 6348,
      "Ġsysteme": 6349,
      "Ġmembres": 6350,
      "imagine": 6351,
      "Ġechecs": 6352,
      "inquiete": 6353,
      "Ġident": 6354,
      "Ġhouses": 6355,
      "Ġfurniture": 6356,
      "Ġguere": 6357,
      "egl": 6358,
      "gar": 6359,
      "gnez": 6360,
      "ks": 6361,
      "toute": 6362,
      "Ġdy": 6363,
      "Ġsli": 6364,
      "Ġpil": 6365,
      "ones": 6366,
      "Ġcrai": 6367,
      "Ġbelles": 6368,
      "Ġbete": 6369,
      "omach": 6370,
      "Ġgh": 6371,
      "Ġgal": 6372,
      "Ġremer": 6373,
      "tered": 6374,
      "Ġow": 6375,
      "Ġoil": 6376,
      "cean": 6377,
      "Ġenorme": 6378,
      "very": 6379,
      "chons": 6380,
      "chacun": 6381,
      "Ġtruck": 6382,
      "Ġcere": 6383,
      "rences": 6384,
      "Ġstat": 6385,
      "Ġstomach": 6386,
      "Ġsocial": 6387,
      "ades": 6388,
      "Ġamour": 6389,
      "Ġameliore": 6390,
      "Ġability": 6391,
      "Ġsurp": 6392,
      "Ġpreoccupe": 6393,
      "ulance": 6394,
      "Ġdisait": 6395,
      "Ġrende": 6396,
      "Ġusing": 6397,
      "Ġdemi": 6398,
      "Ġtough": 6399,
      "Ġworkers": 6400,
      "icked": 6401,
      "gnes": 6402,
      "Ġpasseport": 6403,
      "Ġaccompl": 6404,
      "Ġpropri": 6405,
      "Ġflics": 6406,
      "Ġveuillez": 6407,
      "Ġdispute": 6408,
      "Ġdiscut": 6409,
      "Ġ18": 6410,
      "Ġpetits": 6411,
      "Ġrevol": 6412,
      "Ġrub": 6413,
      "Ġinterrupt": 6414,
      "Ġsuffit": 6415,
      "Ġvoie": 6416,
      "Ġwriter": 6417,
      "Ġprudents": 6418,
      "Ġsteak": 6419,
      "Ġgreet": 6420,
      "Ġpoissons": 6421,
      "Ġexperien": 6422,
      "Ġfermee": 6423,
      "Ġsouhaiterais": 6424,
      "Ġcelebr": 6425,
      "Ġmemor": 6426,
      "Ġdetermin": 6427,
      "Ġraconte": 6428,
      "Ġarguing": 6429,
      "espoir": 6430,
      "Ġjacket": 6431,
      "Ġmathematiques": 6432,
      "Ġmiddle": 6433,
      "Ġpractice": 6434,
      "Ġoccurred": 6435,
      "Ġrepresent": 6436,
      "Ġquotidienne": 6437,
      "Ġexample": 6438,
      "oblige": 6439,
      "Ġsofa": 6440,
      "Ġunhappy": 6441,
      "Ġstamps": 6442,
      "eglise": 6443,
      "cter": 6444,
      "gage": 6445,
      "light": 6446,
      "Ġtelles": 6447,
      "Ġsin": 6448,
      "Ġsage": 6449,
      "Ġsaint": 6450,
      "Ġiron": 6451,
      "onte": 6452,
      "Ġmidi": 6453,
      "Ġnar": 6454,
      "Ġnur": 6455,
      "anches": 6456,
      "quence": 6457,
      "Ġfous": 6458,
      "Ġben": 6459,
      "Ġthro": 6460,
      "Ġgaz": 6461,
      "Ġrely": 6462,
      "Ġunf": 6463,
      "resp": 6464,
      "resser": 6465,
      "auriez": 6466,
      "Ġlif": 6467,
      "pper": 6468,
      "Ġwashed": 6469,
      "acy": 6470,
      "acte": 6471,
      "Ġrace": 6472,
      "Ġracc": 6473,
      "Ġmars": 6474,
      "Ġaltern": 6475,
      "Ġalcohol": 6476,
      "Ġamusee": 6477,
      "Ġfever": 6478,
      "sty": 6479,
      "Ġwherever": 6480,
      "Ġattir": 6481,
      "Ġattack": 6482,
      "Ġfinal": 6483,
      "Ġintend": 6484,
      "Ġferions": 6485,
      "Ġvenues": 6486,
      "Ġenfance": 6487,
      "Ġguer": 6488,
      "Ġlaisses": 6489,
      "Ġfumes": 6490,
      "Ġvoulaient": 6491,
      "Ġawesome": 6492,
      "Ġdownstairs": 6493,
      "Ġpromot": 6494,
      "Ġhurts": 6495,
      "Ġraised": 6496,
      "Ġgeni": 6497,
      "Ġchangement": 6498,
      "Ġbouger": 6499,
      "Ġassise": 6500,
      "Ġlaissee": 6501,
      "Ġinsist": 6502,
      "Ġmistaken": 6503,
      "Ġadvance": 6504,
      "Ġfaible": 6505,
      "Ġsitue": 6506,
      "Ġwinning": 6507,
      "Ġspending": 6508,
      "Ġordres": 6509,
      "Ġlaisserai": 6510,
      "Ġfenetres": 6511,
      "Ġfixed": 6512,
      "Ġcomplained": 6513,
      "Ġrecommand": 6514,
      "Ġsouffre": 6515,
      "Ġserieuse": 6516,
      "Ġstaring": 6517,
      "Ġrumor": 6518,
      "Ġsmells": 6519,
      "Ġbelongs": 6520,
      "Ġfailure": 6521,
      "Ġfairly": 6522,
      "Ġintroduce": 6523,
      "Ġparticip": 6524,
      "fermez": 6525,
      "Ġdemissionner": 6526,
      "Ġsensible": 6527,
      "jusqu": 6528,
      "Ġinstructions": 6529,
      "Ġrefusa": 6530,
      "Ġprivate": 6531,
      "Ġfonctionner": 6532,
      "excusez": 6533,
      "Ġtechn": 6534,
      "Ġreservation": 6535,
      "Ġspectacle": 6536,
      "Ġexemple": 6537,
      "Ġdizzy": 6538,
      "Ġnurse": 6539,
      "Ġaid": 6540,
      "Ġaise": 6541,
      "Ġcouter": 6542,
      "Ġcouvert": 6543,
      "Ġfro": 6544,
      "Ġvendu": 6545,
      "itaire": 6546,
      "Ġgam": 6547,
      "Ġreli": 6548,
      "eule": 6549,
      "Ġlap": 6550,
      "iee": 6551,
      "icted": 6552,
      "osion": 6553,
      "Ġauquel": 6554,
      "Ġrough": 6555,
      "Ġstren": 6556,
      "Ġstate": 6557,
      "Ġexch": 6558,
      "Ġtap": 6559,
      "ueill": 6560,
      "Ġusage": 6561,
      "Ġtouched": 6562,
      "Ġgrass": 6563,
      "Ġchere": 6564,
      "Ġrepair": 6565,
      "Ġrepris": 6566,
      "Ġcroi": 6567,
      "Ġroll": 6568,
      "abord": 6569,
      "Ġoffense": 6570,
      "Ġcode": 6571,
      "assure": 6572,
      "Ġintim": 6573,
      "Ġecout": 6574,
      "Ġconsul": 6575,
      "Ġvieilles": 6576,
      "Ġsentais": 6577,
      "Ġhanded": 6578,
      "Ġdifficiles": 6579,
      "Ġplayer": 6580,
      "Ġsortes": 6581,
      "Ġdetendre": 6582,
      "Ġsouven": 6583,
      "dix": 6584,
      "Ġimportance": 6585,
      "Ġpoches": 6586,
      "Ġ15": 6587,
      "Ġphotograph": 6588,
      "Ġrencontrees": 6589,
      "Ġresterai": 6590,
      "Ġsurprises": 6591,
      "Ġrealise": 6592,
      "Ġsalary": 6593,
      "Ġreveiller": 6594,
      "Ġvoudrait": 6595,
      "Ġcertaines": 6596,
      "Ġnourrir": 6597,
      "Ġenjoying": 6598,
      "Ġmenace": 6599,
      "Ġamericain": 6600,
      "Ġwondering": 6601,
      "Ġclassroom": 6602,
      "Ġinstituteur": 6603,
      "Ġheadache": 6604,
      "Ġprisoners": 6605,
      "Ġthird": 6606,
      "uyer": 6607,
      "Ġsurvive": 6608,
      "Ġrecemment": 6609,
      "Ġressens": 6610,
      "Ġ197": 6611,
      "Ġ50": 6612,
      "Ġenvirons": 6613,
      "Ġfacts": 6614,
      "Ġsucceeded": 6615,
      "Ġsouffle": 6616,
      "Ġpersuaded": 6617,
      "Ġinnocence": 6618,
      "Ġpuissions": 6619,
      "Ġdifficulty": 6620,
      "Ġentendue": 6621,
      "Ġaustralie": 6622,
      "Ġgermany": 6623,
      "Ġoptim": 6624,
      "Ġmodel": 6625,
      "Ġdepecher": 6626,
      "Ġrespecte": 6627,
      "Ġderangerait": 6628,
      "Ġobey": 6629,
      "Ġtomba": 6630,
      "Ġhuge": 6631,
      "Ġfievre": 6632,
      "Ġdamage": 6633,
      "Ġsandwich": 6634,
      "Ġbetrayed": 6635,
      "Ġugly": 6636,
      "Ġmarriage": 6637,
      "Ġfashion": 6638,
      "Ġghost": 6639,
      "cus": 6640,
      "ciez": 6641,
      "moin": 6642,
      "nel": 6643,
      "ox": 6644,
      "rin": 6645,
      "zz": 6646,
      "Ġdating": 6647,
      "Ġpity": 6648,
      "Ġnons": 6649,
      "Ġfence": 6650,
      "Ġfleur": 6651,
      "ashed": 6652,
      "Ġbaisse": 6653,
      "Ġdete": 6654,
      "atives": 6655,
      "itted": 6656,
      "eding": 6657,
      "Ġunable": 6658,
      "Ġlev": 6659,
      "Ġinutile": 6660,
      "Ġwhis": 6661,
      "chose": 6662,
      "Ġplac": 6663,
      "Ġtex": 6664,
      "Ġteen": 6665,
      "Ġround": 6666,
      "Ġarea": 6667,
      "aired": 6668,
      "Ġproxim": 6669,
      "Ġdiam": 6670,
      "Ġmanges": 6671,
      "Ġrig": 6672,
      "onges": 6673,
      "Ġdises": 6674,
      "Ġappelle": 6675,
      "angleterre": 6676,
      "Ġpeche": 6677,
      "ension": 6678,
      "Ġground": 6679,
      "Ġentier": 6680,
      "Ġlongs": 6681,
      "ckets": 6682,
      "abet": 6683,
      "Ġfinan": 6684,
      "Ġspace": 6685,
      "Ġspeci": 6686,
      "Ġsaviez": 6687,
      "issons": 6688,
      "Ġsupporte": 6689,
      "Ġbelieves": 6690,
      "Ġretarde": 6691,
      "Ġretired": 6692,
      "Ġaccent": 6693,
      "ordinateur": 6694,
      "Ġguide": 6695,
      "cessez": 6696,
      "Ġrefuser": 6697,
      "Ġimage": 6698,
      "Ġinvent": 6699,
      "Ġfinding": 6700,
      "Ġfriendship": 6701,
      "parle": 6702,
      "parfois": 6703,
      "Ġconcentrer": 6704,
      "Ġpocket": 6705,
      "Ġscar": 6706,
      "Ġpasses": 6707,
      "Ġkinds": 6708,
      "Ġmangez": 6709,
      "Ġmortes": 6710,
      "Ġstudies": 6711,
      "Ġdonnees": 6712,
      "Ġcharger": 6713,
      "Ġmene": 6714,
      "Ġannule": 6715,
      "Ġsoif": 6716,
      "Ġcontract": 6717,
      "Ġworrying": 6718,
      "Ġjournaux": 6719,
      "Ġdistrib": 6720,
      "Ġpapa": 6721,
      "Ġpopulaire": 6722,
      "Ġviendrai": 6723,
      "Ġsuggested": 6724,
      "interrom": 6725,
      "Ġarms": 6726,
      "enfants": 6727,
      "Ġcassee": 6728,
      "Ġpleasant": 6729,
      "Ġviolon": 6730,
      "Ġpousse": 6731,
      "Ġfriday": 6732,
      "Ġconcerne": 6733,
      "Ġborrowed": 6734,
      "Ġravie": 6735,
      "Ġpuissiez": 6736,
      "Ġdetermine": 6737,
      "Ġcontinued": 6738,
      "oppe": 6739,
      "continue": 6740,
      "Ġcompreh": 6741,
      "Ġcesser": 6742,
      "Ġcapitale": 6743,
      "Ġpareille": 6744,
      "Ġsafety": 6745,
      "Ġpulled": 6746,
      "Ġcoincidence": 6747,
      "Ġproximite": 6748,
      "crois": 6749,
      "lit": 6750,
      "non": 6751,
      "rants": 6752,
      "uff": 6753,
      "oui": 6754,
      "Ġpushed": 6755,
      "Ġivre": 6756,
      "Ġloupe": 6757,
      "Ġcents": 6758,
      "Ġmaire": 6759,
      "Ġfan": 6760,
      "inet": 6761,
      "Ġbeur": 6762,
      "Ġviennes": 6763,
      "eure": 6764,
      "Ġunfort": 6765,
      "Ġchant": 6766,
      "Ġlift": 6767,
      "elled": 6768,
      "Ġplants": 6769,
      "Ġparking": 6770,
      "mpl": 6771,
      "icer": 6772,
      "endorm": 6773,
      "imm": 6774,
      "Ġallume": 6775,
      "Ġsoft": 6776,
      "Ġmonnaie": 6777,
      "Ġknowing": 6778,
      "Ġalent": 6779,
      "Ġfroi": 6780,
      "ational": 6781,
      "Ġcompt": 6782,
      "Ġcompli": 6783,
      "Ġcompared": 6784,
      "Ġcomprom": 6785,
      "Ġpartager": 6786,
      "ateful": 6787,
      "Ġjustice": 6788,
      "Ġserved": 6789,
      "Ġgrateful": 6790,
      "ails": 6791,
      "Ġbeauty": 6792,
      "Ġreposer": 6793,
      "Ġrepaired": 6794,
      "eteindre": 6795,
      "Ġwhoever": 6796,
      "Ġdecouvrir": 6797,
      "seriez": 6798,
      "Ġoranges": 6799,
      "ober": 6800,
      "Ġdepar": 6801,
      "Ġconsom": 6802,
      "Ġnoms": 6803,
      "achete": 6804,
      "Ġflower": 6805,
      "Ġrefriger": 6806,
      "Ġremark": 6807,
      "Ġtotalement": 6808,
      "Ġcoups": 6809,
      "Ġarriva": 6810,
      "Ġarriere": 6811,
      "desc": 6812,
      "Ġcomplex": 6813,
      "Ġrendrai": 6814,
      "Ġsolved": 6815,
      "utilise": 6816,
      "utiliser": 6817,
      "Ġactions": 6818,
      "Ġsauter": 6819,
      "Ġfaite": 6820,
      "Ġfallen": 6821,
      "Ġfalling": 6822,
      "Ġappears": 6823,
      "Ġorders": 6824,
      "Ġcomplicated": 6825,
      "cule": 6826,
      "Ġcontrat": 6827,
      "Ġsemblent": 6828,
      "Ġslight": 6829,
      "Ġevident": 6830,
      "Ġevidence": 6831,
      "Ġveh": 6832,
      "Ġparcour": 6833,
      "Ġcomputers": 6834,
      "Ġsettle": 6835,
      "Ġatteindre": 6836,
      "Ġimpatiente": 6837,
      "Ġillness": 6838,
      "interesse": 6839,
      "Ġpossession": 6840,
      "Ġnegoti": 6841,
      "Ġdivorced": 6842,
      "Ġvendredi": 6843,
      "apprecierais": 6844,
      "Ġfrapper": 6845,
      "Ġerr": 6846,
      "Ġsuspicious": 6847,
      "Ġjumped": 6848,
      "Ġwoods": 6849,
      "Ġlocute": 6850,
      "urgence": 6851,
      "Ġgraduated": 6852,
      "board": 6853,
      "irmiere": 6854,
      "Ġexciting": 6855,
      "Ġjaloux": 6856,
      "Ġefficace": 6857,
      "Ġfrightened": 6858,
      "Ġremonter": 6859,
      "Ġpoeme": 6860,
      "Ġdrowned": 6861,
      "Ġoperation": 6862,
      "Ġpoupee": 6863,
      "Ġairplane": 6864,
      "arest": 6865,
      "dition": 6866,
      "mark": 6867,
      "nelle": 6868,
      "pock": 6869,
      "ouer": 6870,
      "ouill": 6871,
      "Ġdame": 6872,
      "Ġsors": 6873,
      "Ġlately": 6874,
      "Ġcoi": 6875,
      "Ġnor": 6876,
      "asons": 6877,
      "ism": 6878,
      "Ġbow": 6879,
      "Ġvan": 6880,
      "Ġquinze": 6881,
      "omac": 6882,
      "Ġnearest": 6883,
      "oter": 6884,
      "Ġod": 6885,
      "Ġsud": 6886,
      "Ġdoors": 6887,
      "Ġjoking": 6888,
      "aler": 6889,
      "Ġseats": 6890,
      "Ġplat": 6891,
      "Ġparvenu": 6892,
      "irts": 6893,
      "osite": 6894,
      "Ġjeans": 6895,
      "Ġrussi": 6896,
      "Ġstairs": 6897,
      "Ġgoal": 6898,
      "Ġdessert": 6899,
      "Ġproof": 6900,
      "allume": 6901,
      "Ġamount": 6902,
      "Ġexist": 6903,
      "Ġverrai": 6904,
      "Ġverrouille": 6905,
      "oler": 6906,
      "Ġpartit": 6907,
      "ecrivez": 6908,
      "Ġdecor": 6909,
      "Ġdecouv": 6910,
      "Ġpresents": 6911,
      "ified": 6912,
      "Ġgotta": 6913,
      "Ġmalin": 6914,
      "Ġposter": 6915,
      "Ġaccustom": 6916,
      "Ġblock": 6917,
      "Ġtenue": 6918,
      "Ġcourte": 6919,
      "Ġjobs": 6920,
      "Ġjoueur": 6921,
      "Ġplanned": 6922,
      "Ġdisposes": 6923,
      "ledge": 6924,
      "Ġconfir": 6925,
      "Ġaffec": 6926,
      "Ġdemanded": 6927,
      "Ġconditions": 6928,
      "Ġpassa": 6929,
      "Ġvivait": 6930,
      "Ġvivons": 6931,
      "Ġfatigues": 6932,
      "Ġactiv": 6933,
      "Ġbehave": 6934,
      "Ġetrangers": 6935,
      "Ġforet": 6936,
      "Ġbarbe": 6937,
      "Ġcleaned": 6938,
      "Ġinformations": 6939,
      "Ġpickpock": 6940,
      "Ġdescendre": 6941,
      "Ġconsideration": 6942,
      "Ġsatisfaite": 6943,
      "Ġrecommend": 6944,
      "Ġperfectly": 6945,
      "Ġprudentes": 6946,
      "Ġorganized": 6947,
      "Ġpowerful": 6948,
      "Ġsmiled": 6949,
      "Ġcrossed": 6950,
      "Ġoptions": 6951,
      "emploi": 6952,
      "Ġrelaxed": 6953,
      "Ġcigarettes": 6954,
      "Ġkilom": 6955,
      "Ġeventually": 6956,
      "ennemi": 6957,
      "Ġdemenage": 6958,
      "Ġskinny": 6959,
      "Ġecrivain": 6960,
      "Ġbarely": 6961,
      "Ġpantal": 6962,
      "Ġissue": 6963,
      "Ġguests": 6964,
      "Ġdisagree": 6965,
      "Ġbeurre": 6966,
      "..": 6967,
      "bu": 6968,
      "lle": 6969,
      "rure": 6970,
      "rise": 6971,
      "tour": 6972,
      "umb": 6973,
      "uves": 6974,
      "xante": 6975,
      "Ġtat": 6976,
      "Ġtong": 6977,
      "Ġdine": 6978,
      "Ġpom": 6979,
      "Ġmaman": 6980,
      "Ġnie": 6981,
      "Ġnap": 6982,
      "Ġfoire": 6983,
      "Ġhost": 6984,
      "Ġhated": 6985,
      "etaient": 6986,
      "Ġgain": 6987,
      "Ġredu": 6988,
      "ott": 6989,
      "Ġmex": 6990,
      "Ġmeas": 6991,
      "ources": 6992,
      "Ġqueue": 6993,
      "rif": 6994,
      "Ġbee": 6995,
      "Ġwears": 6996,
      "Ġwealth": 6997,
      "Ġchos": 6998,
      "Ġsevere": 6999,
      "Ġcommerci": 7000,
      "ters": 7001,
      "Ġtues": 7002,
      "illon": 7003,
      "Ġamene": 7004,
      "Ġtiend": 7005,
      "Ġarmes": 7006,
      "essence": 7007,
      "appro": 7008,
      "Ġbeaux": 7009,
      "Ġbeaute": 7010,
      "Ġesprit": 7011,
      "Ġbienvenue": 7012,
      "Ġperio": 7013,
      "Ġoffert": 7014,
      "Ġspread": 7015,
      "udes": 7016,
      "quelques": 7017,
      "ption": 7018,
      "retour": 7019,
      "Ġlaiss": 7020,
      "Ġvisa": 7021,
      "Ġfutur": 7022,
      "Ġsentie": 7023,
      "Ġpromises": 7024,
      "Ġpromener": 7025,
      "Ġremise": 7026,
      "Ġunderstanding": 7027,
      "Ġscold": 7028,
      "Ġelection": 7029,
      "Ġbadly": 7030,
      "Ġfich": 7031,
      "Ġhabitude": 7032,
      "Ġmontra": 7033,
      "Ġabsor": 7034,
      "Ġruined": 7035,
      "Ġchatte": 7036,
      "Ġgarer": 7037,
      "Ġegal": 7038,
      "anchement": 7039,
      "Ġrompu": 7040,
      "emm": 7041,
      "Ġexperiment": 7042,
      "Ġthirsty": 7043,
      "Ġapproach": 7044,
      "Ġintelligente": 7045,
      "marche": 7046,
      "Ġsundays": 7047,
      "Ġchanteur": 7048,
      "Ġignored": 7049,
      "Ġambulance": 7050,
      "Ġfamilier": 7051,
      "Ġdifficulte": 7052,
      "Ġpressure": 7053,
      "Ġemprunte": 7054,
      "Ġcurieux": 7055,
      "Ġoccuper": 7056,
      "Ġsouth": 7057,
      "Ġcolline": 7058,
      "Ġparlons": 7059,
      "Ġdeeply": 7060,
      "Ġfrappa": 7061,
      "Ġapplication": 7062,
      "Ġsejourne": 7063,
      "Ġprogress": 7064,
      "humeur": 7065,
      "aissance": 7066,
      "Ġfifty": 7067,
      "celui": 7068,
      "Ġsoudain": 7069,
      "Ġvolontaire": 7070,
      "Ġlatin": 7071,
      "Ġepuise": 7072,
      "Ġentirely": 7073,
      "Ġcamion": 7074,
      "Ġbrief": 7075,
      "Ġtremblement": 7076,
      "Ġelephants": 7077,
      "Ġjokes": 7078,
      "Ġmondiale": 7079,
      "Ġcelibataire": 7080,
      "Ġperformance": 7081,
      "Ġtongue": 7082,
      "Ġchosen": 7083,
      "ah": 7084,
      "faire": 7085,
      "hy": 7086,
      "ium": 7087,
      "ope": 7088,
      "selle": 7089,
      "voyons": 7090,
      "rep": 7091,
      "Ġcaut": 7092,
      "Ġmos": 7093,
      "ero": 7094,
      "Ġways": 7095,
      "Ġvir": 7096,
      "eto": 7097,
      "atis": 7098,
      "Ġtheater": 7099,
      "oust": 7100,
      "Ġreb": 7101,
      "Ġrele": 7102,
      "Ġremb": 7103,
      "Ġequi": 7104,
      "Ġhaw": 7105,
      "Ġja": 7106,
      "key": 7107,
      "Ġparmi": 7108,
      "ically": 7109,
      "Ġaupres": 7110,
      "Ġcamb": 7111,
      "Ġcamar": 7112,
      "Ġrasse": 7113,
      "Ġallions": 7114,
      "Ġallonge": 7115,
      "Ġdesir": 7116,
      "oreille": 7117,
      "Ġavis": 7118,
      "Ġavenir": 7119,
      "Ġshape": 7120,
      "itez": 7121,
      "Ġconges": 7122,
      "Ġmangent": 7123,
      "ortable": 7124,
      "Ġfaith": 7125,
      "agnes": 7126,
      "Ġfrank": 7127,
      "Ġcompose": 7128,
      "Ġupon": 7129,
      "tence": 7130,
      "apportez": 7131,
      "Ġgram": 7132,
      "Ġgoods": 7133,
      "Ġages": 7134,
      "Ġimpol": 7135,
      "Ġdecede": 7136,
      "Ġcrise": 7137,
      "Ġcrack": 7138,
      "abl": 7139,
      "autor": 7140,
      "ify": 7141,
      "selon": 7142,
      "issant": 7143,
      "Ġfermes": 7144,
      "anced": 7145,
      "Ġdepends": 7146,
      "Ġconser": 7147,
      "Ġblow": 7148,
      "Ġvaisselle": 7149,
      "Ġpromesses": 7150,
      "essaye": 7151,
      "Ġdemandez": 7152,
      "Ġfirm": 7153,
      "Ġboard": 7154,
      "Ġpiege": 7155,
      "enseigner": 7156,
      "Ġrappelles": 7157,
      "Ġscrew": 7158,
      "Ġcorner": 7159,
      "Ġdouz": 7160,
      "Ġobst": 7161,
      "Ġfiel": 7162,
      "Ġfirent": 7163,
      "Ġdebrouille": 7164,
      "Ġreviens": 7165,
      "Ġincor": 7166,
      "Ġpreferes": 7167,
      "Ġcharm": 7168,
      "Ġcommenc": 7169,
      "ology": 7170,
      "ologie": 7171,
      "Ġcopie": 7172,
      "Ġtyp": 7173,
      "Ġsuivant": 7174,
      "Ġexamens": 7175,
      "Ġvalu": 7176,
      "Ġterminee": 7177,
      "Ġmourut": 7178,
      "Ġappelee": 7179,
      "echapper": 7180,
      "Ġplaint": 7181,
      "Ġpreferable": 7182,
      "Ġpossed": 7183,
      "Ġproduct": 7184,
      "incendie": 7185,
      "Ġmagazines": 7186,
      "Ġtendance": 7187,
      "issement": 7188,
      "Ġconduite": 7189,
      "Ġburst": 7190,
      "devrais": 7191,
      "Ġgrimp": 7192,
      "Ġmathematics": 7193,
      "esperais": 7194,
      "Ġsoudaine": 7195,
      "Ġencourage": 7196,
      "Ġasseoir": 7197,
      "neuf": 7198,
      "Ġstealing": 7199,
      "Ġpenetrer": 7200,
      "Ġadorable": 7201,
      "Ġaudience": 7202,
      "Ġmisunderstand": 7203,
      "Ġhesit": 7204,
      "Ġretrouver": 7205,
      "Ġproperly": 7206,
      "Ġcinquante": 7207,
      "Ġgentillesse": 7208,
      "Ġchandail": 7209,
      "Ġremercie": 7210,
      "Ġgreeted": 7211,
      "Ġquotidiennement": 7212,
      "Ġaccustomed": 7213,
      "elez": 7214,
      "gnee": 7215,
      "huit": 7216,
      "look": 7217,
      "to": 7218,
      "vid": 7219,
      "Ġtal": 7220,
      "Ġaction": 7221,
      "Ġaunt": 7222,
      "Ġaussitot": 7223,
      "Ġsink": 7224,
      "Ġsienne": 7225,
      "Ġpus": 7226,
      "Ġpure": 7227,
      "Ġpill": 7228,
      "Ġmete": 7229,
      "aigne": 7230,
      "Ġnord": 7231,
      "ili": 7232,
      "vement": 7233,
      "Ġheros": 7234,
      "Ġhello": 7235,
      "Ġmepr": 7236,
      "euble": 7237,
      "Ġodd": 7238,
      "Ġleva": 7239,
      "section": 7240,
      "Ġanger": 7241,
      "Ġchall": 7242,
      "Ġsearch": 7243,
      "Ġonze": 7244,
      "Ġwasting": 7245,
      "Ġaside": 7246,
      "imate": 7247,
      "Ġstun": 7248,
      "Ġstars": 7249,
      "amuse": 7250,
      "illy": 7251,
      "Ġmanieres": 7252,
      "Ġargue": 7253,
      "Ġrestez": 7254,
      "Ġdeviner": 7255,
      "Ġnoon": 7256,
      "Ġespe": 7257,
      "Ġentra": 7258,
      "Ġrepose": 7259,
      "Ġtrained": 7260,
      "Ġcontents": 7261,
      "Ġattrib": 7262,
      "Ġpercent": 7263,
      "ifiques": 7264,
      "Ġorange": 7265,
      "Ġblag": 7266,
      "Ġpetites": 7267,
      "Ġfuri": 7268,
      "Ġfuji": 7269,
      "Ġterme": 7270,
      "Ġpuzz": 7271,
      "Ġawful": 7272,
      "onnes": 7273,
      "onnable": 7274,
      "Ġforest": 7275,
      "parl": 7276,
      "Ġtotal": 7277,
      "Ġfuner": 7278,
      "Ġpoker": 7279,
      "Ġpockets": 7280,
      "Ġpuisses": 7281,
      "Ġrappelez": 7282,
      "Ġregardes": 7283,
      "Ġkindness": 7284,
      "Ġelev": 7285,
      "Ġbegins": 7286,
      "Ġrealiser": 7287,
      "Ġadvise": 7288,
      "Ġinforme": 7289,
      "Ġfarm": 7290,
      "Ġsauce": 7291,
      "Ġdoctors": 7292,
      "Ġsuffering": 7293,
      "Ġprofessionn": 7294,
      "disp": 7295,
      "Ġrelieved": 7296,
      "Ġdelicious": 7297,
      "Ġcollect": 7298,
      "Ġaddition": 7299,
      "Ġdreaming": 7300,
      "Ġvalises": 7301,
      "Ġtrouva": 7302,
      "Ġartist": 7303,
      "Ġbarb": 7304,
      "Ġversion": 7305,
      "Ġconnaissais": 7306,
      "Ġsupermark": 7307,
      "Ġfully": 7308,
      "Ġsuffisant": 7309,
      "Ġapologized": 7310,
      "Ġlegal": 7311,
      "Ġgeneralement": 7312,
      "Ġcreme": 7313,
      "Ġbleue": 7314,
      "Ġviolin": 7315,
      "Ġordinateurs": 7316,
      "Ġnegoci": 7317,
      "Ġpersuader": 7318,
      "Ġembarrasse": 7319,
      "Ġmensonges": 7320,
      "Ġcanadian": 7321,
      "Ġridicul": 7322,
      "Ġreveillee": 7323,
      "Ġbathroom": 7324,
      "envoyer": 7325,
      "Ġreminds": 7326,
      "arreta": 7327,
      "Ġcontrariee": 7328,
      "Ġmarchand": 7329,
      "Ġsepare": 7330,
      "Ġrequest": 7331,
      "Ġarrange": 7332,
      "cope": 7333,
      "Ġhauteur": 7334,
      "Ġtower": 7335,
      "Ġlourd": 7336,
      "Ġclients": 7337,
      "Ġeffective": 7338,
      "Ġpoursuiv": 7339,
      "Ġliquide": 7340,
      "Ġanxious": 7341,
      "Ġsachiez": 7342,
      "Ġharvard": 7343,
      "Ġcaptain": 7344,
      "Ġbudget": 7345,
      "Ġescaliers": 7346,
      "economie": 7347,
      "Ġreliable": 7348,
      "Ġchallen": 7349,
      "cents": 7350,
      "phe": 7351,
      "place": 7352,
      "rouv": 7353,
      "rance": 7354,
      "Ġtante": 7355,
      "Ġayons": 7356,
      "Ġlower": 7357,
      "Ġmait": 7358,
      "Ġmass": 7359,
      "Ġmente": 7360,
      "Ġnet": 7361,
      "quit": 7362,
      "assez": 7363,
      "Ġbound": 7364,
      "Ġbomb": 7365,
      "Ġhook": 7366,
      "Ġhug": 7367,
      "etete": 7368,
      "etude": 7369,
      "Ġtheatre": 7370,
      "ordre": 7371,
      "Ġheur": 7372,
      "Ġreasons": 7373,
      "Ġleger": 7374,
      "Ġepar": 7375,
      "Ġdozen": 7376,
      "Ġham": 7377,
      "Ġjoy": 7378,
      "Ġitself": 7379,
      "aud": 7380,
      "aute": 7381,
      "Ġchop": 7382,
      "Ġseason": 7383,
      "Ġcommer": 7384,
      "Ġaurions": 7385,
      "Ġastu": 7386,
      "Ġshelf": 7387,
      "ameliore": 7388,
      "Ġath": 7389,
      "Ġpros": 7390,
      "Ġprover": 7391,
      "Ġconven": 7392,
      "Ġexec": 7393,
      "Ġprince": 7394,
      "Ġsable": 7395,
      "Ġcompare": 7396,
      "rently": 7397,
      "ounce": 7398,
      "Ġcheese": 7399,
      "Ġcheated": 7400,
      "Ġdirectement": 7401,
      "Ġattaque": 7402,
      "Ġspan": 7403,
      "Ġwrites": 7404,
      "Ġsavaient": 7405,
      "Ġcommettre": 7406,
      "Ġintri": 7407,
      "Ġposa": 7408,
      "Ġpouvions": 7409,
      "Ġfautes": 7410,
      "Ġvieill": 7411,
      "Ġblanche": 7412,
      "Ġrecol": 7413,
      "Ġcourri": 7414,
      "Ġcourut": 7415,
      "Ġhurler": 7416,
      "Ġengaged": 7417,
      "ailles": 7418,
      "cieuse": 7419,
      "Ġeleven": 7420,
      "Ġmission": 7421,
      "Ġmiser": 7422,
      "Ġintersection": 7423,
      "Ġnatif": 7424,
      "disposez": 7425,
      "Ġrentree": 7426,
      "Ġutilis": 7427,
      "Ġhorreur": 7428,
      "ibly": 7429,
      "Ġmedical": 7430,
      "gardez": 7431,
      "Ġblessees": 7432,
      "Ġservir": 7433,
      "Ġartiste": 7434,
      "Ġbarg": 7435,
      "Ġdiscussed": 7436,
      "Ġechappe": 7437,
      "Ġsupermarche": 7438,
      "Ġparfaite": 7439,
      "Ġproduits": 7440,
      "Ġchaussettes": 7441,
      "Ġouvrage": 7442,
      "Ġgenerally": 7443,
      "Ġracont": 7444,
      "Ġindique": 7445,
      "Ġelected": 7446,
      "Ġclimbed": 7447,
      "aimais": 7448,
      "Ġselling": 7449,
      "Ġtreated": 7450,
      "desolee": 7451,
      "Ġmentionne": 7452,
      "Ġvictim": 7453,
      "allemagne": 7454,
      "Ġflying": 7455,
      "Ġitaly": 7456,
      "Ġcompetition": 7457,
      "Ġprogres": 7458,
      "Ġcommittee": 7459,
      "Ġechec": 7460,
      "Ġaugmentation": 7461,
      "Ġapparence": 7462,
      "Ġcapitaine": 7463,
      "Ġsignific": 7464,
      "Ġobviously": 7465,
      "Ġmagnifique": 7466,
      "Ġdescribe": 7467,
      "Ġdepourvu": 7468,
      "Ġprevented": 7469,
      "abandonner": 7470,
      "Ġyellow": 7471,
      "Ġmonsieur": 7472,
      "oublierai": 7473,
      "Ġbenef": 7474,
      "Ġdisponible": 7475,
      "Ġpantalon": 7476,
      "Ġhawai": 7477,
      "Ġcambri": 7478,
      "Ġsupermarket": 7479,
      "fr": 7480,
      "gth": 7481,
      "lait": 7482,
      "night": 7483,
      "obre": 7484,
      "pap": 7485,
      "part": 7486,
      "writ": 7487,
      "Ġatom": 7488,
      "Ġlux": 7489,
      "Ġcd": 7490,
      "erk": 7491,
      "Ġwore": 7492,
      "ina": 7493,
      "asser": 7494,
      "ison": 7495,
      "istence": 7496,
      "Ġber": 7497,
      "Ġbros": 7498,
      "ombre": 7499,
      "orient": 7500,
      "Ġmemes": 7501,
      "Ġmeub": 7502,
      "Ġunif": 7503,
      "Ġoh": 7504,
      "Ġoly": 7505,
      "Ġlegere": 7506,
      "Ġlache": 7507,
      "rime": 7508,
      "rica": 7509,
      "Ġepr": 7510,
      "Ġjog": 7511,
      "Ġchim": 7512,
      "Ġlib": 7513,
      "Ġlibe": 7514,
      "Ġparoles": 7515,
      "mped": 7516,
      "Ġcares": 7517,
      "avions": 7518,
      "utation": 7519,
      "Ġlesson": 7520,
      "Ġshorter": 7521,
      "Ġcong": 7522,
      "Ġmanqu": 7523,
      "Ġmanif": 7524,
      "Ġtape": 7525,
      "ageux": 7526,
      "Ġverifie": 7527,
      "onnee": 7528,
      "Ġapply": 7529,
      "Ġdemie": 7530,
      "Ġeteint": 7531,
      "Ġdirecteur": 7532,
      "Ġlongues": 7533,
      "Ġfromage": 7534,
      "Ġbrouill": 7535,
      "Ġadult": 7536,
      "Ġadvert": 7537,
      "Ġcontest": 7538,
      "Ġsaison": 7539,
      "Ġnowhere": 7540,
      "Ġspare": 7541,
      "Ġintended": 7542,
      "obtenir": 7543,
      "Ġlasted": 7544,
      "Ġaccus": 7545,
      "Ġsmaller": 7546,
      "Ġsmiling": 7547,
      "Ġblamer": 7548,
      "Ġcouramment": 7549,
      "Ġminim": 7550,
      "Ġdernieres": 7551,
      "Ġremede": 7552,
      "Ġconfon": 7553,
      "Ġwalks": 7554,
      "Ġgenial": 7555,
      "Ġtableaux": 7556,
      "Ġ12": 7557,
      "Ġmoteur": 7558,
      "Ġdouce": 7559,
      "Ġcouch": 7560,
      "Ġtravaillent": 7561,
      "Ġshoe": 7562,
      "Ġarrivent": 7563,
      "Ġbrown": 7564,
      "Ġvolume": 7565,
      "Ġcoffre": 7566,
      "Ġlargest": 7567,
      "Ġromans": 7568,
      "Ġbitter": 7569,
      "ibi": 7570,
      "Ġsource": 7571,
      "Ġvalent": 7572,
      "Ġparked": 7573,
      "Ġokay": 7574,
      "Ġfleuve": 7575,
      "Ġpapers": 7576,
      "Ġcenter": 7577,
      "Ġsurvived": 7578,
      "Ġparticulierement": 7579,
      "Ġlumieres": 7580,
      "Ġarmy": 7581,
      "Ġstronger": 7582,
      "Ġprotection": 7583,
      "Ġviolent": 7584,
      "Ġclimat": 7585,
      "embr": 7586,
      "Ġhonesty": 7587,
      "Ġtraduire": 7588,
      "Ġrempl": 7589,
      "Ġdoubts": 7590,
      "Ġeconomy": 7591,
      "Ġcontinua": 7592,
      "Ġprononcer": 7593,
      "Ġscientifique": 7594,
      "Ġnational": 7595,
      "Ġailleurs": 7596,
      "Ġgratuite": 7597,
      "Ġpardon": 7598,
      "cinq": 7599,
      "Ġcriminal": 7600,
      "Ġneighborhood": 7601,
      "Ġbaiser": 7602,
      "Ġfluent": 7603,
      "Ġoctober": 7604,
      "Ġmodern": 7605,
      "Ġrepondit": 7606,
      "Ġknocked": 7607,
      "Ġpreparing": 7608,
      "Ġtextbook": 7609,
      "Ġoreilles": 7610,
      "Ġmalheureux": 7611,
      "Ġweapon": 7612,
      "Ġbecoming": 7613,
      "Ġrabb": 7614,
      "censeur": 7615,
      "Ġdestroyed": 7616,
      "Ġcraign": 7617,
      "Ġstrength": 7618,
      "Ġconsulter": 7619,
      "Ġunfortunately": 7620,
      "Ġcoiff": 7621,
      "Ġfrankly": 7622,
      "Ġstunned": 7623,
      "Ġelevator": 7624,
      "Ġolymp": 7625,
      "Ġbrouillard": 7626,
      "cro": 7627,
      "kk": 7628,
      "ronne": 7629,
      "trois": 7630,
      "Ġaine": 7631,
      "Ġsain": 7632,
      "Ġsite": 7633,
      "Ġsail": 7634,
      "Ġpor": 7635,
      "Ġpond": 7636,
      "Ġpneu": 7637,
      "ening": 7638,
      "Ġmord": 7639,
      "aiment": 7640,
      "Ġnaissance": 7641,
      "Ġfoi": 7642,
      "lever": 7643,
      "Ġbom": 7644,
      "Ġbaked": 7645,
      "Ġvague": 7646,
      "Ġdefe": 7647,
      "atif": 7648,
      "orig": 7649,
      "ormer": 7650,
      "itting": 7651,
      "itely": 7652,
      "Ġgren": 7653,
      "Ġneck": 7654,
      "Ġneiger": 7655,
      "Ġrecon": 7656,
      "otte": 7657,
      "Ġmembre": 7658,
      "Ġlecon": 7659,
      "Ġlack": 7660,
      "sept": 7661,
      "Ġincome": 7662,
      "Ġingen": 7663,
      "Ġjail": 7664,
      "Ġenerve": 7665,
      "Ġdonn": 7666,
      "Ġseche": 7667,
      "Ġones": 7668,
      "chante": 7669,
      "Ġparte": 7670,
      "Ġcad": 7671,
      "Ġcaf": 7672,
      "Ġrater": 7673,
      "Ġstared": 7674,
      "Ġsoph": 7675,
      "cier": 7676,
      "Ġknowledge": 7677,
      "Ġhistoi": 7678,
      "Ġdumb": 7679,
      "uiss": 7680,
      "appellerai": 7681,
      "fered": 7682,
      "Ġenth": 7683,
      "ecl": 7684,
      "Ġcrain": 7685,
      "Ġferas": 7686,
      "Ġsupper": 7687,
      "Ġdeuxieme": 7688,
      "Ġguard": 7689,
      "Ġminuit": 7690,
      "Ġpublie": 7691,
      "Ġhandy": 7692,
      "thomas": 7693,
      "pected": 7694,
      "Ġacheve": 7695,
      "Ġmoral": 7696,
      "Ġdemandes": 7697,
      "Ġdemandais": 7698,
      "Ġpassage": 7699,
      "Ġpasseng": 7700,
      "Ġassurance": 7701,
      "Ġnucle": 7702,
      "Ġnuages": 7703,
      "Ġobjection": 7704,
      "Ġbegun": 7705,
      "Ġsurprising": 7706,
      "Ġrug": 7707,
      "Ġinterrom": 7708,
      "emporter": 7709,
      "Ġsoixante": 7710,
      "Ġsituations": 7711,
      "Ġdecisions": 7712,
      "Ġepoque": 7713,
      "Ġdelayed": 7714,
      "Ġhumeur": 7715,
      "Ġdefaut": 7716,
      "Ġcleaning": 7717,
      "Ġopinions": 7718,
      "Ġconnaissons": 7719,
      "lettes": 7720,
      "Ġreflex": 7721,
      "Ġrecevoir": 7722,
      "etudi": 7723,
      "Ġetrangeres": 7724,
      "ĠÅĵuv": 7725,
      "Ġzero": 7726,
      "awa": 7727,
      "Ġinvitee": 7728,
      "Ġtimid": 7729,
      "Ġconfection": 7730,
      "Ġtromper": 7731,
      "Ġrecognized": 7732,
      "Ġaccompan": 7733,
      "Ġconstamment": 7734,
      "Ġindiffe": 7735,
      "Ġindivid": 7736,
      "Ġbillets": 7737,
      "Ġhoping": 7738,
      "Ġparticiper": 7739,
      "Ġholidays": 7740,
      "Ġrespecter": 7741,
      "Ġquantite": 7742,
      "Ġfassions": 7743,
      "Ġemotions": 7744,
      "registre": 7745,
      "Ġdeclare": 7746,
      "Ġdeprime": 7747,
      "Ġsurface": 7748,
      "Ġdevelop": 7749,
      "etagere": 7750,
      "Ġdrugs": 7751,
      "Ġmicro": 7752,
      "Ġannoying": 7753,
      "Ġconcentrate": 7754,
      "Ġenvisager": 7755,
      "Ġrejoindre": 7756,
      "Ġnarrow": 7757,
      "Ġnonsense": 7758,
      "Ġaffecte": 7759,
      "papa": 7760,
      "Ġmeubles": 7761,
      "Ġhistoires": 7762,
      "Ġpassengers": 7763,
      "bb": 7764,
      "den": 7765,
      "ias": 7766,
      "ians": 7767,
      "xpected": 7768,
      "Ġaver": 7769,
      "reuses": 7770,
      "Ġsauv": 7771,
      "Ġsilly": 7772,
      "Ġloup": 7773,
      "Ġloyer": 7774,
      "Ġcy": 7775,
      "Ġcult": 7776,
      "Ġcrie": 7777,
      "Ġmoust": 7778,
      "Ġwounded": 7779,
      "anou": 7780,
      "anic": 7781,
      "quete": 7782,
      "Ġfate": 7783,
      "Ġbanc": 7784,
      "atiques": 7785,
      "ousse": 7786,
      "armee": 7787,
      "orce": 7788,
      "unch": 7789,
      "unate": 7790,
      "Ġpassez": 7791,
      "Ġrech": 7792,
      "riate": 7793,
      "Ġeager": 7794,
      "Ġenvel": 7795,
      "iew": 7796,
      "Ġbeard": 7797,
      "Ġweigh": 7798,
      "Ġliber": 7799,
      "Ġparla": 7800,
      "Ġpardonne": 7801,
      "Ġcomite": 7802,
      "Ġcandy": 7803,
      "Ġunexpected": 7804,
      "Ġstress": 7805,
      "Ġdesper": 7806,
      "Ġsurr": 7807,
      "oln": 7808,
      "apers": 7809,
      "Ġserp": 7810,
      "Ġserre": 7811,
      "apporter": 7812,
      "Ġdemoc": 7813,
      "fere": 7814,
      "mbers": 7815,
      "Ġcheaper": 7816,
      "Ġclassi": 7817,
      "Ġreputation": 7818,
      "Ġhelpful": 7819,
      "ecart": 7820,
      "article": 7821,
      "Ġcontacter": 7822,
      "aido": 7823,
      "Ġsometime": 7824,
      "Ġoffici": 7825,
      "Ġregler": 7826,
      "Ġspeed": 7827,
      "Ġtravaillez": 7828,
      "Ġdepasse": 7829,
      "prom": 7830,
      "Ġsmo": 7831,
      "Ġphys": 7832,
      "Ġsentit": 7833,
      "attes": 7834,
      "phabet": 7835,
      "Ġinvente": 7836,
      "Ġfog": 7837,
      "Ġfold": 7838,
      "Ġfacons": 7839,
      "lied": 7840,
      "Ġdifferents": 7841,
      "Ġscol": 7842,
      "Ġassum": 7843,
      "Ġcherches": 7844,
      "Ġsupposee": 7845,
      "Ġpatronne": 7846,
      "Ġlugg": 7847,
      "Ġobs": 7848,
      "Ġobt": 7849,
      "Ġtravaillons": 7850,
      "Ġreviendra": 7851,
      "Ġdonnez": 7852,
      "Ġincident": 7853,
      "Ġgreatest": 7854,
      "Ġvolonte": 7855,
      "Ġinterv": 7856,
      "Ġinterpre": 7857,
      "Ġsaute": 7858,
      "Ġcharges": 7859,
      "Ġwarmer": 7860,
      "Ġcopies": 7861,
      "Ġfacebook": 7862,
      "Ġskill": 7863,
      "ateurs": 7864,
      "Ġimagined": 7865,
      "Ġsoigne": 7866,
      "Ġbitten": 7867,
      "Ġclassm": 7868,
      "Ġpartiel": 7869,
      "Ġsouri": 7870,
      "Ġregardez": 7871,
      "Ġvalue": 7872,
      "Ġactuelle": 7873,
      "Ġtrouvent": 7874,
      "Ġrejete": 7875,
      "Ġtransp": 7876,
      "Ġconnaissent": 7877,
      "prenons": 7878,
      "Ġregretter": 7879,
      "Ġacceptable": 7880,
      "Ġdisposais": 7881,
      "Ġouvrit": 7882,
      "Ġsacrif": 7883,
      "Ġchecked": 7884,
      "fumer": 7885,
      "Ġholding": 7886,
      "Ġboxes": 7887,
      "Ġimpressionnee": 7888,
      "Ġplainte": 7889,
      "Ġblew": 7890,
      "lorsqu": 7891,
      "Ġcadeaux": 7892,
      "Ġteaches": 7893,
      "Ġtenter": 7894,
      "Ġstyl": 7895,
      "interess": 7896,
      "Ġnegl": 7897,
      "Ġdeny": 7898,
      "Ġnovels": 7899,
      "incoln": 7900,
      "Ġpaintings": 7901,
      "Ġpoured": 7902,
      "Ġpoulet": 7903,
      "Ġnewspapers": 7904,
      "Ġhanging": 7905,
      "Ġconstant": 7906,
      "allemand": 7907,
      "passez": 7908,
      "Ġessent": 7909,
      "Ġcitiz": 7910,
      "Ġrobbed": 7911,
      "Ġserviette": 7912,
      "Ġdanced": 7913,
      "Ġcommitted": 7914,
      "Ġcott": 7915,
      "Ġinvestig": 7916,
      "Ġadopted": 7917,
      "Ġsurvecu": 7918,
      "Ġconclusion": 7919,
      "Ġtowel": 7920,
      "Ġprisonniers": 7921,
      "entendis": 7922,
      "Ġreligion": 7923,
      "Ġeffectue": 7924,
      "depeche": 7925,
      "Ġsquare": 7926,
      "Ġsupplementaire": 7927,
      "Ġemmener": 7928,
      "Ġfalse": 7929,
      "Ġindustry": 7930,
      "Ġcooperation": 7931,
      "atoes": 7932,
      "Ġresearch": 7933,
      "Ġsaoul": 7934,
      "Ġfroide": 7935,
      "Ġcompliment": 7936,
      "Ġdeparture": 7937,
      "Ġpickpockets": 7938,
      "Ġscolded": 7939,
      "Ġsophist": 7940,
      "Ġaccompanied": 7941,
      "Ġluggage": 7942,
      "ba": 7943,
      "cast": 7944,
      "duire": 7945,
      "lou": 7946,
      "lin": 7947,
      "mn": 7948,
      "oll": 7949,
      "ville": 7950,
      "word": 7951,
      "Ġdors": 7952,
      "Ġdata": 7953,
      "Ġsaut": 7954,
      "Ġlance": 7955,
      "ailed": 7956,
      "Ġnorth": 7957,
      "Ġfuss": 7958,
      "ining": 7959,
      "asing": 7960,
      "ishing": 7961,
      "Ġbass": 7962,
      "Ġhopital": 7963,
      "Ġhilar": 7964,
      "etant": 7965,
      "Ġqualite": 7966,
      "iti": 7967,
      "Ġthick": 7968,
      "estomac": 7969,
      "ota": 7970,
      "Ġunus": 7971,
      "Ġjete": 7972,
      "Ġjume": 7973,
      "Ġeto": 7974,
      "Ġancient": 7975,
      "Ġchir": 7976,
      "Ġchateau": 7977,
      "Ġseated": 7978,
      "Ġplaign": 7979,
      "irais": 7980,
      "Ġceinture": 7981,
      "Ġcancel": 7982,
      "Ġcauser": 7983,
      "Ġras": 7984,
      "Ġstret": 7985,
      "Ġallum": 7986,
      "uted": 7987,
      "Ġsocks": 7988,
      "addition": 7989,
      "Ġshook": 7990,
      "Ġshame": 7991,
      "usting": 7992,
      "Ġalarm": 7993,
      "Ġamuses": 7994,
      "Ġmanche": 7995,
      "sif": 7996,
      "Ġdisiez": 7997,
      "Ġdisli": 7998,
      "apacite": 7999
    },
    "merges": [
      [
        "Ġ",
        "t"
      ],
      [
        "o",
        "u"
      ],
      [
        "Ġ",
        "a"
      ],
      [
        "r",
        "e"
      ],
      [
        "Ġ",
        "d"
      ],
      [
        "Ġ",
        "s"
      ],
      [
        "Ġ",
        "p"
      ],
      [
        "Ġ",
        "i"
      ],
      [
        "e",
        "s"
      ],
      [
        "e",
        "n"
      ],
      [
        "o",
        "n"
      ],
      [
        "h",
        "e"
      ],
      [
        "Ġ",
        "l"
      ],
      [
        "Ġ",
        "c"
      ],
      [
        "Ġ",
        "m"
      ],
      [
        "a",
        "i"
      ],
      [
        "e",
        "r"
      ],
      [
        "Ġ",
        "w"
      ],
      [
        "Ġ",
        "n"
      ],
      [
        "a",
        "n"
      ],
      [
        "Ġ",
        "y"
      ],
      [
        "q",
        "u"
      ],
      [
        "Ġ",
        "f"
      ],
      [
        "i",
        "n"
      ],
      [
        "Ġt",
        "o"
      ],
      [
        "Ġy",
        "ou"
      ],
      [
        "l",
        "e"
      ],
      [
        "a",
        "s"
      ],
      [
        "i",
        "s"
      ],
      [
        "Ġ",
        "b"
      ],
      [
        "Ġ",
        "v"
      ],
      [
        "Ġd",
        "e"
      ],
      [
        "Ġ",
        "h"
      ],
      [
        "e",
        "t"
      ],
      [
        "a",
        "t"
      ],
      [
        "Ġt",
        "he"
      ],
      [
        "ou",
        "s"
      ],
      [
        "i",
        "l"
      ],
      [
        "j",
        "e"
      ],
      [
        "a",
        "r"
      ],
      [
        "Ġ",
        "qu"
      ],
      [
        "v",
        "e"
      ],
      [
        "o",
        "m"
      ],
      [
        "o",
        "r"
      ],
      [
        "en",
        "t"
      ],
      [
        "i",
        "t"
      ],
      [
        "e",
        "l"
      ],
      [
        "Ġt",
        "h"
      ],
      [
        "u",
        "n"
      ],
      [
        "Ġ",
        "g"
      ],
      [
        "es",
        "t"
      ],
      [
        "in",
        "g"
      ],
      [
        "Ġp",
        "as"
      ],
      [
        "Ġ",
        "he"
      ],
      [
        "e",
        "d"
      ],
      [
        "ai",
        "s"
      ],
      [
        "u",
        "s"
      ],
      [
        "Ġn",
        "e"
      ],
      [
        "Ġ",
        "re"
      ],
      [
        "o",
        "t"
      ],
      [
        "Ġm",
        "e"
      ],
      [
        "t",
        "e"
      ],
      [
        "ou",
        "r"
      ],
      [
        "'",
        "t"
      ],
      [
        "Ġqu",
        "e"
      ],
      [
        "e",
        "u"
      ],
      [
        "Ġ",
        "un"
      ],
      [
        "Ġ",
        "o"
      ],
      [
        "Ġl",
        "e"
      ],
      [
        "l",
        "l"
      ],
      [
        "Ġl",
        "a"
      ],
      [
        "r",
        "i"
      ],
      [
        "s",
        "e"
      ],
      [
        "o",
        "i"
      ],
      [
        "Ġ",
        "e"
      ],
      [
        "Ġ",
        "?"
      ],
      [
        "c",
        "e"
      ],
      [
        "Ġs",
        "u"
      ],
      [
        "Ġd",
        "o"
      ],
      [
        "an",
        "t"
      ],
      [
        "ai",
        "t"
      ],
      [
        "Ġh",
        "a"
      ],
      [
        "Ġi",
        "n"
      ],
      [
        "r",
        "o"
      ],
      [
        "m",
        "e"
      ],
      [
        "Ġi",
        "s"
      ],
      [
        "Ġ",
        "j"
      ],
      [
        "Ġ",
        "en"
      ],
      [
        "Ġw",
        "h"
      ],
      [
        "Ġ",
        "et"
      ],
      [
        "t",
        "u"
      ],
      [
        "i",
        "e"
      ],
      [
        "Ġi",
        "t"
      ],
      [
        "Ġb",
        "e"
      ],
      [
        "a",
        "y"
      ],
      [
        "Ġto",
        "m"
      ],
      [
        "o",
        "w"
      ],
      [
        "i",
        "d"
      ],
      [
        "ou",
        "t"
      ],
      [
        "re",
        "s"
      ],
      [
        "Ġw",
        "e"
      ],
      [
        "i",
        "on"
      ],
      [
        "Ġo",
        "f"
      ],
      [
        "a",
        "u"
      ],
      [
        "Ġa",
        "n"
      ],
      [
        "Ġv",
        "ous"
      ],
      [
        "m",
        "ent"
      ],
      [
        "v",
        "ous"
      ],
      [
        "Ġc",
        "h"
      ],
      [
        "a",
        "l"
      ],
      [
        "Ġ",
        "est"
      ],
      [
        "n",
        "e"
      ],
      [
        "Ġth",
        "at"
      ],
      [
        "Ġd",
        "on"
      ],
      [
        "k",
        "e"
      ],
      [
        "'",
        "s"
      ],
      [
        "Ġl",
        "i"
      ],
      [
        "Ġs",
        "e"
      ],
      [
        "el",
        "le"
      ],
      [
        "l",
        "d"
      ],
      [
        "Ġ",
        "on"
      ],
      [
        "v",
        "er"
      ],
      [
        "c",
        "h"
      ],
      [
        "Ġt",
        "r"
      ],
      [
        "d",
        "e"
      ],
      [
        "p",
        "p"
      ],
      [
        "Ġp",
        "l"
      ],
      [
        "Ġp",
        "ar"
      ],
      [
        "ai",
        "n"
      ],
      [
        "Ġc",
        "om"
      ],
      [
        "Ġf",
        "or"
      ],
      [
        "i",
        "r"
      ],
      [
        "Ġt",
        "e"
      ],
      [
        "m",
        "p"
      ],
      [
        "Ġc",
        "e"
      ],
      [
        "Ġha",
        "ve"
      ],
      [
        "o",
        "o"
      ],
      [
        "i",
        "c"
      ],
      [
        "g",
        "h"
      ],
      [
        "eu",
        "x"
      ],
      [
        "Ġth",
        "is"
      ],
      [
        "t",
        "er"
      ],
      [
        "g",
        "e"
      ],
      [
        "Ġw",
        "as"
      ],
      [
        "on",
        "s"
      ],
      [
        "on",
        "t"
      ],
      [
        "o",
        "s"
      ],
      [
        "a",
        "c"
      ],
      [
        "Ġp",
        "our"
      ],
      [
        "Ġa",
        "u"
      ],
      [
        "Ġc",
        "an"
      ],
      [
        "Ġm",
        "y"
      ],
      [
        "re",
        "n"
      ],
      [
        "Ġ",
        "k"
      ],
      [
        "Ġwh",
        "at"
      ],
      [
        "Ġyou",
        "r"
      ],
      [
        "en",
        "d"
      ],
      [
        "Ġn",
        "ot"
      ],
      [
        "Ġ",
        "je"
      ],
      [
        "Ġc",
        "a"
      ],
      [
        "Ġa",
        "s"
      ],
      [
        "a",
        "v"
      ],
      [
        "qu",
        "e"
      ],
      [
        "b",
        "le"
      ],
      [
        "l",
        "es"
      ],
      [
        "Ġ",
        "r"
      ],
      [
        "Ġun",
        "e"
      ],
      [
        "Ġs",
        "he"
      ],
      [
        "i",
        "m"
      ],
      [
        "Ġs",
        "t"
      ],
      [
        "u",
        "r"
      ],
      [
        "ou",
        "ld"
      ],
      [
        "â",
        "Ģ"
      ],
      [
        "Ġw",
        "ant"
      ],
      [
        "he",
        "r"
      ],
      [
        "a",
        "m"
      ],
      [
        "Ġa",
        "re"
      ],
      [
        "ai",
        "re"
      ],
      [
        "gh",
        "t"
      ],
      [
        "Ġa",
        "ll"
      ],
      [
        "u",
        "t"
      ],
      [
        "i",
        "en"
      ],
      [
        "an",
        "s"
      ],
      [
        "p",
        "e"
      ],
      [
        "t",
        "om"
      ],
      [
        "Ġg",
        "o"
      ],
      [
        "Ġd",
        "id"
      ],
      [
        "Ġsu",
        "is"
      ],
      [
        "Ġd",
        "es"
      ],
      [
        "an",
        "d"
      ],
      [
        "'",
        "m"
      ],
      [
        "Ġs",
        "o"
      ],
      [
        "Ġl",
        "es"
      ],
      [
        "a",
        "d"
      ],
      [
        "âĢ",
        "¯"
      ],
      [
        "o",
        "re"
      ],
      [
        "Ġa",
        "t"
      ],
      [
        "'",
        "re"
      ],
      [
        "n",
        "ous"
      ],
      [
        "Ġs",
        "om"
      ],
      [
        "oi",
        "r"
      ],
      [
        "u",
        "re"
      ],
      [
        "Ġp",
        "ro"
      ],
      [
        "Ġm",
        "a"
      ],
      [
        "Ġt",
        "u"
      ],
      [
        "il",
        "l"
      ],
      [
        "Ġm",
        "on"
      ],
      [
        "c",
        "i"
      ],
      [
        "Ġw",
        "it"
      ],
      [
        "Ġwit",
        "h"
      ],
      [
        "n",
        "ow"
      ],
      [
        "Ġ",
        "!"
      ],
      [
        "er",
        "s"
      ],
      [
        "Ġd",
        "i"
      ],
      [
        "Ġm",
        "ar"
      ],
      [
        "Ġk",
        "now"
      ],
      [
        "Ġa",
        "v"
      ],
      [
        "Ġs",
        "h"
      ],
      [
        "it",
        "e"
      ],
      [
        "Ġli",
        "ke"
      ],
      [
        "Ġa",
        "ve"
      ],
      [
        "Ġf",
        "aire"
      ],
      [
        "Ġc",
        "on"
      ],
      [
        "a",
        "ll"
      ],
      [
        "u",
        "i"
      ],
      [
        "Ġthe",
        "y"
      ],
      [
        "Ġp",
        "en"
      ],
      [
        "us",
        "t"
      ],
      [
        "in",
        "k"
      ],
      [
        "f",
        "f"
      ],
      [
        "Ġd",
        "ans"
      ],
      [
        "Ġh",
        "is"
      ],
      [
        "Ġn",
        "ous"
      ],
      [
        "ar",
        "d"
      ],
      [
        "Ġd",
        "u"
      ],
      [
        "Ġa",
        "l"
      ],
      [
        "h",
        "ing"
      ],
      [
        "Ġh",
        "im"
      ],
      [
        "o",
        "se"
      ],
      [
        "Ġa",
        "m"
      ],
      [
        "Ġpl",
        "us"
      ],
      [
        "Ġm",
        "an"
      ],
      [
        "or",
        "t"
      ],
      [
        "Ġe",
        "x"
      ],
      [
        "Ġa",
        "b"
      ],
      [
        "Ġs",
        "i"
      ],
      [
        "Ġsu",
        "r"
      ],
      [
        "l",
        "y"
      ],
      [
        "oo",
        "k"
      ],
      [
        "Ġ",
        "ri"
      ],
      [
        "el",
        "l"
      ],
      [
        "Ġt",
        "a"
      ],
      [
        "c",
        "t"
      ],
      [
        "il",
        "le"
      ],
      [
        "Ġt",
        "i"
      ],
      [
        "a",
        "ve"
      ],
      [
        "Ġa",
        "r"
      ],
      [
        "on",
        "e"
      ],
      [
        "Ġf",
        "ait"
      ],
      [
        "Ġh",
        "ow"
      ],
      [
        "a",
        "g"
      ],
      [
        "o",
        "in"
      ],
      [
        "s",
        "i"
      ],
      [
        "Ġf",
        "r"
      ],
      [
        "Ġan",
        "y"
      ],
      [
        "es",
        "s"
      ],
      [
        "Ġv",
        "er"
      ],
      [
        "Ġp",
        "re"
      ],
      [
        "o",
        "l"
      ],
      [
        "Ġt",
        "out"
      ],
      [
        "Ġv",
        "eux"
      ],
      [
        "r",
        "ai"
      ],
      [
        "Ġth",
        "ink"
      ],
      [
        "u",
        "e"
      ],
      [
        "l",
        "a"
      ],
      [
        "u",
        "p"
      ],
      [
        "at",
        "ion"
      ],
      [
        "u",
        "l"
      ],
      [
        "i",
        "g"
      ],
      [
        "Ġre",
        "s"
      ],
      [
        "a",
        "ge"
      ],
      [
        "Ġg",
        "et"
      ],
      [
        "on",
        "g"
      ],
      [
        "c",
        "he"
      ],
      [
        "Ġw",
        "or"
      ],
      [
        "Ġave",
        "c"
      ],
      [
        "Ġp",
        "r"
      ],
      [
        "Ġde",
        "v"
      ],
      [
        "Ġthe",
        "re"
      ],
      [
        "Ġqu",
        "i"
      ],
      [
        "Ġd",
        "is"
      ],
      [
        "Ġn",
        "o"
      ],
      [
        "i",
        "er"
      ],
      [
        "in",
        "e"
      ],
      [
        "Ġs",
        "a"
      ],
      [
        "c",
        "om"
      ],
      [
        "Ġp",
        "eu"
      ],
      [
        "o",
        "p"
      ],
      [
        "il",
        "s"
      ],
      [
        "Ġcom",
        "p"
      ],
      [
        "a",
        "p"
      ],
      [
        "d",
        "re"
      ],
      [
        "et",
        "te"
      ],
      [
        "Ġqu",
        "el"
      ],
      [
        "ou",
        "ve"
      ],
      [
        "us",
        "e"
      ],
      [
        "Ġpar",
        "t"
      ],
      [
        "at",
        "e"
      ],
      [
        "Ġe",
        "ver"
      ],
      [
        "Ġhe",
        "r"
      ],
      [
        "o",
        "is"
      ],
      [
        "'",
        "ll"
      ],
      [
        "Ġab",
        "out"
      ],
      [
        "u",
        "x"
      ],
      [
        "mp",
        "s"
      ],
      [
        "Ġti",
        "me"
      ],
      [
        "Ġan",
        "d"
      ],
      [
        "m",
        "es"
      ],
      [
        "Ġs",
        "on"
      ],
      [
        "oo",
        "d"
      ],
      [
        "ou",
        "v"
      ],
      [
        "Ġhe",
        "re"
      ],
      [
        "Ġw",
        "ill"
      ],
      [
        "Ġ",
        "out"
      ],
      [
        "e",
        "z"
      ],
      [
        "m",
        "er"
      ],
      [
        "Ġ",
        "up"
      ],
      [
        "ot",
        "re"
      ],
      [
        "Ġp",
        "le"
      ],
      [
        "Ġs",
        "ont"
      ],
      [
        "on",
        "ne"
      ],
      [
        "Ġre",
        "n"
      ],
      [
        "t",
        "en"
      ],
      [
        "o",
        "y"
      ],
      [
        "Ġl",
        "ui"
      ],
      [
        "Ġpen",
        "se"
      ],
      [
        "in",
        "d"
      ],
      [
        "Ġf",
        "e"
      ],
      [
        "Ġver",
        "y"
      ],
      [
        "Ġa",
        "pp"
      ],
      [
        "Ġse",
        "e"
      ],
      [
        "t",
        "re"
      ],
      [
        "Ġl",
        "et"
      ],
      [
        "Ġha",
        "d"
      ],
      [
        "an",
        "g"
      ],
      [
        "Ġj",
        "ust"
      ],
      [
        "'",
        "ve"
      ],
      [
        "Ġp",
        "e"
      ],
      [
        "c",
        "c"
      ],
      [
        "u",
        "is"
      ],
      [
        "Ġs",
        "er"
      ],
      [
        "Ġ",
        "us"
      ],
      [
        "Ġi",
        "f"
      ],
      [
        "a",
        "pp"
      ],
      [
        "ren",
        "t"
      ],
      [
        "Ġdid",
        "n"
      ],
      [
        "all",
        "y"
      ],
      [
        "Ġde",
        "m"
      ],
      [
        "our",
        "s"
      ],
      [
        "f",
        "e"
      ],
      [
        "as",
        "e"
      ],
      [
        "Ġh",
        "as"
      ],
      [
        "Ġw",
        "ould"
      ],
      [
        "i",
        "ve"
      ],
      [
        "o",
        "le"
      ],
      [
        "Ġm",
        "ais"
      ],
      [
        "eu",
        "r"
      ],
      [
        "Ġever",
        "y"
      ],
      [
        "v",
        "en"
      ],
      [
        "Ġv",
        "ou"
      ],
      [
        "Ġet",
        "re"
      ],
      [
        "c",
        "a"
      ],
      [
        "Ġte",
        "mps"
      ],
      [
        "id",
        "e"
      ],
      [
        "r",
        "ais"
      ],
      [
        "Ġha",
        "pp"
      ],
      [
        "r",
        "y"
      ],
      [
        "Ġwe",
        "re"
      ],
      [
        "Ġv",
        "otre"
      ],
      [
        "os",
        "t"
      ],
      [
        "Ġt",
        "res"
      ],
      [
        "ou",
        "p"
      ],
      [
        "en",
        "s"
      ],
      [
        "Ġet",
        "e"
      ],
      [
        "Ġon",
        "e"
      ],
      [
        "ot",
        "her"
      ],
      [
        "m",
        "b"
      ],
      [
        "Ġd",
        "it"
      ],
      [
        "Ġt",
        "ou"
      ],
      [
        "Ġg",
        "r"
      ],
      [
        "Ġl",
        "ook"
      ],
      [
        "al",
        "k"
      ],
      [
        "ou",
        "n"
      ],
      [
        "Ġmar",
        "y"
      ],
      [
        "Ġc",
        "he"
      ],
      [
        "Ġm",
        "oi"
      ],
      [
        "Ġet",
        "es"
      ],
      [
        "i",
        "ght"
      ],
      [
        "ai",
        "l"
      ],
      [
        "un",
        "e"
      ],
      [
        "Ġ",
        "ou"
      ],
      [
        "Ġc",
        "ould"
      ],
      [
        "re",
        "d"
      ],
      [
        "Ġne",
        "ed"
      ],
      [
        "qu",
        "oi"
      ],
      [
        "an",
        "ce"
      ],
      [
        "p",
        "our"
      ],
      [
        "Ġsom",
        "e"
      ],
      [
        "d",
        "ay"
      ],
      [
        "Ġsh",
        "ould"
      ],
      [
        "Ġwh",
        "y"
      ],
      [
        "is",
        "e"
      ],
      [
        "Ġv",
        "rai"
      ],
      [
        "ri",
        "ve"
      ],
      [
        "Ġc",
        "l"
      ],
      [
        "Ġp",
        "eux"
      ],
      [
        "as",
        "t"
      ],
      [
        "Ġj",
        "am"
      ],
      [
        "'",
        "d"
      ],
      [
        "Ġi",
        "l"
      ],
      [
        "Ġch",
        "ose"
      ],
      [
        "Ġbe",
        "au"
      ],
      [
        "a",
        "k"
      ],
      [
        "Ġh",
        "om"
      ],
      [
        "el",
        "les"
      ],
      [
        "Ġgo",
        "ing"
      ],
      [
        "Ġ",
        "es"
      ],
      [
        "he",
        "re"
      ],
      [
        "Ġ",
        "ent"
      ],
      [
        "ie",
        "z"
      ],
      [
        "Ġt",
        "ell"
      ],
      [
        "Ġet",
        "ait"
      ],
      [
        "Ġg",
        "ood"
      ],
      [
        "Ġt",
        "on"
      ],
      [
        "ion",
        "s"
      ],
      [
        "Ġa",
        "g"
      ],
      [
        "or",
        "te"
      ],
      [
        "Ġdi",
        "re"
      ],
      [
        "Ġjam",
        "ais"
      ],
      [
        "Ġhe",
        "l"
      ],
      [
        "Ġi",
        "ci"
      ],
      [
        "Ġre",
        "p"
      ],
      [
        "Ġcom",
        "e"
      ],
      [
        "Ġhel",
        "p"
      ],
      [
        "Ġc",
        "ette"
      ],
      [
        "Ġto",
        "o"
      ],
      [
        "t",
        "hing"
      ],
      [
        "a",
        "ble"
      ],
      [
        "Ġl",
        "ong"
      ],
      [
        "Ġfr",
        "om"
      ],
      [
        "Ġwor",
        "k"
      ],
      [
        "i",
        "le"
      ],
      [
        "el",
        "a"
      ],
      [
        "Ġtr",
        "ain"
      ],
      [
        "Ġwh",
        "en"
      ],
      [
        "Ġdo",
        "es"
      ],
      [
        "ie",
        "re"
      ],
      [
        "Ġb",
        "r"
      ],
      [
        "Ġb",
        "ien"
      ],
      [
        "e",
        "c"
      ],
      [
        "Ġb",
        "y"
      ],
      [
        "u",
        "it"
      ],
      [
        "Ġa",
        "i"
      ],
      [
        "ai",
        "r"
      ],
      [
        "e",
        "p"
      ],
      [
        "ar",
        "t"
      ],
      [
        "Ġtr",
        "av"
      ],
      [
        "or",
        "s"
      ],
      [
        "Ġa",
        "d"
      ],
      [
        "ay",
        "s"
      ],
      [
        "Ġc",
        "ont"
      ],
      [
        "i",
        "ce"
      ],
      [
        "Ġi",
        "mp"
      ],
      [
        "Ġt",
        "ro"
      ],
      [
        "c",
        "k"
      ],
      [
        "et",
        "e"
      ],
      [
        "Ġl",
        "o"
      ],
      [
        "ou",
        "ght"
      ],
      [
        "Ġth",
        "an"
      ],
      [
        "re",
        "e"
      ],
      [
        "Ġple",
        "ase"
      ],
      [
        "d",
        "y"
      ],
      [
        "ac",
        "k"
      ],
      [
        "Ġc",
        "ar"
      ],
      [
        "ai",
        "d"
      ],
      [
        "Ġvrai",
        "ment"
      ],
      [
        "Ġwh",
        "o"
      ],
      [
        "Ġde",
        "c"
      ],
      [
        "Ġc",
        "r"
      ],
      [
        "ri",
        "end"
      ],
      [
        "Ġv",
        "i"
      ],
      [
        "ave",
        "z"
      ],
      [
        "s",
        "t"
      ],
      [
        "a",
        "re"
      ],
      [
        "Ġp",
        "res"
      ],
      [
        "Ġp",
        "ers"
      ],
      [
        "s",
        "er"
      ],
      [
        "Ġw",
        "here"
      ],
      [
        "Ġs",
        "ais"
      ],
      [
        "Ġat",
        "t"
      ],
      [
        "n",
        "er"
      ],
      [
        "is",
        "t"
      ],
      [
        "Ġp",
        "er"
      ],
      [
        "Ġ",
        "ro"
      ],
      [
        "Ġsom",
        "et"
      ],
      [
        "Ġre",
        "ally"
      ],
      [
        "w",
        "n"
      ],
      [
        "a",
        "b"
      ],
      [
        "m",
        "oi"
      ],
      [
        "Ġm",
        "ore"
      ],
      [
        "Ġquel",
        "que"
      ],
      [
        "Ġf",
        "in"
      ],
      [
        "Ġt",
        "alk"
      ],
      [
        "is",
        "h"
      ],
      [
        "Ġbe",
        "en"
      ],
      [
        "Ġn",
        "ow"
      ],
      [
        "Ġli",
        "v"
      ],
      [
        "l",
        "er"
      ],
      [
        "au",
        "t"
      ],
      [
        "Ġs",
        "tu"
      ],
      [
        "i",
        "que"
      ],
      [
        "i",
        "f"
      ],
      [
        "Ġ",
        "or"
      ],
      [
        "se",
        "z"
      ],
      [
        "Ġg",
        "ot"
      ],
      [
        "Ġto",
        "i"
      ],
      [
        "l",
        "ais"
      ],
      [
        "Ġne",
        "ver"
      ],
      [
        "Ġs",
        "eu"
      ],
      [
        "pour",
        "quoi"
      ],
      [
        "Ġta",
        "ke"
      ],
      [
        "Ġof",
        "f"
      ],
      [
        "Ġpro",
        "ble"
      ],
      [
        "Ġb",
        "ut"
      ],
      [
        "d",
        "s"
      ],
      [
        "an",
        "de"
      ],
      [
        "Ġdi",
        "ff"
      ],
      [
        "b",
        "re"
      ],
      [
        "le",
        "ment"
      ],
      [
        "Ġb",
        "us"
      ],
      [
        "Ġb",
        "es"
      ],
      [
        "Ġs",
        "p"
      ],
      [
        "Ġsomet",
        "hing"
      ],
      [
        "u",
        "d"
      ],
      [
        "c",
        "on"
      ],
      [
        "Ġre",
        "g"
      ],
      [
        "et",
        "re"
      ],
      [
        "Ġbes",
        "oin"
      ],
      [
        "b",
        "e"
      ],
      [
        "Ġsom",
        "mes"
      ],
      [
        "Ġall",
        "er"
      ],
      [
        "Ġm",
        "u"
      ],
      [
        "c",
        "oup"
      ],
      [
        "Ġa",
        "f"
      ],
      [
        "Ġs",
        "pe"
      ],
      [
        "Ġm",
        "ain"
      ],
      [
        "an",
        "ge"
      ],
      [
        "Ġw",
        "r"
      ],
      [
        "or",
        "m"
      ],
      [
        "res",
        "s"
      ],
      [
        "le",
        "z"
      ],
      [
        "Ġf",
        "riend"
      ],
      [
        "Ġon",
        "t"
      ],
      [
        "Ġs",
        "ay"
      ],
      [
[...]
