{
  "version": "1.0",
  "truncation": null,
  "padding": null,
  "added_tokens": [
    {
      "id": 0,
      "content": "<pad>",
      "single_word": false,
      "lstrip": false,
      "rstrip": false,
      "normalized": false,
      "special": true
    },
    {
      "id": 1,
      "content": "<unk>",
      "single_word": false,
      "lstrip": false,
      "rstrip": false,
      "normalized": false,
      "special": true
    },
    {
      "id": 2,
      "content": "<bos>",
      "single_word": false,
      "lstrip": false,
      "rstrip": false,
      "normalized": false,
      "special": true
    },
    {
      "id": 3,
      "content": "<eos>",
      "single_word": false,
      "lstrip": false,
      "rstrip": false,
      "normalized": false,
      "special": true
    }
  ],
  "normalizer": {
    "type": "Sequence",
    "normalizers": [
      {
        "type": "NFD"
      },
      {
        "type": "StripAccents"
      },
      {
        "type": "Lowercase"
      },
      {
        "type": "NFC"
      }
    ]
  },
  "pre_tokenizer": {
    "type": "ByteLevel",
    "add_prefix_space": false,
    "trim_offsets": true,
    "use_regex": true
  },
  "post_processor": null,
  "decoder": null,
  "model": {
    "type": "BPE",
    "dropout": null,
    "unk_token": "<unk>",
    "continuing_subword_prefix": null,
    "end_of_word_suffix": null,
    "fuse_unk": false,
    "byte_fallback": false,
    "ignore_merges": false,
    "vocab": {
      "<pad>": 0,
      "<unk>": 1,
      "<bos>": 2,
      "<eos>": 3,
      "!": 4,
      "\"": 5,
      "$": 6,
      "%": 7,
      "&": 8,
      "'": 9,
      "(": 10,
      ")": 11,
      "+": 12,
      ",": 13,
      "-": 14,
      ".": 15,
      "/": 16,
      "0": 17,
      "1": 18,
      "2": 19,
      "3": 20,
      "4": 21,
      "5": 22,
      "6": 23,
      "7": 24,
      "8": 25,
      "9": 26,
      ":": 27,
      ";": 28,
      "?": 29,
      "a": 30,
      "b": 31,
      "c": 32,
      "d": 33,
      "e": 34,
      "f": 35,
      "g": 36,
      "h": 37,
      "i": 38,
      "j": 39,
      "k": 40,
      "l": 41,
      "m": 42,
      "n": 43,
      "o": 44,
      "p": 45,
      "q": 46,
      "r": 47,
      "s": 48,
      "t": 49,
      "u": 50,
      "v": 51,
      "w": 52,
      "x": 53,
      "y": 54,
      "z": 55,
      "~": 56,
      "¦": 57,
      "«": 58,
      "¬": 59,
      "¯": 60,
      "°": 61,
      "»": 62,
      "½": 63,
      "Â": 64,
      "Å": 65,
      "Ð": 66,
      "Ñ": 67,
      "â": 68,
      "ã": 69,
      "ĉ": 70,
      "Ċ": 71,
      "Ġ": 72,
      "Ģ": 73,
      "ģ": 74,
      "Ĥ": 75,
      "ī": 76,
      "ĭ": 77,
      "Ĳ": 78,
      "ĵ": 79,
      "ĺ": 80,
      "Ļ": 81,
      "ł": 82,
      "Ń": 83,
      "Ġt": 84,
      "ou": 85,
      "re": 86,
      "Ġa": 87,
      "Ġd": 88,
      "Ġp": 89,
      "Ġs": 90,
      "es": 91,
      "en": 92,
      "on": 93,
      "is": 94,
      "he": 95,
      "Ġl": 96,
      "Ġc": 97,
      "Ġm": 98,
      "in": 99,
      "er": 100,
      "it": 101,
      "an": 102,
      "Ġn": 103,
      "qu": 104,
      "Ġw": 105,
      "Ġf": 106,
      "le": 107,
      "you": 108,
      "as": 109,
      "om": 110,
      "Ġb": 111,
      "Ġv": 112,
      "Ġde": 113,
      "il": 114,
      "at": 115,
      "et": 116,
      "Ġyou": 117,
      "Ġto": 118,
      "Ġh": 119,
      "ous": 120,
      "je": 121,
      "ar": 122,
      "Ġqu": 123,
      "ve": 124,
      "or": 125,
      "ent": 126,
      "el": 127,
      "ai": 128,
      "un": 129,
      "Ġthe": 130,
      "est": 131,
      "ing": 132,
      "Ġg": 133,
      "Ġpas": 134,
      "ed": 135,
      "Ġth": 136,
      "ais": 137,
      "us": 138,
      "Ġne": 139,
      "Ġre": 140,
      "ot": 141,
      "Ġme": 142,
      "eu": 143,
      "our": 144,
      "'t": 145,
      "Ġque": 146,
      "Ġi": 147,
      "Ġun": 148,
      "te": 149,
      "Ġo": 150,
      "Ġla": 151,
      "al": 152,
      "Ġle": 153,
      "se": 154,
      "ri": 155,
      "oi": 156,
      "Ġ?": 157,
      "ce": 158,
      "Ġsu": 159,
      "ant": 160,
      "ait": 161,
      "Ġe": 162,
      "ow": 163,
      "me": 164,
      "Ġhe": 165,
      "Ġin": 166,
      "Ġj": 167,
      "Ġen": 168,
      "Ġha": 169,
      "tu": 170,
      "Ġet": 171,
      "ro": 172,
      "ie": 173,
      "Ġis": 174,
      "ay": 175,
      "Ġbe": 176,
      "id": 177,
      "out": 178,
      "res": 179,
      "tom": 180,
      "ion": 181,
      "Ġdo": 182,
      "Ġof": 183,
      "au": 184,
      "Ġvous": 185,
      "ment": 186,
      "Ġan": 187,
      "vous": 188,
      "ra": 189,
      "Ġest": 190,
      "Ġch": 191,
      "ll": 192,
      "ke": 193,
      "'s": 194,
      "the": 195,
      "elle": 196,
      "ld": 197,
      "Ġli": 198,
      "ne": 199,
      "Ġse": 200,
      "ver": 201,
      "ont": 202,
      "hat": 203,
      "ch": 204,
      "de": 205,
      "pp": 206,
      "Ġpl": 207,
      "Ġpar": 208,
      "Ġte": 209,
      "Ġcom": 210,
      "Ġfor": 211,
      "mp": 212,
      "Ġce": 213,
      "Ġit": 214,
      "ir": 215,
      "oo": 216,
      "ic": 217,
      "Ġthat": 218,
      "gh": 219,
      "eux": 220,
      "Ġon": 221,
      "ge": 222,
      "ut": 223,
      "ons": 224,
      "os": 225,
      "Ġdon": 226,
      "Ġwas": 227,
      "Ġhave": 228,
      "Ġpour": 229,
      "ain": 230,
      "ter": 231,
      "ren": 232,
      "Ġk": 233,
      "end": 234,
      "Ġje": 235,
      "Ġnot": 236,
      "les": 237,
      "que": 238,
      "Ġtom": 239,
      "ble": 240,
      "ac": 241,
      "Ġas": 242,
      "Ġyour": 243,
      "Ġune": 244,
      "im": 245,
      "ould": 246,
      "am": 247,
      "âĢ": 248,
      "Ġwe": 249,
      "Ġwant": 250,
      "her": 251,
      "ly": 252,
      "ur": 253,
      "aire": 254,
      "ght": 255,
      "pe": 256,
      "Ġcan": 257,
      "Ġst": 258,
      "ien": 259,
      "ans": 260,
      "Ġca": 261,
      "Ġsuis": 262,
      "we": 263,
      "th": 264,
      "and": 265,
      "Ġgo": 266,
      "ill": 267,
      "Ġdes": 268,
      "Ġau": 269,
      "Ġthis": 270,
      "'m": 271,
      "Ġall": 272,
      "Ġles": 273,
      "Ġso": 274,
      "Ġmy": 275,
      "âĢ¯": 276,
      "ore": 277,
      "'re": 278,
      "nous": 279,
      "oir": 280,
      "she": 281,
      "Ġat": 282,
      "Ġma": 283,
      "ure": 284,
      "Ġpro": 285,
      "Ġtu": 286,
      "ad": 287,
      "ci": 288,
      "now": 289,
      "Ġy": 290,
      "Ġmon": 291,
      "ith": 292,
      "av": 293,
      "Ġwith": 294,
      "Ġ!": 295,
      "Ġsom": 296,
      "Ġdid": 297,
      "ers": 298,
      "Ġdi": 299,
      "Ġknow": 300,
      "Ġav": 301,
      "ite": 302,
      "Ġtra": 303,
      "Ġlike": 304,
      "Ġtr": 305,
      "Ġmar": 306,
      "Ġave": 307,
      "Ġfaire": 308,
      "Ġare": 309,
      "Ġcon": 310,
      "ille": 311,
      "ui": 312,
      "Ġsh": 313,
      "Ġr": 314,
      "Ġpen": 315,
      "ust": 316,
      "ave": 317,
      "ink": 318,
      "ct": 319,
      "ff": 320,
      "Ġdans": 321,
      "ard": 322,
      "Ġnous": 323,
      "Ġdu": 324,
      "Ġhim": 325,
      "ose": 326,
      "Ġal": 327,
      "Ġplus": 328,
      "Ġsur": 329,
      "Ġam": 330,
      "Ġsi": 331,
      "Ġab": 332,
      "Ġex": 333,
      "ook": 334,
      "are": 335,
      "Ġman": 336,
      "ort": 337,
      "Ġri": 338,
      "one": 339,
      "ell": 340,
      "Ġwhat": 341,
      "Ġti": 342,
      "Ġfait": 343,
      "Ġar": 344,
      "Ġta": 345,
      "Ġhis": 346,
      "si": 347,
      "Ġwh": 348,
      "oin": 349,
      "ess": 350,
      "Ġver": 351,
      "Ġpre": 352,
      "ol": 353,
      "Ġtout": 354,
      "Ġveux": 355,
      "ag": 356,
      "do": 357,
      "Ġany": 358,
      "what": 359,
      "Ġthink": 360,
      "ue": 361,
      "com": 362,
      "up": 363,
      "Ġwor": 364,
      "ils": 365,
      "ation": 366,
      "Ġfr": 367,
      "la": 368,
      "ig": 369,
      "che": 370,
      "ul": 371,
      "rai": 372,
      "all": 373,
      "Ġres": 374,
      "ong": 375,
      "eur": 376,
      "wh": 377,
      "Ġavec": 378,
      "ine": 379,
      "Ġdev": 380,
      "age": 381,
      "Ġqui": 382,
      "they": 383,
      "Ġdis": 384,
      "Ġsa": 385,
      "ier": 386,
      "Ġpr": 387,
      "ois": 388,
      "op": 389,
      "dre": 390,
      "ette": 391,
      "Ġcomp": 392,
      "Ġquel": 393,
      "ouve": 394,
      "use": 395,
      "ate": 396,
      "Ġpart": 397,
      "don": 398,
      "Ġget": 399,
      "'ll": 400,
      "if": 401,
      "mps": 402,
      "Ġabout": 403,
      "ux": 404,
      "mes": 405,
      "Ġtime": 406,
      "Ġand": 407,
      "Ġson": 408,
      "ood": 409,
      "ouv": 410,
      "ez": 411,
      "Ġout": 412,
      "Ġher": 413,
      "Ġup": 414,
      "otre": 415,
      "Ġsont": 416,
      "oy": 417,
      "Ġpeu": 418,
      "ten": 419,
      "Ġren": 420,
      "Ġhere": 421,
      "ind": 422,
      "Ġlui": 423,
      "Ġpense": 424,
      "aut": 425,
      "Ġvery": 426,
      "mer": 427,
      "Ġapp": 428,
      "how": 429,
      "Ġfe": 430,
      "Ġsee": 431,
      "ang": 432,
      "Ġhad": 433,
      "'ve": 434,
      "cc": 435,
      "Ġwill": 436,
      "uis": 437,
      "Ġser": 438,
      "ry": 439,
      "Ġus": 440,
      "rent": 441,
      "ap": 442,
      "Ġra": 443,
      "ally": 444,
      "onne": 445,
      "Ġdem": 446,
      "ours": 447,
      "very": 448,
      "ase": 449,
      "Ġpe": 450,
      "ive": 451,
      "Ġdidn": 452,
      "Ġmais": 453,
      "ole": 454,
      "this": 455,
      "Ġvou": 456,
      "Ġetre": 457,
      "Ġtemps": 458,
      "ven": 459,
      "ide": 460,
      "Ġvotre": 461,
      "Ġhapp": 462,
      "hing": 463,
      "Ġhas": 464,
      "ost": 465,
      "that": 466,
      "Ġtres": 467,
      "Ġjust": 468,
      "oup": 469,
      "ens": 470,
      "Ġete": 471,
      "rais": 472,
      "Ġdit": 473,
      "Ġtou": 474,
      "other": 475,
      "Ġwere": 476,
      "alk": 477,
      "ca": 478,
      "oun": 479,
      "ight": 480,
      "mb": 481,
      "here": 482,
      "Ġmoi": 483,
      "Ġetes": 484,
      "une": 485,
      "Ġou": 486,
      "st": 487,
      "Ġneed": 488,
      "quoi": 489,
      "ance": 490,
      "pour": 491,
      "day": 492,
      "Ġche": 493,
      "Ġgr": 494,
      "Ġone": 495,
      "Ġvrai": 496,
      "va": 497,
      "rive": 498,
      "ast": 499,
      "Ġpeux": 500,
      "Ġno": 501,
      "Ġmary": 502,
      "Ġjam": 503,
      "Ġlook": 504,
      "fe": 505,
      "Ġshould": 506,
      "'d": 507,
      "Ġcl": 508,
      "Ġchose": 509,
      "ak": 510,
      "Ġhom": 511,
      "elles": 512,
      "ise": 513,
      "Ġes": 514,
      "Ġgoing": 515,
      "Ġent": 516,
      "iez": 517,
      "Ġetait": 518,
      "Ġton": 519,
      "ions": 520,
      "orte": 521,
      "Ġag": 522,
      "thing": 523,
      "Ġdire": 524,
      "Ġgood": 525,
      "Ġjamais": 526,
      "Ġici": 527,
      "lp": 528,
      "Ġcette": 529,
      "able": 530,
      "Ġrep": 531,
      "Ġtoo": 532,
      "ile": 533,
      "ela": 534,
      "my": 535,
      "Ġtrain": 536,
      "Ġwork": 537,
      "ck": 538,
      "Ġlong": 539,
      "be": 540,
      "iere": 541,
      "Ġbien": 542,
      "Ġthere": 543,
      "ep": 544,
      "air": 545,
      "Ġfrom": 546,
      "uit": 547,
      "Ġhelp": 548,
      "Ġai": 549,
      "ec": 550,
      "Ġtrava": 551,
      "ors": 552,
      "ays": 553,
      "Ġcont": 554,
      "ice": 555,
      "Ġwould": 556,
      "Ġby": 557,
      "Ġimp": 558,
      "Ġtro": 559,
      "Ġil": 560,
      "Ġcar": 561,
      "ete": 562,
      "Ġcould": 563,
      "ought": 564,
      "Ġsome": 565,
      "lease": 566,
      "ree": 567,
      "dy": 568,
      "ist": 569,
      "Ġlo": 570,
      "red": 571,
      "Ġvraiment": 572,
      "Ġdec": 573,
      "riend": 574,
      "app": 575,
      "Ġtell": 576,
      "avez": 577,
      "Ġvi": 578,
      "aid": 579,
      "ser": 580,
      "Ġpres": 581,
      "Ġpers": 582,
      "Ġsais": 583,
      "ner": 584,
      "Ġcome": 585,
      "Ġatt": 586,
      "Ġad": 587,
      "Ġevery": 588,
      "let": 589,
      "ack": 590,
      "Ġreally": 591,
      "Ġbr": 592,
      "Ġper": 593,
      "Ġro": 594,
      "moi": 595,
      "art": 596,
      "Ġquelque": 597,
      "Ġbeau": 598,
      "ish": 599,
      "Ġbeen": 600,
      "Ġmore": 601,
      "Ġtalk": 602,
      "Ġfin": 603,
      "ler": 604,
      "Ġliv": 605,
      "Ġdoes": 606,
      "ique": 607,
      "sez": 608,
      "Ġor": 609,
      "Ġtoi": 610,
      "lais": 611,
      "Ġstu": 612,
      "Ġgot": 613,
      "Ġseu": 614,
      "pourquoi": 615,
      "why": 616,
      "con": 617,
      "ob": 618,
      "Ġoff": 619,
      "Ġif": 620,
      "Ġproble": 621,
      "Ġthan": 622,
      "ds": 623,
      "Ġsomet": 624,
      "ab": 625,
      "ett": 626,
      "Ġbut": 627,
      "ande": 628,
      "Ġnever": 629,
      "Ġdiff": 630,
      "Ġnow": 631,
      "lement": 632,
      "ud": 633,
      "Ġbes": 634,
      "bre": 635,
      "Ġbus": 636,
      "etre": 637,
      "Ġreg": 638,
      "Ġbesoin": 639,
      "Ġsommes": 640,
      "Ġaller": 641,
      "coup": 642,
      "Ġsp": 643,
      "Ġmain": 644,
      "Ġmu": 645,
      "ange": 646,
      "ress": 647,
      "orm": 648,
      "Ġont": 649,
      "there": 650,
      "Ġfriend": 651,
      "Ġhome": 652,
      "Ġspe": 653,
      "Ġshe": 654,
      "Ġsomething": 655,
      "rit": 656,
      "lez": 657,
      "Ġtous": 658,
      "Ġjus": 659,
      "ass": 660,
      "oit": 661,
      "Ġmuch": 662,
      "comment": 663,
      "Ġsay": 664,
      "gent": 665,
      "Ġcela": 666,
      "ound": 667,
      "Ġder": 668,
      "Ġpren": 669,
      "can": 670,
      "Ġsav": 671,
      "sel": 672,
      "iss": 673,
      "Ġco": 674,
      "Ġmat": 675,
      "Ġfeel": 676,
      "Ġright": 677,
      "ather": 678,
      "Ġpeut": 679,
      "Ġbeaucoup": 680,
      "Ġavez": 681,
      "Ġmal": 682,
      "etter": 683,
      "Ġaut": 684,
      "Ġask": 685,
      "bl": 686,
      "Ġcomm": 687,
      "Ġaf": 688,
      "Ġint": 689,
      "Ġavons": 690,
      "rer": 691,
      "Ġfer": 692,
      "ies": 693,
      "Ġven": 694,
      "Âł": 695,
      "Ġnew": 696,
      "oire": 697,
      "Ġmake": 698,
      "Ġhappen": 699,
      "Ġeat": 700,
      "anc": 701,
      "ient": 702,
      "Ġhow": 703,
      "Ġparler": 704,
      "etes": 705,
      "du": 706,
      "Ġexp": 707,
      "Ġquest": 708,
      "ants": 709,
      "ger": 710,
      "Ġpens": 711,
      "Ġmaison": 712,
      "Ġlit": 713,
      "ace": 714,
      "aime": 715,
      "Ġthought": 716,
      "Ġread": 717,
      "Ġtrop": 718,
      "did": 719,
      "quel": 720,
      "Ġenc": 721,
      "Ġtake": 722,
      "ick": 723,
      "Ġmes": 724,
      "Ġsure": 725,
      "self": 726,
      "Ġjour": 727,
      "Ġnouve": 728,
      "Ġbook": 729,
      "Ġquoi": 730,
      "ence": 731,
      "Ġbon": 732,
      "Ġsupp": 733,
      "Ġheure": 734,
      "Ġwhen": 735,
      "ante": 736,
      "Ġrien": 737,
      "Ġret": 738,
      "Ġvoir": 739,
      "ey": 740,
      "Ġbel": 741,
      "where": 742,
      "Ġback": 743,
      "Ġmoney": 744,
      "ody": 745,
      "Ġthey": 746,
      "Ġpos": 747,
      "Ġdeux": 748,
      "Ġpri": 749,
      "qui": 750,
      "iens": 751,
      "ting": 752,
      "ert": 753,
      "Ġfaut": 754,
      "ool": 755,
      "Ġpouv": 756,
      "no": 757,
      "Ġbu": 758,
      "pt": 759,
      "Ġmonde": 760,
      "jours": 761,
      "Ġcr": 762,
      "Ġtoujours": 763,
      "Ġeu": 764,
      "asse": 765,
      "Ġvoit": 766,
      "Ġdep": 767,
      "Ġide": 768,
      "Ġec": 769,
      "get": 770,
      "Ġencore": 771,
      "Ġlove": 772,
      "Ġanything": 773,
      "Ġlast": 774,
      "Ġva": 775,
      "ild": 776,
      "ussi": 777,
      "tout": 778,
      "Ġsoit": 779,
      "ars": 780,
      "Ġwon": 781,
      "mon": 782,
      "ried": 783,
      "Ġday": 784,
      "Ġacc": 785,
      "ough": 786,
      "aimer": 787,
      "Ġenf": 788,
      "Ġans": 789,
      "etait": 790,
      "own": 791,
      "ret": 792,
      "Ġcons": 793,
      "Ġdr": 794,
      "ques": 795,
      "Ġph": 796,
      "ople": 797,
      "bien": 798,
      "ouse": 799,
      "Ġmust": 800,
      "ord": 801,
      "Ġsm": 802,
      "Ġagain": 803,
      "Ġwat": 804,
      "Ġcomme": 805,
      "Ġvie": 806,
      "Ġpasse": 807,
      "ident": 808,
      "aine": 809,
      "Ġavoir": 810,
      "ris": 811,
      "Ġthing": 812,
      "ieve": 813,
      "Ġmade": 814,
      "Ġlais": 815,
      "Ġwr": 816,
      "ire": 817,
      "please": 818,
      "Ġvoiture": 819,
      "gn": 820,
      "att": 821,
      "Ġund": 822,
      "Ġsem": 823,
      "Ġgu": 824,
      "ures": 825,
      "ese": 826,
      "Ġtele": 827,
      "ign": 828,
      "Ġway": 829,
      "Ġfais": 830,
      "Ġarrive": 831,
      "Ġap": 832,
      "rait": 833,
      "Ġke": 834,
      "aient": 835,
      "riez": 836,
      "Ġac": 837,
      "Ġpet": 838,
      "Ġvis": 839,
      "ves": 840,
      "Ġdoesn": 841,
      "aimerais": 842,
      "um": 843,
      "Ġpa": 844,
      "Ġple": 845,
      "Ġbl": 846,
      "Ġconn": 847,
      "ieux": 848,
      "argent": 849,
      "Ġgrand": 850,
      "Ġtravail": 851,
      "Ġmont": 852,
      "Ġwent": 853,
      "row": 854,
      "Ġfois": 855,
      "Ġsou": 856,
      "Ġvu": 857,
      "di": 858,
      "Ġlot": 859,
      "Ġnom": 860,
      "Ġmo": 861,
      "ouvez": 862,
      "Ġwho": 863,
      "ning": 864,
      "Ġold": 865,
      "Ġspeak": 866,
      "cher": 867,
      "Ġses": 868,
      "Ġfu": 869,
      "Ġjap": 870,
      "Ġcare": 871,
      "Ġprop": 872,
      "Ġbelieve": 873,
      "Ġten": 874,
      "Ġtold": 875,
      "jour": 876,
      "Ġdois": 877,
      "ma": 878,
      "ted": 879,
      "Ġvais": 880,
      "Ġpeople": 881,
      "cont": 882,
      "Ġtw": 883,
      "Ġsent": 884,
      "etais": 885,
      "Ġaussi": 886,
      "Ġthem": 887,
      "Ġpris": 888,
      "anger": 889,
      "ph": 890,
      "Ġsimp": 891,
      "Ġjuste": 892,
      "have": 893,
      "Ġcour": 894,
      "tenant": 895,
      "Ġover": 896,
      "iz": 897,
      "Ġfam": 898,
      "ote": 899,
      "Ġter": 900,
      "Åĵ": 901,
      "Ġbetter": 902,
      "Ġpol": 903,
      "Ġhouse": 904,
      "Ġinte": 905,
      "per": 906,
      "Ġavait": 907,
      "Ġporte": 908,
      "Ġvoul": 909,
      "ex": 910,
      "oute": 911,
      "Ġmin": 912,
      "ach": 913,
      "Ġaw": 914,
      "Ġsaid": 915,
      "Ġye": 916,
      "mber": 917,
      "Ġdown": 918,
      "Ġpu": 919,
      "Ġmom": 920,
      "Ġhappy": 921,
      "body": 922,
      "ouver": 923,
      "endre": 924,
      "Ġjob": 925,
      "fore": 926,
      "Ġdiffic": 927,
      "essay": 928,
      "Ġjou": 929,
      "Ġnight": 930,
      "Ġplait": 931,
      "tle": 932,
      "Ġchez": 933,
      "Ġmeme": 934,
      "orrow": 935,
      "chool": 936,
      "Ġplan": 937,
      "Ġpret": 938,
      "Ġprom": 939,
      "Ġstill": 940,
      "hui": 941,
      "Ġbefore": 942,
      "Ġcha": 943,
      "ways": 944,
      "Ġonly": 945,
      "ces": 946,
      "ary": 947,
      "Ġhard": 948,
      "Ġveu": 949,
      "Ġstay": 950,
      "Ġrec": 951,
      "Ġchild": 952,
      "Ġmany": 953,
      "Ġhand": 954,
      "ettre": 955,
      "Ġpensais": 956,
      "Ġalways": 957,
      "jourd": 958,
      "Ġsort": 959,
      "Ġdern": 960,
      "Ġfac": 961,
      "Ġmaintenant": 962,
      "Ġfl": 963,
      "ity": 964,
      "ft": 965,
      "Ġschool": 966,
      "Ġplay": 967,
      "nee": 968,
      "Ġroom": 969,
      "Ġref": 970,
      "rents": 971,
      "ester": 972,
      "hed": 973,
      "ful": 974,
      "ction": 975,
      "Ġperson": 976,
      "Ġmoment": 977,
      "ake": 978,
      "Ġim": 979,
      "ame": 980,
      "âĢĻ": 981,
      "erst": 982,
      "Ġdisp": 983,
      "ention": 984,
      "Ġdemande": 985,
      "Ġlivre": 986,
      "Ġtoday": 987,
      "kes": 988,
      "Ġho": 989,
      "Ġinv": 990,
      "led": 991,
      "reat": 992,
      "Ġwell": 993,
      "ek": 994,
      "Ġour": 995,
      "Ġhier": 996,
      "aux": 997,
      "endu": 998,
      "Ġocc": 999,
      "ty": 1000,
      "ely": 1001,
      "Ġpere": 1002,
      "vers": 1003,
      "itu": 1004,
      "Ġlittle": 1005,
      "ja": 1006,
      "ros": 1007,
      "Ġdet": 1008,
      "Ġafter": 1009,
      "Ġsurp": 1010,
      "Ġdeja": 1011,
      "Ġtry": 1012,
      "Ġalone": 1013,
      "Ġquestion": 1014,
      "Ġpay": 1015,
      "Ġgive": 1016,
      "Ġwait": 1017,
      "oston": 1018,
      "Ġseul": 1019,
      "esterday": 1020,
      "gl": 1021,
      "Ġboston": 1022,
      "Ġsouv": 1023,
      "Ġsec": 1024,
      "who": 1025,
      "Ġtoutes": 1026,
      "Ġweek": 1027,
      "Ġmieux": 1028,
      "Ġlive": 1029,
      "Ġtrouve": 1030,
      "Ġemp": 1031,
      "Ġparents": 1032,
      "ente": 1033,
      "vis": 1034,
      "Ġprendre": 1035,
      "Ġelle": 1036,
      "Ġwhere": 1037,
      "Ġrem": 1038,
      "Ġunderst": 1039,
      "Ġdisc": 1040,
      "Ġfather": 1041,
      "Ġop": 1042,
      "Ġleave": 1043,
      "avais": 1044,
      "every": 1045,
      "ider": 1046,
      "Ġdoing": 1047,
      "arde": 1048,
      "Ġhappened": 1049,
      "cle": 1050,
      "Ġdog": 1051,
      "oint": 1052,
      "leep": 1053,
      "acc": 1054,
      "ned": 1055,
      "Ġaujourd": 1056,
      "Ġother": 1057,
      "arrive": 1058,
      "Ġgl": 1059,
      "Ġear": 1060,
      "Ġrencont": 1061,
      "Ġyesterday": 1062,
      "ult": 1063,
      "king": 1064,
      "Ġplease": 1065,
      "Ġsc": 1066,
      "Ġput": 1067,
      "Ġfut": 1068,
      "Ġassez": 1069,
      "ition": 1070,
      "Ġmarie": 1071,
      "Ġpersonne": 1072,
      "Ġhur": 1073,
      "pect": 1074,
      "ture": 1075,
      "Ġproblem": 1076,
      "Ġfind": 1077,
      "when": 1078,
      "Ġtwo": 1079,
      "uss": 1080,
      "Ġfriends": 1081,
      "Ġleft": 1082,
      "Ġsimplement": 1083,
      "pers": 1084,
      "avant": 1085,
      "Ġconf": 1086,
      "Ġsaw": 1087,
      "xt": 1088,
      "ins": 1089,
      "Ġinto": 1090,
      "Ġdrink": 1091,
      "Ġunderstand": 1092,
      "der": 1093,
      "Ġbonne": 1094,
      "Ġsans": 1095,
      "Ġenough": 1096,
      "ache": 1097,
      "nes": 1098,
      "Ġache": 1099,
      "ellement": 1100,
      "int": 1101,
      "Ġgens": 1102,
      "Ġparle": 1103,
      "Ġdevrais": 1104,
      "orry": 1105,
      "Ġwanted": 1106,
      "Ġcompren": 1107,
      "Ġtomorrow": 1108,
      "pere": 1109,
      "Ġmeet": 1110,
      "personne": 1111,
      "combien": 1112,
      "iv": 1113,
      "Ġcall": 1114,
      "Ġever": 1115,
      "Ġmet": 1116,
      "Ġavant": 1117,
      "Ġaux": 1118,
      "ager": 1119,
      "ated": 1120,
      "puis": 1121,
      "Ġsens": 1122,
      "illes": 1123,
      "read": 1124,
      "Ġlet": 1125,
      "Ġstart": 1126,
      "Ġseem": 1127,
      "Ġexc": 1128,
      "Ġtoute": 1129,
      "Ġsavoir": 1130,
      "Ġend": 1131,
      "Ġdemain": 1132,
      "cette": 1133,
      "li": 1134,
      "Ġces": 1135,
      "Ġquand": 1136,
      "Ġleur": 1137,
      "iller": 1138,
      "Ġrais": 1139,
      "Ġnuit": 1140,
      "Ġcle": 1141,
      "oses": 1142,
      "sible": 1143,
      "par": 1144,
      "jet": 1145,
      "tement": 1146,
      "Ġmanger": 1147,
      "Ġrest": 1148,
      "Ġprobleme": 1149,
      "irl": 1150,
      "arre": 1151,
      "Ġetud": 1152,
      "Ġasked": 1153,
      "Ġdin": 1154,
      "Ġmor": 1155,
      "son": 1156,
      "Ġconnais": 1157,
      "Ġtot": 1158,
      "Ġenfants": 1159,
      "Ġaff": 1160,
      "Ġfo": 1161,
      "Ġcat": 1162,
      "Ġmay": 1163,
      "Ġeverything": 1164,
      "vent": 1165,
      "Ġaway": 1166,
      "som": 1167,
      "rez": 1168,
      "Ġpartir": 1169,
      "quelle": 1170,
      "autre": 1171,
      "Ġlis": 1172,
      "Ġmus": 1173,
      "Ġapres": 1174,
      "Ġinteres": 1175,
      "Ġplace": 1176,
      "irst": 1177,
      "Ġconc": 1178,
      "upe": 1179,
      "Ġimport": 1180,
      "Ġmed": 1181,
      "Ġgirl": 1182,
      "uses": 1183,
      "ount": 1184,
      "Ġsoir": 1185,
      "Ġreme": 1186,
      "wn": 1187,
      "Ġheures": 1188,
      "Ġdone": 1189,
      "ecole": 1190,
      "Ġpi": 1191,
      "Ġfun": 1192,
      "ents": 1193,
      "oth": 1194,
      "Ġpie": 1195,
      "Ġnotre": 1196,
      "Ġwalk": 1197,
      "Ġpetit": 1198,
      "Ġalle": 1199,
      "Ġtur": 1200,
      "Ġwhy": 1201,
      "ici": 1202,
      "Ġbuy": 1203,
      "Ġpouvez": 1204,
      "Ġcro": 1205,
      "Ġdemand": 1206,
      "Ġtes": 1207,
      "Ġcoup": 1208,
      "fait": 1209,
      "Ġdiffe": 1210,
      "Ġlate": 1211,
      "Ġfre": 1212,
      "acher": 1213,
      "Ġpoint": 1214,
      "Ġgen": 1215,
      "Ġmere": 1216,
      "Ġchien": 1217,
      "Ġcomment": 1218,
      "vie": 1219,
      "og": 1220,
      "Ġpo": 1221,
      "Ġpuis": 1222,
      "Ġrepon": 1223,
      "Ġisn": 1224,
      "auv": 1225,
      "would": 1226,
      "Ġnext": 1227,
      "Ġcal": 1228,
      "Ġcert": 1229,
      "Ġceci": 1230,
      "Ġhope": 1231,
      "Ġdoor": 1232,
      "ense": 1233,
      "Ġtable": 1234,
      "ade": 1235,
      "ee": 1236,
      "Ġauc": 1237,
      "ute": 1238,
      "Ġsorry": 1239,
      "Ġremember": 1240,
      "Ġbeing": 1241,
      "Ġ1": 1242,
      "Ġvenir": 1243,
      "Ġeven": 1244,
      "Ġchange": 1245,
      "Åĵur": 1246,
      "cie": 1247,
      "imes": 1248,
      "Ġshow": 1249,
      "yez": 1250,
      "Ġang": 1251,
      "Ġrapp": 1252,
      "Ġfirst": 1253,
      "Ġhear": 1254,
      "Ġfort": 1255,
      "ites": 1256,
      "ank": 1257,
      "Ġbou": 1258,
      "Ġvos": 1259,
      "Ġcond": 1260,
      "his": 1261,
      "Ġcroire": 1262,
      "Ġwrong": 1263,
      "Ġmind": 1264,
      "Ġsleep": 1265,
      "come": 1266,
      "veux": 1267,
      "Ġass": 1268,
      "Ġteleph": 1269,
      "Ġpass": 1270,
      "Ġfem": 1271,
      "leur": 1272,
      "Ġengl": 1273,
      "Ġprof": 1274,
      "Ġmot": 1275,
      "erre": 1276,
      "Ġcher": 1277,
      "Ġmoin": 1278,
      "act": 1279,
      "min": 1280,
      "Ġconse": 1281,
      "Ġnu": 1282,
      "Ġkind": 1283,
      "Ġtrois": 1284,
      "Ġanyone": 1285,
      "Ġrendre": 1286,
      "Ġkeep": 1287,
      "Ġel": 1288,
      "Ġbo": 1289,
      "Ġpourquoi": 1290,
      "Ġbusy": 1291,
      "Ġregard": 1292,
      "Ġessay": 1293,
      "Ġmother": 1294,
      "Ġfranc": 1295,
      "Ġlors": 1296,
      "Ġdesole": 1297,
      "Ġchoses": 1298,
      "ict": 1299,
      "Ġphot": 1300,
      "Ġfat": 1301,
      "ches": 1302,
      "Ġvoulais": 1303,
      "Ġgar": 1304,
      "rench": 1305,
      "Ġaime": 1306,
      "Ġsuppose": 1307,
      "Ġdro": 1308,
      "Ġvoulez": 1309,
      "Ġdou": 1310,
      "Ġquelques": 1311,
      "man": 1312,
      "ience": 1313,
      "Ġlife": 1314,
      "endant": 1315,
      "Ġpat": 1316,
      "Ġfille": 1317,
      "Ġnouveau": 1318,
      "wer": 1319,
      "Ġdur": 1320,
      "Ġveut": 1321,
      "Ġfrancais": 1322,
      "Ġnothing": 1323,
      "Ġexpl": 1324,
      "Ġcor": 1325,
      "Ġbed": 1326,
      "ory": 1327,
      "Ġteacher": 1328,
      "Ġsemble": 1329,
      "Ġfrench": 1330,
      "Ġele": 1331,
      "Ġcou": 1332,
      "Ġtheir": 1333,
      "Ġthings": 1334,
      "Ġob": 1335,
      "Ġsoon": 1336,
      "Ġprie": 1337,
      "Ġderniere": 1338,
      "Ġboy": 1339,
      "Ġpain": 1340,
      "ister": 1341,
      "Ġcame": 1342,
      "ious": 1343,
      "Ġuse": 1344,
      "Ġage": 1345,
      "espere": 1346,
      "Ġheard": 1347,
      "Ġmange": 1348,
      "aider": 1349,
      "Ġsw": 1350,
      "Ġprem": 1351,
      "Ġtook": 1352,
      "Ġsat": 1353,
      "Ġlu": 1354,
      "Ġgave": 1355,
      "Ġchance": 1356,
      "ets": 1357,
      "Ġyet": 1358,
      "Ġwithout": 1359,
      "Ġlaisse": 1360,
      "ats": 1361,
      "Ġthree": 1362,
      "nez": 1363,
      "Ġseen": 1364,
      "Ġjapon": 1365,
      "des": 1366,
      "Ġcra": 1367,
      "Ġcouldn": 1368,
      "Ġbad": 1369,
      "Ġrester": 1370,
      "Ġraison": 1371,
      "Ġlost": 1372,
      "Ġtrouver": 1373,
      "Ġaccident": 1374,
      "Ġvoy": 1375,
      "temps": 1376,
      "Ġbeca": 1377,
      "Ġwatch": 1378,
      "Ġlang": 1379,
      "Ġbig": 1380,
      "Ġopen": 1381,
      "ving": 1382,
      "cela": 1383,
      "quand": 1384,
      "Ġhot": 1385,
      "Ġoccupe": 1386,
      "ince": 1387,
      "Ġfi": 1388,
      "Ġenglish": 1389,
      "Ġsait": 1390,
      "ily": 1391,
      "Ġbeg": 1392,
      "Ġheureux": 1393,
      "Ġpolice": 1394,
      "Ġyears": 1395,
      "Ġsho": 1396,
      "Ġidea": 1397,
      "Ġeff": 1398,
      "Ġense": 1399,
      "utes": 1400,
      "Ġquestions": 1401,
      "Ġhab": 1402,
      "avoir": 1403,
      "Ġquelqu": 1404,
      "Ġname": 1405,
      "Ġfound": 1406,
      "imp": 1407,
      "Ġlun": 1408,
      "Ġjours": 1409,
      "Ġdeb": 1410,
      "Ġarri": 1411,
      "Ġused": 1412,
      "Ġchildren": 1413,
      "ork": 1414,
      "Ġsurpris": 1415,
      "Ġins": 1416,
      "Ġmiss": 1417,
      "Ġwish": 1418,
      "Ġentendu": 1419,
      "Ġtelephone": 1420,
      "Ġpropos": 1421,
      "Ġmort": 1422,
      "Ġquit": 1423,
      "Ġseule": 1424,
      "Ġwater": 1425,
      "eau": 1426,
      "your": 1427,
      "quer": 1428,
      "Ġreal": 1429,
      "aurais": 1430,
      "ments": 1431,
      "Ġappre": 1432,
      "Ġviv": 1433,
      "ready": 1434,
      "Ġcham": 1435,
      "Ġalready": 1436,
      "Ġlooking": 1437,
      "cer": 1438,
      "Ġimportant": 1439,
      "new": 1440,
      "ends": 1441,
      "Ġbest": 1442,
      "Ġlear": 1443,
      "Ġrain": 1444,
      "ale": 1445,
      "Ġstud": 1446,
      "Ġidee": 1447,
      "Ġpresent": 1448,
      "ues": 1449,
      "oud": 1450,
      "Ġyourself": 1451,
      "Ġami": 1452,
      "Ġmorning": 1453,
      "igh": 1454,
      "not": 1455,
      "Ġamis": 1456,
      "Ġminutes": 1457,
      "Ġwar": 1458,
      "orter": 1459,
      "Ġrun": 1460,
      "Ġanswer": 1461,
      "Ġstr": 1462,
      "med": 1463,
      "mble": 1464,
      "Ġnombre": 1465,
      "Ġrev": 1466,
      "Ġinc": 1467,
      "Ġtired": 1468,
      "Ġjapan": 1469,
      "vel": 1470,
      "Ġprob": 1471,
      "Ġconv": 1472,
      "Ġsal": 1473,
      "Ġthese": 1474,
      "Ġsame": 1475,
      "Ġmatter": 1476,
      "Ġmauv": 1477,
      "Ġparty": 1478,
      "Ġpiece": 1479,
      "Ġreste": 1480,
      "Ġmauvais": 1481,
      "Ġdoct": 1482,
      "Ġmist": 1483,
      "uire": 1484,
      "Ġhomme": 1485,
      "illez": 1486,
      "ished": 1487,
      "Ġnon": 1488,
      "jeun": 1489,
      "Ġchambre": 1490,
      "gg": 1491,
      "Ġcol": 1492,
      "Ġabs": 1493,
      "Ġpendant": 1494,
      "Ġdonne": 1495,
      "Ġstudy": 1496,
      "Ġcold": 1497,
      "Ġsecret": 1498,
      "pl": 1499,
      "Ġpeur": 1500,
      "Ġcet": 1501,
      "Ġautre": 1502,
      "ky": 1503,
      "may": 1504,
      "heure": 1505,
      "ife": 1506,
      "Ġfemme": 1507,
      "ige": 1508,
      "Ġmeille": 1509,
      "Ġoften": 1510,
      "uter": 1511,
      "Ġstop": 1512,
      "Ġaround": 1513,
      "ations": 1514,
      "Ġgreat": 1515,
      "Ġprefe": 1516,
      "Ġmis": 1517,
      "Ġeas": 1518,
      "Ġhaven": 1519,
      "Ġknew": 1520,
      "Ġrent": 1521,
      "Ġtri": 1522,
      "ond": 1523,
      "Ġvol": 1524,
      "Ġdifficile": 1525,
      "ses": 1526,
      "Ġtard": 1527,
      "agne": 1528,
      "Ġrend": 1529,
      "Ġyoun": 1530,
      "could": 1531,
      "Ġsol": 1532,
      "Ġwhile": 1533,
      "oke": 1534,
      "Ġbro": 1535,
      "ared": 1536,
      "Ġbrother": 1537,
      "Ġhurt": 1538,
      "iste": 1539,
      "Ġmight": 1540,
      "rie": 1541,
      "Ġcap": 1542,
      "conn": 1543,
      "most": 1544,
      "sa": 1545,
      "Ġinf": 1546,
      "Ġwasn": 1547,
      "aller": 1548,
      "Ġadv": 1549,
      "Ġdepuis": 1550,
      "Ġvoud": 1551,
      "Ġvisit": 1552,
      "ital": 1553,
      "jeuner": 1554,
      "Ġfete": 1555,
      "Ġbles": 1556,
      "appre": 1557,
      "Ġjusqu": 1558,
      "tes": 1559,
      "raid": 1560,
      "ich": 1561,
      "Ġquelle": 1562,
      "blie": 1563,
      "Ġafraid": 1564,
      "entre": 1565,
      "Ġfatig": 1566,
      "cess": 1567,
      "Ġaider": 1568,
      "Ġreve": 1569,
      "Ġmarried": 1570,
      "Ġretard": 1571,
      "Ġmer": 1572,
      "Ġmyself": 1573,
      "avantage": 1574,
      "rions": 1575,
      "Ġact": 1576,
      "Ġsujet": 1577,
      "Ġru": 1578,
      "Ġready": 1579,
      "era": 1580,
      "Ġsois": 1581,
      "some": 1582,
      "aires": 1583,
      "Ġentre": 1584,
      "Ġsouvent": 1585,
      "util": 1586,
      "ienne": 1587,
      "Ġproch": 1588,
      "Ġnouvel": 1589,
      "Ġcertain": 1590,
      "Ġletter": 1591,
      "ved": 1592,
      "Ġstup": 1593,
      "meme": 1594,
      "Ġlire": 1595,
      "Ġelse": 1596,
      "Ġdavantage": 1597,
      "Ġgros": 1598,
      "cept": 1599,
      "Ġinter": 1600,
      "Ġdorm": 1601,
      "Ġsau": 1602,
      "Ġbeaut": 1603,
      "ages": 1604,
      "eurs": 1605,
      "Ġmatin": 1606,
      "ize": 1607,
      "Ġfar": 1608,
      "accord": 1609,
      "Ġmoins": 1610,
      "tez": 1611,
      "Ġsuch": 1612,
      "Ġsemaine": 1613,
      "ys": 1614,
      "Ġfil": 1615,
      "Ġpic": 1616,
      "ater": 1617,
      "vez": 1618,
      "merci": 1619,
      "ream": 1620,
      "aie": 1621,
      "Ġsoyez": 1622,
      "Ġpap": 1623,
      "Ġsing": 1624,
      "Ġnice": 1625,
      "ĠsÅĵur": 1626,
      "ignore": 1627,
      "Ġyear": 1628,
      "Ġswim": 1629,
      "Ġlisten": 1630,
      "Ġperdu": 1631,
      "Ġey": 1632,
      "Ġbre": 1633,
      "Ġmean": 1634,
      "Ġglad": 1635,
      "ts": 1636,
      "Ġsister": 1637,
      "Ġpourrait": 1638,
      "Ġtalking": 1639,
      "Ġcommence": 1640,
      "Ġfall": 1641,
      "Ġwants": 1642,
      "Ġamer": 1643,
      "Ġsera": 1644,
      "ced": 1645,
      "Ġaide": 1646,
      "Ġdeven": 1647,
      "Ġlooks": 1648,
      "Ġpossible": 1649,
      "ber": 1650,
      "Ġtravailler": 1651,
      "Ġresp": 1652,
      "Ġgetting": 1653,
      "Ġearly": 1654,
      "ĠÂ": 1655,
      "Ġpasser": 1656,
      "ath": 1657,
      "Ġfood": 1658,
      "Ġexpect": 1659,
      "Ġlongtemps": 1660,
      "Ġemb": 1661,
      "Ġanother": 1662,
      "Ġsortir": 1663,
      "ivers": 1664,
      "osed": 1665,
      "Ġfatigue": 1666,
      "00": 1667,
      "Ġcontin": 1668,
      "Ġpouvons": 1669,
      "alement": 1670,
      "Ġsun": 1671,
      "iful": 1672,
      "Ġetaient": 1673,
      "ock": 1674,
      "Ġbought": 1675,
      "Ġfrere": 1676,
      "toi": 1677,
      "oid": 1678,
      "rant": 1679,
      "Ġtour": 1680,
      "Ġdont": 1681,
      "Ġdanger": 1682,
      "este": 1683,
      "Ġown": 1684,
      "Ġcoming": 1685,
      "Ġarre": 1686,
      "Ġhon": 1687,
      "Ġchar": 1688,
      "Ġachete": 1689,
      "oc": 1690,
      "Ġaur": 1691,
      "Ġcount": 1692,
      "Ġville": 1693,
      "Ġhate": 1694,
      "Ġjouer": 1695,
      "Ġbeautiful": 1696,
      "Ġnour": 1697,
      "rise": 1698,
      "Ġvois": 1699,
      "Ġfew": 1700,
      "erreur": 1701,
      "Ġwind": 1702,
      "Ġnecess": 1703,
      "Ġyoung": 1704,
      "emp": 1705,
      "omme": 1706,
      "Ġdays": 1707,
      "Ġnat": 1708,
      "Ġtrue": 1709,
      "Ġcoff": 1710,
      "Ġfai": 1711,
      "iction": 1712,
      "Ġlettre": 1713,
      "Ġfel": 1714,
      "tur": 1715,
      "Ġattention": 1716,
      "Ġgard": 1717,
      "joy": 1718,
      "more": 1719,
      "Ġment": 1720,
      "Ġforg": 1721,
      "Ġfaites": 1722,
      "Ġgrande": 1723,
      "Ġtellement": 1724,
      "Ġchau": 1725,
      "Ġretour": 1726,
      "Ġdinner": 1727,
      "ras": 1728,
      "Ġphoto": 1729,
      "Ġnouvelle": 1730,
      "Ġbreak": 1731,
      "Ġtried": 1732,
      "Ġdevriez": 1733,
      "nis": 1734,
      "hab": 1735,
      "na": 1736,
      "avons": 1737,
      "ken": 1738,
      "Ġsuff": 1739,
      "pped": 1740,
      "eler": 1741,
      "Ġcafe": 1742,
      "Ġjournee": 1743,
      "Ġcrois": 1744,
      "voy": 1745,
      "Ġonce": 1746,
      "Ġappe": 1747,
      "Ġtravaille": 1748,
      "Ġpresque": 1749,
      "Ġcommen": 1750,
      "any": 1751,
      "Ġgent": 1752,
      "Ġchoi": 1753,
      "Ġbecause": 1754,
      "Ġhun": 1755,
      "Ġknows": 1756,
      "Ġsign": 1757,
      "Ġworld": 1758,
      "Ġwonder": 1759,
      "Ġempl": 1760,
      "dis": 1761,
      "Ġep": 1762,
      "Ġdonner": 1763,
      "iment": 1764,
      "Ġbooks": 1765,
      "Ġcareful": 1766,
      "Ġfelt": 1767,
      "used": 1768,
      "aught": 1769,
      "gether": 1770,
      "Ġfacile": 1771,
      "iser": 1772,
      "ited": 1773,
      "Ġstation": 1774,
      "Ġprod": 1775,
      "Ġdoctor": 1776,
      "Ġable": 1777,
      "Ġmag": 1778,
      "olog": 1779,
      "Ġperm": 1780,
      "Ġlivres": 1781,
      "Ġtennis": 1782,
      "Ġlar": 1783,
      "Ġcop": 1784,
      "Ġtogether": 1785,
      "veu": 1786,
      "Ġdoit": 1787,
      "icy": 1788,
      "ime": 1789,
      "rendre": 1790,
      "comp": 1791,
      "Ġmontre": 1792,
      "Ġprofess": 1793,
      "medi": 1794,
      "pouvez": 1795,
      "ton": 1796,
      "Ġface": 1797,
      "ances": 1798,
      "Ġdifficult": 1799,
      "Ġmen": 1800,
      "Ġgra": 1801,
      "Ġnews": 1802,
      "Ġsk": 1803,
      "Ġenjoy": 1804,
      "Ġtemp": 1805,
      "ames": 1806,
      "adore": 1807,
      "Ġfilm": 1808,
      "friend": 1809,
      "Ġgone": 1810,
      "Ġdix": 1811,
      "Ġword": 1812,
      "Ġwrite": 1813,
      "Ġimmedi": 1814,
      "ail": 1815,
      "will": 1816,
      "Ġaren": 1817,
      "Ġdress": 1818,
      "everyone": 1819,
      "Ġmeeting": 1820,
      "Ġty": 1821,
      "aide": 1822,
      "Ġcoffee": 1823,
      "Ġwrit": 1824,
      "rire": 1825,
      "Ġann": 1826,
      "uth": 1827,
      "Ġsomeone": 1828,
      "Ġfini": 1829,
      "Ġameric": 1830,
      "ip": 1831,
      "Ġdiction": 1832,
      "Ġcook": 1833,
      "Ġdejeuner": 1834,
      "Ġfamille": 1835,
      "Ġseems": 1836,
      "Ġappreci": 1837,
      "veuillez": 1838,
      "Ġforget": 1839,
      "Ġjeune": 1840,
      "Ġwouldn": 1841,
      "gu": 1842,
      "ug": 1843,
      "Ġerreur": 1844,
      "Ġanymore": 1845,
      "Ġlorsque": 1846,
      "Ġain": 1847,
      "Ġdevoir": 1848,
      "go": 1849,
      "ume": 1850,
      "Ġalmost": 1851,
      "Ġtonight": 1852,
      "Ġdifferent": 1853,
      "Ġprefere": 1854,
      "iers": 1855,
      "Ġsoi": 1856,
      "Ġimag": 1857,
      "Ġsatis": 1858,
      "Ġmine": 1859,
      "does": 1860,
      "sh": 1861,
      "Ġ\"": 1862,
      "Ġfau": 1863,
      "Ġbure": 1864,
      "Ġchat": 1865,
      "peux": 1866,
      "Ġair": 1867,
      "Ġcombien": 1868,
      "Ġtrust": 1869,
      "Ġfamily": 1870,
      "Ġstarted": 1871,
      "Ġcuis": 1872,
      "Ġwin": 1873,
      "Ġfeu": 1874,
      "Ġturn": 1875,
      "pre": 1876,
      "take": 1877,
      "Ġbir": 1878,
      "Ġsucc": 1879,
      "Ġtrou": 1880,
      "Ġverite": 1881,
      "Ġpetite": 1882,
      "Ġchaque": 1883,
      "mine": 1884,
      "Ġsitu": 1885,
      "Ġkid": 1886,
      "Ġpartie": 1887,
      "Ġbureau": 1888,
      "Ġprep": 1889,
      "Ġdevons": 1890,
      "Ġetudi": 1891,
      "Ġlight": 1892,
      "Ġfinished": 1893,
      "br": 1894,
      "Ġvac": 1895,
      "Ġviens": 1896,
      "Ġtruth": 1897,
      "Ġgare": 1898,
      "Ġrel": 1899,
      "llow": 1900,
      "iques": 1901,
      "uie": 1902,
      "rence": 1903,
      "Ġdecis": 1904,
      "Ġport": 1905,
      "Ġdoll": 1906,
      "Ġstand": 1907,
      "Ġprison": 1908,
      "ible": 1909,
      "Ġbicy": 1910,
      "urer": 1911,
      "Ġyeux": 1912,
      "Ġlooked": 1913,
      "Ġgarcon": 1914,
      "Ġrespons": 1915,
      "az": 1916,
      "Ġcel": 1917,
      "Ġvue": 1918,
      "Ġvenu": 1919,
      "Ġmaniere": 1920,
      "Ġlaisser": 1921,
      "Ġtelevis": 1922,
      "Ġainsi": 1923,
      "gne": 1924,
      "Ġvoi": 1925,
      "Ġris": 1926,
      "Ġaucun": 1927,
      "fais": 1928,
      "Ġutil": 1929,
      "Ġsit": 1930,
      "oman": 1931,
      "Ġred": 1932,
      "Ġprend": 1933,
      "Ġrencontre": 1934,
      "cu": 1935,
      "Ġfig": 1936,
      "roit": 1937,
      "avor": 1938,
      "Ġparti": 1939,
      "iness": 1940,
      "Ġplais": 1941,
      ".\"": 1942,
      "lot": 1943,
      "Ġfit": 1944,
      "Ġlikes": 1945,
      "Ġdecide": 1946,
      "Ġaucune": 1947,
      "Ġvoudrais": 1948,
      "Ġdir": 1949,
      "Ġspend": 1950,
      "Ġtete": 1951,
      "Ġsick": 1952,
      "Ġbag": 1953,
      "Ġeach": 1954,
      "Ġdied": 1955,
      "stop": 1956,
      "itude": 1957,
      "Ġeyes": 1958,
      "fer": 1959,
      "reux": 1960,
      "Ġsince": 1961,
      "Ġcri": 1962,
      "Ġdel": 1963,
      "Ġdecid": 1964,
      "Ġcole": 1965,
      "Ġwife": 1966,
      "Ġvit": 1967,
      "Ġhor": 1968,
      "icon": 1969,
      "Ġprud": 1970,
      "ateau": 1971,
      "Ġworking": 1972,
      "Ġpian": 1973,
      "Ġvoyage": 1974,
      "connais": 1975,
      "Ġcolere": 1976,
      "Ġmarche": 1977,
      "Ġimpress": 1978,
      "Ġvoulait": 1979,
      "Ġconfi": 1980,
      "Ġmedec": 1981,
      "ied": 1982,
      "anche": 1983,
      "dez": 1984,
      "Ġenfant": 1985,
      "Ġpretty": 1986,
      "men": 1987,
      "tell": 1988,
      "riture": 1989,
      "Ġrestau": 1990,
      "Ġsous": 1991,
      "Ġmess": 1992,
      "Ġfavor": 1993,
      "Ġdevez": 1994,
      "ark": 1995,
      "Ġetr": 1996,
      "ured": 1997,
      "Ġlearn": 1998,
      "peu": 1999,
      "Ġner": 2000,
      "Ġbit": 2001,
      "Ġluck": 2002,
      "Ġmeilleur": 2003,
      "iconque": 2004,
      "Ġmettre": 2005,
      "Ġsavais": 2006,
      "Ġmalade": 2007,
      "Ġphone": 2008,
      "Ġfollow": 2009,
      "Ġdemander": 2010,
      "ib": 2011,
      "Ġbet": 2012,
      "Ġsuiv": 2013,
      "Ġchant": 2014,
      "Ġweather": 2015,
      "kyo": 2016,
      "zy": 2017,
      "Ġetiez": 2018,
      "Ġeasy": 2019,
      "Ġcompte": 2020,
      "Ġpersonnes": 2021,
      "Ġcolle": 2022,
      "ever": 2023,
      "Ġdist": 2024,
      "Ġdispose": 2025,
      "just": 2026,
      "lent": 2027,
      "Ġinst": 2028,
      "Ġcompl": 2029,
      "Ġwaiting": 2030,
      "Ġanglais": 2031,
      "garde": 2032,
      "Ġcam": 2033,
      "aise": 2034,
      "Ġclass": 2035,
      "Ġattend": 2036,
      "Ġlunch": 2037,
      "Ġexact": 2038,
      "Ġvieux": 2039,
      "Ġsituation": 2040,
      "Ġtelevision": 2041,
      "vi": 2042,
      "iner": 2043,
      "Ġcomple": 2044,
      "Ġmedic": 2045,
      "Ġstupid": 2046,
      "Ġboth": 2047,
      "Ġquite": 2048,
      "Ġmakes": 2049,
      "Ġext": 2050,
      "Ġexam": 2051,
      "Ġcomprendre": 2052,
      "Ġwindow": 2053,
      "ron": 2054,
      "til": 2055,
      "Ġmost": 2056,
      "Ġnager": 2057,
      "Ġboire": 2058,
      "Ġvel": 2059,
      "Ġvite": 2060,
      "Ġhigh": 2061,
      "Ġreun": 2062,
      "Ġeg": 2063,
      "Ġtombe": 2064,
      "Ġrap": 2065,
      "Ġdeteste": 2066,
      "Ġtrying": 2067,
      "cl": 2068,
      "Ġsour": 2069,
      "Ġhair": 2070,
      "Ġserais": 2071,
      "Ġboulot": 2072,
      "Ġregarder": 2073,
      "Ġdecision": 2074,
      "work": 2075,
      "Ġlonger": 2076,
      "Ġheureuse": 2077,
      "Ġpouvoir": 2078,
      "Ġdream": 2079,
      "Ġsil": 2080,
      "Ġrou": 2081,
      "Ġfeeling": 2082,
      "Ġmil": 2083,
      "resse": 2084,
      "Ġsemb": 2085,
      "Ġshouldn": 2086,
      "Ġregarde": 2087,
      "quelqu": 2088,
      "Ġfils": 2089,
      "Ġtokyo": 2090,
      "Ġthr": 2091,
      "rir": 2092,
      "Ġcause": 2093,
      "Ġcomprends": 2094,
      "Ġ2": 2095,
      "Ġnear": 2096,
      "Ġanybody": 2097,
      "Ġfroid": 2098,
      "Ġferais": 2099,
      "Ġunder": 2100,
      "Ġnourriture": 2101,
      "Ġpiano": 2102,
      "Ġcote": 2103,
      "Ġval": 2104,
      "alth": 2105,
      "Ġlieu": 2106,
      "Ġautres": 2107,
      "Ġensemble": 2108,
      "Ġcours": 2109,
      "Ġfon": 2110,
      "Ġbor": 2111,
      "Ġbelle": 2112,
      "Ġhum": 2113,
      "Ġbeh": 2114,
      "idi": 2115,
      "Ġattra": 2116,
      "Ġpremier": 2117,
      "Ġhotel": 2118,
      "uc": 2119,
      "ason": 2120,
      "ateur": 2121,
      "Ġsuc": 2122,
      "Ġpourrais": 2123,
      "Ġart": 2124,
      "Ġhist": 2125,
      "anglais": 2126,
      "Ġord": 2127,
      "Ġvivre": 2128,
      "Ġblesse": 2129,
      "Ġfour": 2130,
      "thank": 2131,
      "Ġalors": 2132,
      "Ġjoue": 2133,
      "apprecie": 2134,
      "Ġrestaurant": 2135,
      "vou": 2136,
      "Ġsl": 2137,
      "Ġvas": 2138,
      "ject": 2139,
      "Ġworry": 2140,
      "Ġoublie": 2141,
      "Ġadvis": 2142,
      "ientot": 2143,
      "Ġguess": 2144,
      "Ġmusic": 2145,
      "ia": 2146,
      "Ġcaught": 2147,
      "Ġexac": 2148,
      "Ġadd": 2149,
      "Ġseulement": 2150,
      "give": 2151,
      "ny": 2152,
      "Ġtv": 2153,
      "Ġsix": 2154,
      "Ġreading": 2155,
      "Ġvelo": 2156,
      "Ġdrive": 2157,
      "Ġpays": 2158,
      "Ġamie": 2159,
      "sive": 2160,
      "Ġconduire": 2161,
      "occ": 2162,
      "Ġcas": 2163,
      "Ġbroke": 2164,
      "Ġadvice": 2165,
      "Ġtant": 2166,
      "Ġmois": 2167,
      "erai": 2168,
      "Ġgre": 2169,
      "lles": 2170,
      "Ġusu": 2171,
      "Ġsurprised": 2172,
      "Ġconfiance": 2173,
      "Ġreunion": 2174,
      "voulez": 2175,
      "tous": 2176,
      "Ġuntil": 2177,
      "Ġjoin": 2178,
      "Ġetais": 2179,
      "Ġtrouv": 2180,
      "laisse": 2181,
      "Ġsmall": 2182,
      "Ġreponse": 2183,
      "Ġsus": 2184,
      "ating": 2185,
      "Ġenvie": 2186,
      "Ġran": 2187,
      "Ġdevrions": 2188,
      "Ġeveryone": 2189,
      "Ġvisite": 2190,
      "Ġtrouble": 2191,
      "Ġadvised": 2192,
      "Ġfire": 2193,
      "Ġbientot": 2194,
      "ghter": 2195,
      "ains": 2196,
      "Ġautant": 2197,
      "Ġjourn": 2198,
      "Ġste": 2199,
      "Ġthose": 2200,
      "amment": 2201,
      "Ġtermine": 2202,
      "Ġcalled": 2203,
      "Ġprobable": 2204,
      "Ġcelui": 2205,
      "Ġloin": 2206,
      "Ġrej": 2207,
      "Ġhead": 2208,
      "less": 2209,
      "tenir": 2210,
      "Ġdiner": 2211,
      "Ġpied": 2212,
      "Ġrapide": 2213,
      "ze": 2214,
      "Ġhaving": 2215,
      "Ġstory": 2216,
      "Ġcontre": 2217,
      "Ġecrit": 2218,
      "Ġconnait": 2219,
      "Ġturned": 2220,
      "Ġfast": 2221,
      "Ġbi": 2222,
      "ates": 2223,
      "Ġserait": 2224,
      "Ġessaye": 2225,
      "Ġfree": 2226,
      "Ġchang": 2227,
      "cha": 2228,
      "Ġthinking": 2229,
      "Ġchemin": 2230,
      "Ġlives": 2231,
      "Ġarriver": 2232,
      "Ġfen": 2233,
      "Ġbat": 2234,
      "als": 2235,
      "vert": 2236,
      "Ġserious": 2237,
      "Ġstudents": 2238,
      "Ġappreciate": 2239,
      "uv": 2240,
      "Ġfell": 2241,
      "Ġdevrait": 2242,
      "ball": 2243,
      "ward": 2244,
      "Ġcin": 2245,
      "Ġradi": 2246,
      "cked": 2247,
      "Ġmedecin": 2248,
      "Ġsong": 2249,
      "Ġnos": 2250,
      "Ġfou": 2251,
      "Ġvers": 2252,
      "Ġev": 2253,
      "Ġpark": 2254,
      "cial": 2255,
      "Ġterri": 2256,
      "Ġbicycle": 2257,
      "viens": 2258,
      "Ġfore": 2259,
      "Ġidi": 2260,
      "Ġactu": 2261,
      "Ġmovie": 2262,
      "Ġexactement": 2263,
      "ieur": 2264,
      "Ġbar": 2265,
      "Ġhimself": 2266,
      "Ġmistake": 2267,
      "Ġpicture": 2268,
      "Ġforgot": 2269,
      "homme": 2270,
      "Ġhours": 2271,
      "Ġyours": 2272,
      "Ġjapanese": 2273,
      "Ġmour": 2274,
      "Ġplut": 2275,
      "Ġtrans": 2276,
      "Ġtax": 2277,
      "apres": 2278,
      "Ġdites": 2279,
      "Ġpouvais": 2280,
      "Ġinteress": 2281,
      "Ġminute": 2282,
      "Ġpubl": 2283,
      "Ġacheter": 2284,
      "nob": 2285,
      "uy": 2286,
      "ises": 2287,
      "Ġcry": 2288,
      "Ġmonth": 2289,
      "Ġangry": 2290,
      "Ġdef": 2291,
      "Ġanim": 2292,
      "ther": 2293,
      "Ġmanque": 2294,
      "Ġadm": 2295,
      "Ġopin": 2296,
      "Ġconnaiss": 2297,
      "Ġpop": 2298,
      "Ġbois": 2299,
      "Ġpenser": 2300,
      "importe": 2301,
      "mmer": 2302,
      "tr": 2303,
      "Ġign": 2304,
      "Ġju": 2305,
      "venu": 2306,
      "asses": 2307,
      "Ġdormir": 2308,
      "Ġdollars": 2309,
      "Ġthrough": 2310,
      "Ġpois": 2311,
      "Ġwear": 2312,
      "Ġserai": 2313,
      "Ġgrow": 2314,
      "Ġagree": 2315,
      "Ġoffice": 2316,
      "Ġprix": 2317,
      "Ġplaying": 2318,
      "Ġdiscuss": 2319,
      "Ġpremiere": 2320,
      "rapp": 2321,
      "Ġago": 2322,
      "Ġtrip": 2323,
      "hait": 2324,
      "Ġaim": 2325,
      "Ġdri": 2326,
      "Ġech": 2327,
      "Ġcheveux": 2328,
      "Ġvient": 2329,
      "Ġdernier": 2330,
      "Ġdau": 2331,
      "Ġsecon": 2332,
      "Ġregret": 2333,
      "Ġleurs": 2334,
      "Ġnumber": 2335,
      "hors": 2336,
      "Ġtick": 2337,
      "Ġeating": 2338,
      "Ġaccept": 2339,
      "Ġclean": 2340,
      "cons": 2341,
      "Ġsuper": 2342,
      "ross": 2343,
      "paravant": 2344,
      "Ġmusique": 2345,
      "Ġcorre": 2346,
      "Ġprofesseur": 2347,
      "nobody": 2348,
      "icul": 2349,
      "arer": 2350,
      "ables": 2351,
      "ettes": 2352,
      "Ġexplain": 2353,
      "oking": 2354,
      "vir": 2355,
      "Ġem": 2356,
      "Ġverre": 2357,
      "Ġarrived": 2358,
      "Ġpuisse": 2359,
      "Ġlangu": 2360,
      "cent": 2361,
      "Ġobl": 2362,
      "Ġchin": 2363,
      "Ġcontro": 2364,
      "exc": 2365,
      "Ġcatch": 2366,
      "Ġimmediate": 2367,
      "Ġradio": 2368,
      "Ġtre": 2369,
      "Ġsnow": 2370,
      "Ġok": 2371,
      "Ġchans": 2372,
      "usement": 2373,
      "ission": 2374,
      "ized": 2375,
      "Ġinform": 2376,
      "Ġexactly": 2377,
      "Ġtimes": 2378,
      "Ġtown": 2379,
      "Ġthen": 2380,
      "Ġreason": 2381,
      "Ġauparavant": 2382,
      "Ġdispos": 2383,
      "Ġsecur": 2384,
      "Ġrencontrer": 2385,
      "Ġdesolee": 2386,
      "Ġproduit": 2387,
      "Ġplutot": 2388,
      "look": 2389,
      "mary": 2390,
      "Ġsub": 2391,
      "rends": 2392,
      "Ġresult": 2393,
      "Ġsouhait": 2394,
      "Ġfull": 2395,
      "Ġchauss": 2396,
      "Ġinteresting": 2397,
      "Ġtype": 2398,
      "Ġouv": 2399,
      "Ġdead": 2400,
      "user": 2401,
      "Ġsupposed": 2402,
      "Ġkept": 2403,
      "Ġpopul": 2404,
      "uf": 2405,
      "Ġsac": 2406,
      "Ġsays": 2407,
      "Ġtor": 2408,
      "keep": 2409,
      "ical": 2410,
      "oss": 2411,
      "which": 2412,
      "Ġbusiness": 2413,
      "Ġhomework": 2414,
      "Ġagainst": 2415,
      "Ġhands": 2416,
      "Ġendroit": 2417,
      "Ġpatient": 2418,
      "ule": 2419,
      "Ġvole": 2420,
      "Ġpeuvent": 2421,
      "Ġcontent": 2422,
      "attend": 2423,
      "Ġsuffis": 2424,
      "af": 2425,
      "ene": 2426,
      "Ġvin": 2427,
      "Ġclose": 2428,
      "Ġnouvelles": 2429,
      "Ġbegin": 2430,
      "Ġprochaine": 2431,
      "ĠÂ»": 2432,
      "by": 2433,
      "Ġbout": 2434,
      "Ġlik": 2435,
      "cient": 2436,
      "Ġargent": 2437,
      "enses": 2438,
      "Ġsaying": 2439,
      "Ġrefle": 2440,
      "Ġfix": 2441,
      "oh": 2442,
      "atre": 2443,
      "Ġgame": 2444,
      "Ġsto": 2445,
      "Ġentendre": 2446,
      "Ġpenses": 2447,
      "Ġjournal": 2448,
      "Ġdaughter": 2449,
      "fu": 2450,
      "Ġbab": 2451,
      "Ġdehors": 2452,
      "ately": 2453,
      "Ġprin": 2454,
      "Ġexper": 2455,
      "Ġhung": 2456,
      "outer": 2457,
      "aines": 2458,
      "Ġtrait": 2459,
      "Ġmari": 2460,
      "Ġprev": 2461,
      "Ġappro": 2462,
      "laissez": 2463,
      "Ġapolog": 2464,
      "Ġdecided": 2465,
      "midi": 2466,
      "ta": 2467,
      "Ġtomber": 2468,
      "noon": 2469,
      "arrete": 2470,
      "Ġarrete": 2471,
      "rou": 2472,
      "Ġcoin": 2473,
      "ination": 2474,
      "inst": 2475,
      "Ġkiss": 2476,
      "ched": 2477,
      "Ġconvain": 2478,
      "Ġappele": 2479,
      "rom": 2480,
      "to": 2481,
      "Ġlie": 2482,
      "Ġquick": 2483,
      "ably": 2484,
      "Ġafternoon": 2485,
      "Ġcontinu": 2486,
      "Ġusually": 2487,
      "port": 2488,
      "enir": 2489,
      "Ġleav": 2490,
      "Ġshort": 2491,
      "Ġsafe": 2492,
      "Ġconcert": 2493,
      "faites": 2494,
      "Ġopinion": 2495,
      "ech": 2496,
      "Ġcent": 2497,
      "Ġrece": 2498,
      "ossible": 2499,
      "Ġsold": 2500,
      "Ġclasse": 2501,
      "Ġfoot": 2502,
      "Ġchaud": 2503,
      "Ġimmediatement": 2504,
      "Ġsel": 2505,
      "cep": 2506,
      "osp": 2507,
      "Ġviend": 2508,
      "Ġattendre": 2509,
      "Ġliving": 2510,
      "Ġpouvait": 2511,
      "Ġnombreux": 2512,
      "Ġdevoirs": 2513,
      "notre": 2514,
      "esp": 2515,
      "arr": 2516,
      "ower": 2517,
      "rente": 2518,
      "venir": 2519,
      "Ġinterested": 2520,
      "Ġcountry": 2521,
      "dem": 2522,
      "Ġweren": 2523,
      "Ġmach": 2524,
      "Ġhabit": 2525,
      "ges": 2526,
      "Ġpick": 2527,
      "Ġbas": 2528,
      "Ġpeine": 2529,
      "everybody": 2530,
      "riere": 2531,
      "Ġfenetre": 2532,
      "Ġswe": 2533,
      "Ġhealth": 2534,
      "ellig": 2535,
      "Ġcompany": 2536,
      "Ġpayer": 2537,
      "peut": 2538,
      "side": 2539,
      "Ġtree": 2540,
      "Ġsorte": 2541,
      "Ġcoute": 2542,
      "Ġmoy": 2543,
      "ines": 2544,
      "Ġve": 2545,
      "Ġmarcher": 2546,
      "Ġrich": 2547,
      "lace": 2548,
      "akes": 2549,
      "Ġfinish": 2550,
      "quipe": 2551,
      "Ġrepondre": 2552,
      "Ġfaim": 2553,
      "Ġsy": 2554,
      "Ġlater": 2555,
      "Ġfive": 2556,
      "Ġleg": 2557,
      "Ġdiv": 2558,
      "Ġpresident": 2559,
      "Ġferme": 2560,
      "Ġcut": 2561,
      "Ġwine": 2562,
      "Ġbri": 2563,
      "Ġhit": 2564,
      "Ġsuit": 2565,
      "Ġsummer": 2566,
      "Ġcannot": 2567,
      "Ġdim": 2568,
      "Ġsound": 2569,
      "etud": 2570,
      "Ġlau": 2571,
      "alent": 2572,
      "ication": 2573,
      "Ġallons": 2574,
      "Ġdisapp": 2575,
      "ctionne": 2576,
      "Ġdiscuter": 2577,
      "?\"": 2578,
      "votre": 2579,
      "antes": 2580,
      "Ġparc": 2581,
      "Ġapprendre": 2582,
      "Ġmains": 2583,
      "Ġpropre": 2584,
      "Ġgirlfriend": 2585,
      "Ġsugg": 2586,
      "Ġimpossible": 2587,
      "Ġjaponais": 2588,
      "Ġsuggest": 2589,
      "ps": 2590,
      "unk": 2591,
      "Ġparce": 2592,
      "Ġtaking": 2593,
      "agner": 2594,
      "Ġpensez": 2595,
      "Ġintellig": 2596,
      "Ġprobablement": 2597,
      "Ġdie": 2598,
      "Ġsante": 2599,
      "Ġbecome": 2600,
      "ution": 2601,
      "Ġfront": 2602,
      "Ġpromis": 2603,
      "Ġfunny": 2604,
      "many": 2605,
      "Ġcinq": 2606,
      "dd": 2607,
      "Ġcu": 2608,
      "Ġbal": 2609,
      "Ġge": 2610,
      "oyer": 2611,
      "Ġagre": 2612,
      "accident": 2613,
      "Ġsecurite": 2614,
      "oupe": 2615,
      "Ġcost": 2616,
      "Ġfrapp": 2617,
      "eter": 2618,
      "arri": 2619,
      "nees": 2620,
      "Ġcomes": 2621,
      "Ġcloth": 2622,
      "Ġchercher": 2623,
      "Ġlarge": 2624,
      "Ġetrange": 2625,
      "inter": 2626,
      "Ġmaking": 2627,
      "agit": 2628,
      "Ġneeds": 2629,
      "Ġnumer": 2630,
      "Ġbox": 2631,
      "Ġprochain": 2632,
      "Ġborn": 2633,
      "Ġbaby": 2634,
      "ying": 2635,
      "Ġpun": 2636,
      "Ġdeal": 2637,
      "Ġchanger": 2638,
      "illed": 2639,
      "Ġaband": 2640,
      "Ġparticul": 2641,
      "ifie": 2642,
      "Ġtouch": 2643,
      "pourriez": 2644,
      "Ġreco": 2645,
      "Ġexcuses": 2646,
      "Ġgenre": 2647,
      "Ġhistoire": 2648,
      "fois": 2649,
      "nent": 2650,
      "Ġteam": 2651,
      "Ġstre": 2652,
      "Ġdesc": 2653,
      "Ġsurv": 2654,
      "Ġfumer": 2655,
      "Ġsurprise": 2656,
      "Ġchanter": 2657,
      "Ġordin": 2658,
      "Ġidiot": 2659,
      "bas": 2660,
      "ming": 2661,
      "ener": 2662,
      "pping": 2663,
      "Ġparfait": 2664,
      "sib": 2665,
      "Ġecrire": 2666,
      "Ġstudent": 2667,
      "iend": 2668,
      "naire": 2669,
      "voud": 2670,
      "Ġils": 2671,
      "Ġmur": 2672,
      "Ġreconnais": 2673,
      "Ġappris": 2674,
      "Ġeaten": 2675,
      "Ġrappelle": 2676,
      "Ġprobably": 2677,
      "Ġwoman": 2678,
      "lly": 2679,
      "comm": 2680,
      "Ġcomplet": 2681,
      "Ġbruit": 2682,
      "Ġterre": 2683,
      "Ġbirth": 2684,
      "Ġur": 2685,
      "ĠÅĵ": 2686,
      "Ġlum": 2687,
      "Ġcre": 2688,
      "Ġfier": 2689,
      "Ġvont": 2690,
      "amed": 2691,
      "Ġprog": 2692,
      "Ġproblemes": 2693,
      "Ġbuild": 2694,
      "Ġsouci": 2695,
      "Ġrefuse": 2696,
      "Ġwatching": 2697,
      "Ġshoes": 2698,
      "Ġcompletement": 2699,
      "Ġpublic": 2700,
      "regarde": 2701,
      "Ġsavez": 2702,
      "Ġchois": 2703,
      "pourrais": 2704,
      "Ġaffaire": 2705,
      "Ġlangue": 2706,
      "Ġmagas": 2707,
      "ray": 2708,
      "Ġelles": 2709,
      "ither": 2710,
      "ature": 2711,
      "Ġtea": 2712,
      "Ġimpat": 2713,
      "Ġpromise": 2714,
      "Ġcertaine": 2715,
      "Ġessayer": 2716,
      "Ġimpression": 2717,
      "Ġcomplain": 2718,
      "Ġrapidement": 2719,
      "Ġlaugh": 2720,
      "arie": 2721,
      "ede": 2722,
      "Ġenn": 2723,
      "essaie": 2724,
      "Ġprete": 2725,
      "comme": 2726,
      "fect": 2727,
      "Ġpleuv": 2728,
      "30": 2729,
      "Ġdate": 2730,
      "Ġdark": 2731,
      "enf": 2732,
      "Ġcasse": 2733,
      "ĠcÅĵur": 2734,
      "erve": 2735,
      "Ġhosp": 2736,
      "Ġopp": 2737,
      "avait": 2738,
      "Ġriche": 2739,
      "Ġcontr": 2740,
      "Ġthank": 2741,
      "ormais": 2742,
      "Ġnecessaire": 2743,
      "fast": 2744,
      "so": 2745,
      "annee": 2746,
      "Ġguit": 2747,
      "ics": 2748,
      "Ġprote": 2749,
      "Ġoutside": 2750,
      "Ġspecial": 2751,
      "Ġconsider": 2752,
      "Ġstrong": 2753,
      "Ġmessage": 2754,
      "Ġtest": 2755,
      "Ġcity": 2756,
      "Ġhat": 2757,
      "Ġgun": 2758,
      "Ġneige": 2759,
      "Ġsug": 2760,
      "Ġplain": 2761,
      "Ġbring": 2762,
      "Ġchoix": 2763,
      "Ġbehind": 2764,
      "Ġhospital": 2765,
      "bed": 2766,
      "bres": 2767,
      "cet": 2768,
      "Ġpoi": 2769,
      "Ġble": 2770,
      "ieres": 2771,
      "Ġkill": 2772,
      "these": 2773,
      "Ġamou": 2774,
      "Ġworks": 2775,
      "Ġrecu": 2776,
      "Ġhurry": 2777,
      "Ġdifference": 2778,
      "Ġcommencer": 2779,
      "Ġmachine": 2780,
      "gan": 2781,
      "lors": 2782,
      "set": 2783,
      "Ġfish": 2784,
      "Ġban": 2785,
      "Ġbra": 2786,
      "Ġyork": 2787,
      "Ġproud": 2788,
      "oise": 2789,
      "airs": 2790,
      "Ġsimple": 2791,
      "Ġpolit": 2792,
      "Ġfavorite": 2793,
      "Ġclothes": 2794,
      "pen": 2795,
      "run": 2796,
      "sais": 2797,
      "Ġsave": 2798,
      "Ġdeg": 2799,
      "Ġforce": 2800,
      "attends": 2801,
      "Ġguy": 2802,
      "Ġvoulons": 2803,
      "Ġemploi": 2804,
      "fort": 2805,
      "Ġgagne": 2806,
      "ceed": 2807,
      "ended": 2808,
      "Ġprojet": 2809,
      "mbre": 2810,
      "Ġneeded": 2811,
      "Ġcrazy": 2812,
      "Ġoccupee": 2813,
      "Ġchaussures": 2814,
      "Ġhungry": 2815,
      "rons": 2816,
      "indre": 2817,
      "Ġfas": 2818,
      "Ġbase": 2819,
      "veille": 2820,
      "Ġbebe": 2821,
      "Ġatte": 2822,
      "oyez": 2823,
      "Ġperdre": 2824,
      "Ġsenti": 2825,
      "Ġsouviens": 2826,
      "Ġvacances": 2827,
      "Ġquickly": 2828,
      "Ġnumero": 2829,
      "inte": 2830,
      "Ġdess": 2831,
      "Ġrom": 2832,
      "Ġress": 2833,
      "Ġrobe": 2834,
      "Ġstayed": 2835,
      "Ġpaper": 2836,
      "turn": 2837,
      "hier": 2838,
      "Ġbur": 2839,
      "Ġdeath": 2840,
      "Ġlaw": 2841,
      "Ġallow": 2842,
      "Ġferai": 2843,
      "Ġbecame": 2844,
      "Ġbreakfast": 2845,
      "ral": 2846,
      "oubl": 2847,
      "Ġdra": 2848,
      "Ġwhe": 2849,
      "Ġthir": 2850,
      "oose": 2851,
      "Ġsoin": 2852,
      "cted": 2853,
      "Ġpleas": 2854,
      "Ġlived": 2855,
      "Ġlorsqu": 2856,
      "Ġsunday": 2857,
      "Ġplaisir": 2858,
      "Ġsuffisamment": 2859,
      "Ġreflech": 2860,
      "iel": 2861,
      "lo": 2862,
      "ub": 2863,
      "Ġhour": 2864,
      "Ġetions": 2865,
      "urs": 2866,
      "Ġcade": 2867,
      "Ġdesormais": 2868,
      "Ġroute": 2869,
      "Ġprefer": 2870,
      "Ġposte": 2871,
      "intention": 2872,
      "Ġoblige": 2873,
      "ho": 2874,
      "Ġdest": 2875,
      "Ġquiconque": 2876,
      "ush": 2877,
      "peau": 2878,
      "Ġinvite": 2879,
      "Ġrevoir": 2880,
      "ĠÂ«": 2881,
      "cte": 2882,
      "ensive": 2883,
      "Ġnorm": 2884,
      "Ġfri": 2885,
      "Ġfasse": 2886,
      "Ġfleur": 2887,
      "teau": 2888,
      "allez": 2889,
      "see": 2890,
      "Ġheart": 2891,
      "Ġtravers": 2892,
      "Ġtravel": 2893,
      "Ġworth": 2894,
      "donne": 2895,
      "Ġguerre": 2896,
      "Ġplein": 2897,
      "Ġchanson": 2898,
      "Ġpaid": 2899,
      "Ġlose": 2900,
      "iter": 2901,
      "rest": 2902,
      "ween": 2903,
      "Ġesp": 2904,
      "Ġmontrer": 2905,
      "Ġhandle": 2906,
      "Ġclear": 2907,
      "Ġaffaires": 2908,
      "Ġutiliser": 2909,
      "Ġstreet": 2910,
      "aff": 2911,
      "Ġz": 2912,
      "Ġlon": 2913,
      "asion": 2914,
      "Ġgoes": 2915,
      "Ġrue": 2916,
      "Ġriver": 2917,
      "Ġothers": 2918,
      "arreter": 2919,
      "Ġtent": 2920,
      "Ġteach": 2921,
      "Ġwords": 2922,
      "Ġprends": 2923,
      "Ġmagasin": 2924,
      "ered": 2925,
      "ira": 2926,
      "ms": 2927,
      "els": 2928,
      "alf": 2929,
      "tures": 2930,
      "oser": 2931,
      "Ġalong": 2932,
      "Ġderriere": 2933,
      "Ġconside": 2934,
      "Ġpleurer": 2935,
      "Ġolder": 2936,
      "Ġabsent": 2937,
      "Ġdevenir": 2938,
      "Ġsuccess": 2939,
      "Ġtim": 2940,
      "Ġhi": 2941,
      "Ġasleep": 2942,
      "Ġsty": 2943,
      "Ġavais": 2944,
      "Ġrather": 2945,
      "Ġfruit": 2946,
      "Ġeverybody": 2947,
      "Ġpossib": 2948,
      "Ġveulent": 2949,
      "Ġetudier": 2950,
      "Ġrentrer": 2951,
      "cul": 2952,
      "ness": 2953,
      "Ġpous": 2954,
      "etr": 2955,
      "Ġeng": 2956,
      "Ġsole": 2957,
      "Ġcomputer": 2958,
      "Ġcheck": 2959,
      "Ġviol": 2960,
      "Ġperfect": 2961,
      "Ġnombreuses": 2962,
      "Ġchanged": 2963,
      "Ġtaxi": 2964,
      "Ġstopped": 2965,
      "Ġbuilding": 2966,
      "Ġimpatient": 2967,
      "ding": 2968,
      "Ġsense": 2969,
      "auc": 2970,
      "Ġlibre": 2971,
      "irai": 2972,
      "Ġcamp": 2973,
      "Ġtakes": 2974,
      "Ġresse": 2975,
      "Ġmesure": 2976,
      "Ġcru": 2977,
      "Ġdrunk": 2978,
      "Ġ19": 2979,
      "Ġbegan": 2980,
      "Ġbetween": 2981,
      "cert": 2982,
      "dites": 2983,
      "pap": 2984,
      "was": 2985,
      "Ġfus": 2986,
      "Ġbot": 2987,
      "Ġboss": 2988,
      "Ġstore": 2989,
      "illage": 2990,
      "Ġconfe": 2991,
      "ctive": 2992,
      "Ġamies": 2993,
      "Ġrespect": 2994,
      "Ġbras": 2995,
      "Ġinvited": 2996,
      "Ġarreter": 2997,
      "habitude": 2998,
      "Ġsatisfait": 2999,
      "Ġreconnaiss": 3000,
      "Ġ5": 3001,
      "Ġtall": 3002,
      "oudre": 3003,
      "Ġsomme": 3004,
      "Ġallez": 3005,
      "Ġupset": 3006,
      "venient": 3007,
      "exp": 3008,
      "Ġmots": 3009,
      "Ġdictionary": 3010,
      "Ġdictionnaire": 3011,
      "fully": 3012,
      "pensez": 3013,
      "Ġsoleil": 3014,
      "soyez": 3015,
      "try": 3016,
      "rem": 3017,
      "Ġcup": 3018,
      "ative": 3019,
      "Ġplans": 3020,
      "Ġkilled": 3021,
      "orts": 3022,
      "Ġgets": 3023,
      "Ġderange": 3024,
      "Ġmoindre": 3025,
      "Ġcapable": 3026,
      "iversaire": 3027,
      "Ġaurait": 3028,
      "Ġchoice": 3029,
      "Ġfigured": 3030,
      "cal": 3031,
      "savez": 3032,
      "Ġill": 3033,
      "Ġmit": 3034,
      "Ġmill": 3035,
      "Ġgi": 3036,
      "Ġlait": 3037,
      "iche": 3038,
      "areil": 3039,
      "Ġdevant": 3040,
      "Ġrendu": 3041,
      "Ġcourt": 3042,
      "acheter": 3043,
      "somet": 3044,
      "maybe": 3045,
      "Ġcuisine": 3046,
      "Ġetudiants": 3047,
      "Ġprudent": 3048,
      "Ġlanguage": 3049,
      "Ġate": 3050,
      "Ġfilles": 3051,
      "Ġvete": 3052,
      "Ġquatre": 3053,
      "Ġenvir": 3054,
      "room": 3055,
      "Ġrire": 3056,
      "Ġwhole": 3057,
      "Ġwhich": 3058,
      "Ġearth": 3059,
      "Ġconcer": 3060,
      "Ġconseil": 3061,
      "Ġstudying": 3062,
      "Ġrouge": 3063,
      "Ġrejou": 3064,
      "Ġbirthday": 3065,
      "dit": 3066,
      "Ġeux": 3067,
      "Ġcard": 3068,
      "ility": 3069,
      "enty": 3070,
      "Ġreuss": 3071,
      "Ġbeer": 3072,
      "uteur": 3073,
      "ettez": 3074,
      "Ġspent": 3075,
      "Ġposs": 3076,
      "Ġsmoking": 3077,
      "Ġcontinue": 3078,
      "Ġdimanche": 3079,
      "cy": 3080,
      "oue": 3081,
      "Ġado": 3082,
      "Ġtrom": 3083,
      "Ġclim": 3084,
      "Ġreport": 3085,
      "Ġfurent": 3086,
      "Ġboite": 3087,
      "Ġdroit": 3088,
      "Ġterrible": 3089,
      "ded": 3090,
      "hist": 3091,
      "penses": 3092,
      "Ġu": 3093,
      "Ġait": 3094,
      "Ġcrit": 3095,
      "Ġfont": 3096,
      "Ġvide": 3097,
      "unes": 3098,
      "Ġnote": 3099,
      "Ġriv": 3100,
      "Ġfinally": 3101,
      "Ġvoulu": 3102,
      "Ġremar": 3103,
      "Ġcamera": 3104,
      "Ġsucceed": 3105,
      "Ġmourir": 3106,
      "Ġticket": 3107,
      "Ġapologize": 3108,
      "Ġsymp": 3109,
      "Ġlumiere": 3110,
      "dess": 3111,
      "iot": 3112,
      "onge": 3113,
      "ane": 3114,
      "Ġbiere": 3115,
      "Ġhors": 3116,
      "rib": 3117,
      "Ġind": 3118,
      "rope": 3119,
      "Ġits": 3120,
      "Ġamus": 3121,
      "Ġresoudre": 3122,
      "usee": 3123,
      "ounds": 3124,
      "Ġdecl": 3125,
      "Ġcoat": 3126,
      "Ġposer": 3127,
      "Ġchapeau": 3128,
      "Ġexpected": 3129,
      "Ġgarder": 3130,
      "Ġsucces": 3131,
      "Ġfight": 3132,
      "Ġmad": 3133,
      "Ġknown": 3134,
      "igne": 3135,
      "chez": 3136,
      "Ġchem": 3137,
      "Ġsavait": 3138,
      "Ġhappening": 3139,
      "Ġmissed": 3140,
      "Ġabsol": 3141,
      "Ġlucky": 3142,
      "Ġvetements": 3143,
      "prends": 3144,
      "Ġcelle": 3145,
      "Ġhar": 3146,
      "Ġgagner": 3147,
      "Ġrecomm": 3148,
      "Ġbeach": 3149,
      "Ġparis": 3150,
      "Ġform": 3151,
      "illa": 3152,
      "cip": 3153,
      "Ġmanteau": 3154,
      "Ġbrought": 3155,
      "Ġsouff": 3156,
      "liquer": 3157,
      "for": 3158,
      "Ġpan": 3159,
      "Ġborrow": 3160,
      "Ġplage": 3161,
      "Ġworried": 3162,
      "Ġfrance": 3163,
      "Ġpersu": 3164,
      "Ġorder": 3165,
      "Ġorgan": 3166,
      "Ġvieille": 3167,
      "Ġwrote": 3168,
      "Ġweekend": 3169,
      "Ġgener": 3170,
      "Ġconseille": 3171,
      "Ġmilk": 3172,
      "cise": 3173,
      "oque": 3174,
      "Ġpom": 3175,
      "Ġfine": 3176,
      "Ġvaut": 3177,
      "lame": 3178,
      "Ġfaisait": 3179,
      "Ġspeaking": 3180,
      "Ġhold": 3181,
      "Ġkids": 3182,
      "Ġtort": 3183,
      "Ġdivor": 3184,
      "Ġtalent": 3185,
      "Ġcir": 3186,
      "Ġnett": 3187,
      "Ġbatt": 3188,
      "iles": 3189,
      "Ġpluie": 3190,
      "Ġtruc": 3191,
      "ustral": 3192,
      "Ġserie": 3193,
      "Ġexpensive": 3194,
      "Ġmove": 3195,
      "Ġscared": 3196,
      "Ġrapport": 3197,
      "Ġembarr": 3198,
      "Ġaddress": 3199,
      "Ġinformation": 3200,
      "prise": 3201,
      "Ġtelle": 3202,
      "rement": 3203,
      "Ġporter": 3204,
      "erais": 3205,
      "Ġleve": 3206,
      "Ġinno": 3207,
      "ored": 3208,
      "opital": 3209,
      "Ġkey": 3210,
      "Ġdrinking": 3211,
      "Ġdemanda": 3212,
      "someone": 3213,
      "Ġdoi": 3214,
      "Ġceux": 3215,
      "Ġcase": 3216,
      "Ġhalf": 3217,
      "Ġlaquelle": 3218,
      "Ġloves": 3219,
      "Ġoffer": 3220,
      "Ġproblems": 3221,
      "Ġassis": 3222,
      "Ġenseign": 3223,
      "Ġrunning": 3224,
      "Ġcharge": 3225,
      "emb": 3226,
      "ged": 3227,
      "Ġequipe": 3228,
      "Ġcake": 3229,
      "Ġsoci": 3230,
      "Ġamb": 3231,
      "Ġtelling": 3232,
      "Ġroad": 3233,
      "Ġconsc": 3234,
      "Ġmistakes": 3235,
      "lorsque": 3236,
      "Ġcadeau": 3237,
      "Ġdange": 3238,
      "Ġset": 3239,
      "onde": 3240,
      "ined": 3241,
      "Ġbord": 3242,
      "ries": 3243,
      "ointed": 3244,
      "agn": 3245,
      "aged": 3246,
      "inee": 3247,
      "Ġseeing": 3248,
      "Ġfacon": 3249,
      "Ġflo": 3250,
      "Ġcrying": 3251,
      "Ġden": 3252,
      "ilite": 3253,
      "Ġhid": 3254,
      "Ġcele": 3255,
      "Ġquiet": 3256,
      "Ġfinalement": 3257,
      "Ġfamil": 3258,
      "Ġproposition": 3259,
      "Ġmauvaise": 3260,
      "Ġnature": 3261,
      "lui": 3262,
      "mat": 3263,
      "ru": 3264,
      "Ġtrente": 3265,
      "Ġfis": 3266,
      "Ġjard": 3267,
      "Ġenvoy": 3268,
      "roy": 3269,
      "Ġannee": 3270,
      "Ġless": 3271,
      "Ġhappens": 3272,
      "Ġrepas": 3273,
      "Ġworked": 3274,
      "Ġcarte": 3275,
      "convenient": 3276,
      "Ġblack": 3277,
      "Ġwalked": 3278,
      "Ġstupide": 3279,
      "Ġsatisf": 3280,
      "cre": 3281,
      "entendre": 3282,
      "Ġtire": 3283,
      "Ġnovel": 3284,
      "Ġhommes": 3285,
      "Ġhelped": 3286,
      "Ġferiez": 3287,
      "Ġspeaks": 3288,
      "Ġfuture": 3289,
      "Ġpuiss": 3290,
      "Ġbroken": 3291,
      "Ġdangerous": 3292,
      "prenez": 3293,
      "Ġcollege": 3294,
      "clock": 3295,
      "Ġger": 3296,
      "Ġreussi": 3297,
      "Ġchoc": 3298,
      "Ġreparer": 3299,
      "Ġtalked": 3300,
      "Ġfamous": 3301,
      "Ġslow": 3302,
      "Ġexperience": 3303,
      "Ġsoup": 3304,
      "Ġmens": 3305,
      "Ġnoise": 3306,
      "Ġvillage": 3307,
      "aim": 3308,
      "rien": 3309,
      "ract": 3310,
      "Ġforward": 3311,
      "Ġdonc": 3312,
      "Ġrh": 3313,
      "Ġdise": 3314,
      "Ġdirect": 3315,
      "Ġecole": 3316,
      "Ġflow": 3317,
      "Ġevening": 3318,
      "Ġpainting": 3319,
      "Ġriviere": 3320,
      "bes": 3321,
      "Â«": 3322,
      "oublie": 3323,
      "Ġdom": 3324,
      "Ġbateau": 3325,
      "Ġneigh": 3326,
      "Ġsuite": 3327,
      "Ġcompris": 3328,
      "Ġserv": 3329,
      "Ġclosed": 3330,
      "Ġdepend": 3331,
      "Ġphotos": 3332,
      "Ġshopping": 3333,
      "Ġmeilleure": 3334,
      "Ġinteressant": 3335,
      "Ġwhether": 3336,
      "Ġrejouis": 3337,
      "Ġneighb": 3338,
      "em": 3339,
      "gue": 3340,
      "mont": 3341,
      "of": 3342,
      "pose": 3343,
      "Ġed": 3344,
      "Ġsell": 3345,
      "quis": 3346,
      "Ġgateau": 3347,
      "oto": 3348,
      "ots": 3349,
      "Ġinj": 3350,
      "Ġplup": 3351,
      "Ġsmoke": 3352,
      "Ġplane": 3353,
      "Ġemprun": 3354,
      "Ġelect": 3355,
      "Ġstrange": 3356,
      "Ġrentre": 3357,
      "rasser": 3358,
      "Ġsembl": 3359,
      "dden": 3360,
      "Ġplupart": 3361,
      "ctu": 3362,
      "irent": 3363,
      "lu": 3364,
      "uve": 3365,
      "val": 3366,
      "Ġsang": 3367,
      "Ġship": 3368,
      "ortez": 3369,
      "appelle": 3370,
      "Ġfinir": 3371,
      "essayer": 3372,
      "arretez": 3373,
      "Ġpoor": 3374,
      "Ġquitter": 3375,
      "Ġrecogn": 3376,
      "histoire": 3377,
      "Ġjardin": 3378,
      "cs": 3379,
      "ieurs": 3380,
      "nel": 3381,
      "rist": 3382,
      "Ġside": 3383,
      "inc": 3384,
      "Ġvend": 3385,
      "idence": 3386,
      "ram": 3387,
      "Ġchante": 3388,
      "Ġride": 3389,
      "ived": 3390,
      "Ġentrer": 3391,
      "Ġvouloir": 3392,
      "Ġhonn": 3393,
      "Ġfonctionne": 3394,
      "Ġpoisson": 3395,
      "Ġsecond": 3396,
      "Ġcorrect": 3397,
      "after": 3398,
      "dans": 3399,
      "form": 3400,
      "Ġpou": 3401,
      "Ġsad": 3402,
      "esse": 3403,
      "itation": 3404,
      "verse": 3405,
      "irt": 3406,
      "Ġjeu": 3407,
      "amen": 3408,
      "Ġpress": 3409,
      "Ġautour": 3410,
      "Ġcommun": 3411,
      "everything": 3412,
      "Ġrappeler": 3413,
      "Ġapprecie": 3414,
      "Ġcrime": 3415,
      "Ġordinateur": 3416,
      "Ġfleurs": 3417,
      "etranger": 3418,
      "iothe": 3419,
      "Ġnoir": 3420,
      "omen": 3421,
      "Ġmem": 3422,
      "rice": 3423,
      "mee": 3424,
      "Ġlibr": 3425,
      "Ġseat": 3426,
      "Ġparviens": 3427,
      "amer": 3428,
      "Ġprodu": 3429,
      "Ġrid": 3430,
      "allons": 3431,
      "Ġpaye": 3432,
      "Ġshowed": 3433,
      "Ġdurant": 3434,
      "Ġwritten": 3435,
      "Ġwearing": 3436,
      "Ġliked": 3437,
      "Ġintelligent": 3438,
      "aimes": 3439,
      "road": 3440,
      "Ġserez": 3441,
      "utile": 3442,
      "Ġstar": 3443,
      "Ġtaken": 3444,
      "raient": 3445,
      "Ġautor": 3446,
      "bliothe": 3447,
      "Ġetudie": 3448,
      "Ġnecessary": 3449,
      "Ġgarden": 3450,
      "Ġwriting": 3451,
      "Ġbibliothe": 3452,
      "instant": 3453,
      "dessus": 3454,
      "aille": 3455,
      "vre": 3456,
      "Ġpauv": 3457,
      "Ġblame": 3458,
      "Ġjol": 3459,
      "people": 3460,
      "Ġmatch": 3461,
      "attra": 3462,
      "Ġaccep": 3463,
      "Ġdogs": 3464,
      "Ġcouple": 3465,
      "Ġpresenter": 3466,
      "Ġgentil": 3467,
      "excuse": 3468,
      "Ġabandon": 3469,
      "Ġcompletely": 3470,
      "Ġlibrary": 3471,
      "Ġbibliotheque": 3472,
      "voi": 3473,
      "Ġmign": 3474,
      "Ġfool": 3475,
      "Ġlac": 3476,
      "Ġleast": 3477,
      "ric": 3478,
      "Ġannees": 3479,
      "Ġparap": 3480,
      "autres": 3481,
      "Ġappar": 3482,
      "Ġwilling": 3483,
      "stay": 3484,
      "Ġentend": 3485,
      "Ġtenir": 3486,
      "Ġendorm": 3487,
      "Ġfemmes": 3488,
      "Ġprepare": 3489,
      "isc": 3490,
      "quiconque": 3491,
      "Ġrecher": 3492,
      "Ġchiens": 3493,
      "dered": 3494,
      "Ġdesk": 3495,
      "olved": 3496,
      "ague": 3497,
      "venez": 3498,
      "Ġeurope": 3499,
      "Ġfact": 3500,
      "Ġduring": 3501,
      "Ġhonest": 3502,
      "Ġfigure": 3503,
      "ement": 3504,
      "irer": 3505,
      "mas": 3506,
      "ove": 3507,
      "Ġtasse": 3508,
      "Ġtreat": 3509,
      "Ġgarde": 3510,
      "usb": 3511,
      "Ġheav": 3512,
      "Ġdonna": 3513,
      "Ġjeunes": 3514,
      "Ġweight": 3515,
      "Ġcanad": 3516,
      "Ġrum": 3517,
      "ffic": 3518,
      "Ġprit": 3519,
      "Ġimpro": 3520,
      "Ġvenue": 3521,
      "Ġoccup": 3522,
      "Ġgirls": 3523,
      "Ġtableau": 3524,
      "Ġcherche": 3525,
      "Ġdistance": 3526,
      "Ġmedicine": 3527,
      "Ġcuri": 3528,
      "Ġpleuvoir": 3529,
      "Ġpoids": 3530,
      "Ġnormal": 3531,
      "Ġsommeil": 3532,
      "Ġconscience": 3533,
      "Ġdent": 3534,
      "Ġfur": 3535,
      "Ġuncle": 3536,
      "Ġlever": 3537,
      "Ġtran": 3538,
      "Ġpreter": 3539,
      "Ġappareil": 3540,
      "toutes": 3541,
      "Ġsmell": 3542,
      "Ġconseils": 3543,
      "Ġswimming": 3544,
      "hi": 3545,
      "ian": 3546,
      "rup": 3547,
      "Ġsout": 3548,
      "head": 3549,
      "Ġcred": 3550,
      "Ġbill": 3551,
      "Ġdeter": 3552,
      "Ġremp": 3553,
      "Ġchair": 3554,
      "Ġintro": 3555,
      "Ġallee": 3556,
      "Ġsolve": 3557,
      "Ġfaute": 3558,
      "arriver": 3559,
      "Ġamoureux": 3560,
      "mbrell": 3561,
      "Ġumbrell": 3562,
      "Ġflowers": 3563,
      "usband": 3564,
      "lf": 3565,
      "lique": 3566,
      "time": 3567,
      "way": 3568,
      "Ġpower": 3569,
      "Ġlist": 3570,
      "Ġhusband": 3571,
      "Ġgas": 3572,
      "Ġtue": 3573,
      "Ġquelcon": 3574,
      "ierement": 3575,
      "Ġspeech": 3576,
      "Ġloved": 3577,
      "Ġconstr": 3578,
      "Ġboyfriend": 3579,
      "plus": 3580,
      "Ġemploy": 3581,
      "Ġactually": 3582,
      "Ġleaving": 3583,
      "Ġdance": 3584,
      "Ġpur": 3585,
      "Ġpost": 3586,
      "Ġsounds": 3587,
      "Ġbother": 3588,
      "Ġtop": 3589,
      "Ġparfois": 3590,
      "Ġoncle": 3591,
      "Ġalive": 3592,
      "Ġaccomp": 3593,
      "Ġdevenu": 3594,
      "Ġnewspap": 3595,
      "Ġnervous": 3596,
      "ev": 3597,
      "uite": 3598,
      "Ġmount": 3599,
      "itch": 3600,
      "Ġsudden": 3601,
      "icle": 3602,
      "ifier": 3603,
      "Ġclub": 3604,
      "Ġcontact": 3605,
      "desole": 3606,
      "nothing": 3607,
      "Ġsucre": 3608,
      "Ġmoyen": 3609,
      "father": 3610,
      "hopital": 3611,
      "Ġaustral": 3612,
      "Ġgout": 3613,
      "Ġchou": 3614,
      "iennes": 3615,
      "Ġroman": 3616,
      "tenu": 3617,
      "Ġmalad": 3618,
      "Ġsupporter": 3619,
      "Ġecoute": 3620,
      "Ġacross": 3621,
      "Ġsentir": 3622,
      "Ġcourir": 3623,
      "Ġsorti": 3624,
      "Ġ10": 3625,
      "Ġdoub": 3626,
      "appreci": 3627,
      "thanks": 3628,
      "Ġtranqu": 3629,
      "ele": 3630,
      "hes": 3631,
      "ial": 3632,
      "luie": 3633,
      "ring": 3634,
      "rase": 3635,
      "Ġmention": 3636,
      "Ġjoke": 3637,
      "Ġabroad": 3638,
      "ortun": 3639,
      "Ġregles": 3640,
      "attendre": 3641,
      "ogra": 3642,
      "Ġlearned": 3643,
      "Ġwarm": 3644,
      "Ġreveille": 3645,
      "Ġrules": 3646,
      "Ġtempete": 3647,
      "Ġamerican": 3648,
      "Ġdangereux": 3649,
      "Ġparapluie": 3650,
      "Ġumbrella": 3651,
      "sois": 3652,
      "vate": 3653,
      "yons": 3654,
      "Ġdoute": 3655,
      "ome": 3656,
      "aisse": 3657,
      "Ġecon": 3658,
      "ides": 3659,
      "Ġalles": 3660,
      "Ġtuer": 3661,
      "beau": 3662,
      "Ġcoll": 3663,
      "Ġsmart": 3664,
      "Ġglass": 3665,
      "Ġdormi": 3666,
      "Ġpapier": 3667,
      "Ġimagine": 3668,
      "Ġegalement": 3669,
      "Ġdisappointed": 3670,
      "Ġfloor": 3671,
      "Ġchocol": 3672,
      "ament": 3673,
      "gie": 3674,
      "opp": 3675,
      "ront": 3676,
      "quit": 3677,
      "Ġbank": 3678,
      "Ġhaut": 3679,
      "Ġparl": 3680,
      "amour": 3681,
      "iennent": 3682,
      "Ġshot": 3683,
      "Ġwhatever": 3684,
      "Ġseriez": 3685,
      "Ġtravaill": 3686,
      "Ġsomebody": 3687,
      "Ġadore": 3688,
      "Ġsmile": 3689,
      "ouvert": 3690,
      "Ġinvolved": 3691,
      "Ġlistening": 3692,
      "Ġfaul": 3693,
      "Ġvacation": 3694,
      "Ġrisque": 3695,
      "Ġamusant": 3696,
      "ape": 3697,
      "since": 3698,
      "Ġpire": 3699,
      "once": 3700,
      "Ġbreat": 3701,
      "Ġowe": 3702,
      "Ġinqui": 3703,
      "Ġinconvenient": 3704,
      "Ġetats": 3705,
      "aujourd": 3706,
      "Ġargu": 3707,
      "Ġattendu": 3708,
      "ression": 3709,
      "Ġbelong": 3710,
      "Ġconst": 3711,
      "Ġliste": 3712,
      "Ġopened": 3713,
      "Ġhabitu": 3714,
      "Ġpieds": 3715,
      "Ġthirty": 3716,
      "Ġrhume": 3717,
      "Ġeconom": 3718,
      "dge": 3719,
      "gment": 3720,
      "lier": 3721,
      "put": 3722,
      "Ġtel": 3723,
      "reme": 3724,
      "Ġcache": 3725,
      "Ġcute": 3726,
      "Ġni": 3727,
      "Ġbath": 3728,
      "iling": 3729,
      "Ġtoile": 3730,
      "ained": 3731,
      "were": 3732,
      "Ġshut": 3733,
      "Ġwhite": 3734,
      "Ġhasn": 3735,
      "Ġsometimes": 3736,
      "Ġcarefully": 3737,
      "Ġexcell": 3738,
      "Ġgarcons": 3739,
      "Ġgrosse": 3740,
      "Ġpommes": 3741,
      "hor": 3742,
      "uer": 3743,
      "Ġlying": 3744,
      "erature": 3745,
      "Ġvict": 3746,
      "Ġdeep": 3747,
      "urt": 3748,
      "Ġstorm": 3749,
      "Ġtriste": 3750,
      "Ġarm": 3751,
      "Ġpron": 3752,
      "Ġouvert": 3753,
      "echer": 3754,
      "Ġlaissez": 3755,
      "Ġkeys": 3756,
      "Ġsentiment": 3757,
      "Ġsleeping": 3758,
      "Ġmagaz": 3759,
      "Ġski": 3760,
      "Ġsuivre": 3761,
      "Ġsuspect": 3762,
      "beaucoup": 3763,
      "obe": 3764,
      "Ġlend": 3765,
      "Ġcross": 3766,
      "Ġfle": 3767,
      "Ġvec": 3768,
      "orais": 3769,
      "ustom": 3770,
      "Ġreconn": 3771,
      "Ġunivers": 3772,
      "veral": 3773,
      "Ġcomporte": 3774,
      "Ġrendez": 3775,
      "Ġseras": 3776,
      "Ġsomewhere": 3777,
      "Ġfermer": 3778,
      "Ġpassed": 3779,
      "miner": 3780,
      "Ġpatron": 3781,
      "Ġquitte": 3782,
      "Ġetudiant": 3783,
      "Ġreussir": 3784,
      "ristmas": 3785,
      "co": 3786,
      "ives": 3787,
      "mi": 3788,
      "Ġcer": 3789,
      "Ġnai": 3790,
      "Ġeither": 3791,
      "Ġheld": 3792,
      "Ġdanser": 3793,
      "Ġtaille": 3794,
      "Ġspoke": 3795,
      "aimez": 3796,
      "quels": 3797,
      "Ġpassee": 3798,
      "Ġdouleur": 3799,
      "empl": 3800,
      "Ġvoix": 3801,
      "occup": 3802,
      "Ġforeign": 3803,
      "Ġurgent": 3804,
      "Ġdessus": 3805,
      "aren": 3806,
      "land": 3807,
      "Ġpose": 3808,
      "Ġfa": 3809,
      "univers": 3810,
      "Ġice": 3811,
      "Ġindi": 3812,
      "Ġdos": 3813,
      "Ġlim": 3814,
      "dejeuner": 3815,
      "Ġparlez": 3816,
      "Ġtraffic": 3817,
      "Ġplusieurs": 3818,
      "Ġserieux": 3819,
      "Ġouver": 3820,
      "ecrire": 3821,
      "Ġfera": 3822,
      "quelque": 3823,
      "Ġpropres": 3824,
      "examen": 3825,
      "Ġwaited": 3826,
      "Ġdiscours": 3827,
      "Ġrencontres": 3828,
      "Ġvoyager": 3829,
      "Ġlunettes": 3830,
      "Ġsalle": 3831,
      "Ġaurais": 3832,
      "Ġdirait": 3833,
      "Ġignore": 3834,
      "rouille": 3835,
      "bles": 3836,
      "book": 3837,
      "show": 3838,
      "Ġdure": 3839,
      "ann": 3840,
      "Ġgif": 3841,
      "Ġmeans": 3842,
      "Ġir": 3843,
      "auche": 3844,
      "Ġwaste": 3845,
      "Ġkn": 3846,
      "Ġky": 3847,
      "Ġcancer": 3848,
      "Ġproche": 3849,
      "ffe": 3850,
      "Ġreser": 3851,
      "appeler": 3852,
      "Ġvivent": 3853,
      "Ġattent": 3854,
      "Ġecl": 3855,
      "Ġanniversaire": 3856,
      "Ġrisk": 3857,
      "Ġagreed": 3858,
      "pas": 3859,
      "tte": 3860,
      "Ġess": 3861,
      "Ġdut": 3862,
      "Ġsle": 3863,
      "Ġwall": 3864,
      "ilt": 3865,
      "ator": 3866,
      "Ġopt": 3867,
      "roche": 3868,
      "Ġchats": 3869,
      "Ġchoose": 3870,
      "Ġapple": 3871,
      "venue": 3872,
      "Ġguys": 3873,
      "Ġdebut": 3874,
      "Ġeasily": 3875,
      "Ġsolution": 3876,
      "Ġdressed": 3877,
      "Ġconnaitre": 3878,
      "voici": 3879,
      "hot": 3880,
      "Ġcit": 3881,
      "Ġbille": 3882,
      "alle": 3883,
      "Ġlequel": 3884,
      "Ġshop": 3885,
      "Ġmariee": 3886,
      "Ġexcuse": 3887,
      "Ġcalme": 3888,
      "Ġcondition": 3889,
      "Ġmariage": 3890,
      "voudriez": 3891,
      "Ġopportun": 3892,
      "Ġbaseball": 3893,
      "Ġallowed": 3894,
      "Ġgiven": 3895,
      "Ġenviron": 3896,
      "Ġembarrass": 3897,
      "Ġpauvre": 3898,
      "Ġcredit": 3899,
      "ctement": 3900,
      "hum": 3901,
      "ior": 3902,
      "lis": 3903,
      "pa": 3904,
      "Ġfair": 3905,
      "orme": 3906,
      "Ġweb": 3907,
      "avion": 3908,
      "lax": 3909,
      "Ġcompter": 3910,
      "Ġprice": 3911,
      "Ġapart": 3912,
      "Ġhardly": 3913,
      "Ġsouvenir": 3914,
      "Ġconcent": 3915,
      "Ġdrole": 3916,
      "Ġcouleur": 3917,
      "Ġcrains": 3918,
      "Ġsignifie": 3919,
      "Ġhorri": 3920,
      "Ġcontrol": 3921,
      "Ġpromised": 3922,
      "Ġcertainement": 3923,
      "Ġguitar": 3924,
      "something": 3925,
      "ket": 3926,
      "mment": 3927,
      "main": 3928,
      "sorry": 3929,
      "Ġtend": 3930,
      "Ġahead": 3931,
      "Ġmout": 3932,
      "Ġbons": 3933,
      "Ġvent": 3934,
      "Ġving": 3935,
      "atique": 3936,
      "Ġoise": 3937,
      "Ġlake": 3938,
      "alite": 3939,
      "Ġegg": 3940,
      "irm": 3941,
      "donnez": 3942,
      "Ġcarry": 3943,
      "Ġperd": 3944,
      "Ġcourant": 3945,
      "Ġcourage": 3946,
      "Ġharder": 3947,
      "voyez": 3948,
      "Ġfacilement": 3949,
      "Ġprepared": 3950,
      "esprit": 3951,
      "Ġressemble": 3952,
      "net": 3953,
      "rite": 3954,
      "Ġer": 3955,
      "Ġcig": 3956,
      "Ġnav": 3957,
      "Ġfond": 3958,
      "Ġbiz": 3959,
      "Ġlead": 3960,
      "ief": 3961,
      "ieme": 3962,
      "Ġmarier": 3963,
      "Ġthinks": 3964,
      "Ġsport": 3965,
      "Ġtwice": 3966,
      "Ġpromen": 3967,
      "Ġearlier": 3968,
      "yste": 3969,
      "Ġfatiguee": 3970,
      "Ġpermis": 3971,
      "Ġfeelings": 3972,
      "Ġsusp": 3973,
      "Ġdriving": 3974,
      "dedans": 3975,
      "Ġvingt": 3976,
      "oil": 3977,
      "Ġtente": 3978,
      "Ġpai": 3979,
      "Ġcul": 3980,
      "Ġwomen": 3981,
      "Ġfail": 3982,
      "Ġremerci": 3983,
      "Ġjack": 3984,
      "restez": 3985,
      "Ġchaise": 3986,
      "Ġparole": 3987,
      "Ġcomb": 3988,
      "ouvrir": 3989,
      "appe": 3990,
      "Ġviande": 3991,
      "Ġbonnes": 3992,
      "Ġsupport": 3993,
      "Ġglasses": 3994,
      "Ġpermission": 3995,
      "Ġimmediately": 3996,
      "bring": 3997,
      "Ġdiscussion": 3998,
      "Ġviendra": 3999,
      "Ġnation": 4000,
      "Ġball": 4001,
      "Ġgouver": 4002,
      "Ġpast": 4003,
      "ales": 4004,
      "Ġmail": 4005,
      "cieux": 4006,
      "Ġherself": 4007,
      "Ġrends": 4008,
      "Ġservi": 4009,
      "Ġvieil": 4010,
      "Ġremind": 4011,
      "Ġafford": 4012,
      "Ġcoucher": 4013,
      "Ġinside": 4014,
      "Ġretourner": 4015,
      "Ġerreurs": 4016,
      "Ġairport": 4017,
      "Ġimpressed": 4018,
      "Ġcontinuer": 4019,
      "Ġreflechir": 4020,
      "Ġreconnaissant": 4021,
      "Ġkyoto": 4022,
      "mother": 4023,
      "Ġ3": 4024,
      "rew": 4025,
      "Ġscient": 4026,
      "Ġciel": 4027,
      "erop": 4028,
      "Ġfly": 4029,
      "Ġvote": 4030,
      "Ġhy": 4031,
      "unis": 4032,
      "reste": 4033,
      "Ġplac": 4034,
      "icated": 4035,
      "âĢī": 4036,
      "Ġdipl": 4037,
      "Ġcondu": 4038,
      "Ġamuse": 4039,
      "Ġsight": 4040,
      "Ġexer": 4041,
      "Ġracont": 4042,
      "ecoute": 4043,
      "Ġeut": 4044,
      "Ġaccused": 4045,
      "ordin": 4046,
      "Ġsentence": 4047,
      "Ġcomprend": 4048,
      "Ġshower": 4049,
      "Ġeleves": 4050,
      "Ġeffray": 4051,
      "Ġsoiree": 4052,
      "Ġimagination": 4053,
      "Ġbatiment": 4054,
      "Ġpopulation": 4055,
      "ufs": 4056,
      "Ġtranquille": 4057,
      "Ġfault": 4058,
      "Ġaille": 4059,
      "Ġcles": 4060,
      "ering": 4061,
      "Ġhop": 4062,
      "arret": 4063,
      "aig": 4064,
      "Ġglace": 4065,
      "rier": 4066,
      "Ġlic": 4067,
      "vern": 4068,
      "gere": 4069,
      "adm": 4070,
      "Ġaviez": 4071,
      "Ġconvers": 4072,
      "Ġappl": 4073,
      "Ġnoel": 4074,
      "ists": 4075,
      "Ġadresse": 4076,
      "Ġmod": 4077,
      "Ġcourse": 4078,
      "Ġvouliez": 4079,
      "Ġdispar": 4080,
      "iving": 4081,
      "Ġboat": 4082,
      "Ġcolor": 4083,
      "ondres": 4084,
      "Ġamerica": 4085,
      "Ġadmit": 4086,
      "ohn": 4087,
      "interieur": 4088,
      "Ġmillion": 4089,
      "Ġchemise": 4090,
      "Ġsociete": 4091,
      "Ġservice": 4092,
      "cut": 4093,
      "hip": 4094,
      "uck": 4095,
      "vies": 4096,
      "oux": 4097,
      "reuse": 4098,
      "Ġsyste": 4099,
      "ask": 4100,
      "Ġrelax": 4101,
      "Ġsuic": 4102,
      "nement": 4103,
      "imag": 4104,
      "urance": 4105,
      "Ġshirt": 4106,
      "avec": 4107,
      "Ġexh": 4108,
      "Ġworse": 4109,
      "Ġgrat": 4110,
      "Ġentra": 4111,
      "Ġrob": 4112,
      "Ġboys": 4113,
      "Ġpictures": 4114,
      "Ġeye": 4115,
      "Ġwonderful": 4116,
      "Ġtemperature": 4117,
      "Ġcooking": 4118,
      "Ġleaves": 4119,
      "aucun": 4120,
      "Ġintrodu": 4121,
      "Ġbizarre": 4122,
      "ails": 4123,
      "has": 4124,
      "pes": 4125,
      "Ġsky": 4126,
      "Ġline": 4127,
      "arbre": 4128,
      "rige": 4129,
      "Ġplenty": 4130,
      "aded": 4131,
      "aked": 4132,
      "Ġpresente": 4133,
      "Ġasking": 4134,
      "Ġideas": 4135,
      "Ġphrase": 4136,
      "Ġimm": 4137,
      "Ġinteresse": 4138,
      "Ġraining": 4139,
      "000": 4140,
      "Ġcopine": 4141,
      "Ġenjoyed": 4142,
      "ferme": 4143,
      "Ġhorse": 4144,
      "Ġanimaux": 4145,
      "Ġinnocent": 4146,
      "Ġrecognize": 4147,
      "Ġconversation": 4148,
      "amp": 4149,
      "hon": 4150,
      "Ġours": 4151,
      "oule": 4152,
      "Ġayez": 4153,
      "Ġpot": 4154,
      "Ġsn": 4155,
      "Ġsand": 4156,
      "Ġmou": 4157,
      "leave": 4158,
      "Ġdepe": 4159,
      "Ġhang": 4160,
      "ently": 4161,
      "mere": 4162,
      "Ġpardon": 4163,
      "Ġgovern": 4164,
      "Ġarme": 4165,
      "ulte": 4166,
      "Ġpartici": 4167,
      "Ġought": 4168,
      "Ġstaying": 4169,
      "Ġrefused": 4170,
      "Ġpieces": 4171,
      "Ġconseilla": 4172,
      "Ġeleve": 4173,
      "Ġembr": 4174,
      "Ġhonte": 4175,
      "Ġattrape": 4176,
      "Ġtransl": 4177,
      "Ġcontrarie": 4178,
      "Ġheavy": 4179,
      "Ġquelconque": 4180,
      "Ġnewspaper": 4181,
      "Ġchouette": 4182,
      "eroport": 4183,
      "suis": 4184,
      "Ġtie": 4185,
      "ened": 4186,
      "isse": 4187,
      "Ġcous": 4188,
      "Ġhol": 4189,
      "ings": 4190,
      "Ġmeat": 4191,
      "Ġforme": 4192,
      "terieur": 4193,
      "Ġmonday": 4194,
      "Ġtrad": 4195,
      "Ġmarch": 4196,
      "ards": 4197,
      "Ġanywhere": 4198,
      "Ġcheval": 4199,
      "Ġgroupe": 4200,
      "Ġsemaines": 4201,
      "ignorais": 4202,
      "Ġvisage": 4203,
      "Ġpainted": 4204,
      "Ġcuisiner": 4205,
      "Ġwinter": 4206,
      "attendais": 4207,
      "Ġfootball": 4208,
      "Ġennuy": 4209,
      "Ġcigare": 4210,
      "even": 4211,
      "mar": 4212,
      "sc": 4213,
      "sons": 4214,
      "Ġsend": 4215,
      "Ġcense": 4216,
      "Ġdece": 4217,
      "Ġlaug": 4218,
      "Ġliar": 4219,
      "acun": 4220,
      "ached": 4221,
      "Ġash": 4222,
      "cket": 4223,
      "Ġdecider": 4224,
      "Ġdepart": 4225,
      "Ġblue": 4226,
      "Ġoccasion": 4227,
      "import": 4228,
      "entretenir": 4229,
      "Ġmerveille": 4230,
      "Ġfallu": 4231,
      "Ġouvrir": 4232,
      "Ġbanque": 4233,
      "Ġhonnete": 4234,
      "Ġjolie": 4235,
      "Ġmountain": 4236,
      "Ġvecu": 4237,
      "Ġslept": 4238,
      "hotel": 4239,
      "Ġremercier": 4240,
      "Ġholid": 4241,
      "Ġlaughed": 4242,
      "aeroport": 4243,
      "iquer": 4244,
      "ttes": 4245,
      "itable": 4246,
      "Ġwel": 4247,
      "Ġmemb": 4248,
      "tee": 4249,
      "Ġjohn": 4250,
      "Ġener": 4251,
      "Ġsejour": 4252,
      "Ġseveral": 4253,
      "Ġavoc": 4254,
      "Ġmarry": 4255,
      "Ġshare": 4256,
      "cts": 4257,
      "Ġmanquer": 4258,
      "Ġcompet": 4259,
      "Ġappeler": 4260,
      "stairs": 4261,
      "isee": 4262,
      "oitie": 4263,
      "Ġfaisons": 4264,
      "Ġpleut": 4265,
      "Ġdebout": 4266,
      "Ġfailed": 4267,
      "Ġepouse": 4268,
      "Ġcourses": 4269,
      "Ġjump": 4270,
      "Ġaimer": 4271,
      "Ġlikely": 4272,
      "Ġmoyens": 4273,
      "Ġlawy": 4274,
      "gen": 4275,
      "enn": 4276,
      "Ġmien": 4277,
      "Ġmoitie": 4278,
      "erie": 4279,
      "Ġvot": 4280,
      "oie": 4281,
      "Ġstick": 4282,
      "those": 4283,
      "Ġarbre": 4284,
      "Ġarret": 4285,
      "Ġprecise": 4286,
      "igner": 4287,
      "ouvre": 4288,
      "Ġfeed": 4289,
      "Ġesc": 4290,
      "Ġspo": 4291,
      "Ġbuilt": 4292,
      "Ġblood": 4293,
      "Ġmovies": 4294,
      "Ġwalking": 4295,
      "Ġlundi": 4296,
      "Ġresponsable": 4297,
      "Ġextreme": 4298,
      "Ġjoindre": 4299,
      "Ġkissed": 4300,
      "Ġfrappe": 4301,
      "Ġressent": 4302,
      "oubliez": 4303,
      "Ġnettoyer": 4304,
      "Ġcelebre": 4305,
      "Ġemprunter": 4306,
      "Ġhabituellement": 4307,
      "dra": 4308,
      "Ġaimes": 4309,
      "Ġdanc": 4310,
      "isn": 4311,
      "inture": 4312,
      "itions": 4313,
      "und": 4314,
      "alous": 4315,
      "Ġchristmas": 4316,
      "angers": 4317,
      "cape": 4318,
      "Ġstuff": 4319,
      "Ġcrow": 4320,
      "Ġincroy": 4321,
      "Ġfallait": 4322,
      "Ġveget": 4323,
      "voudrais": 4324,
      "Ġprogram": 4325,
      "rupt": 4326,
      "cin": 4327,
      "rouve": 4328,
      "Ġpont": 4329,
      "Ġpage": 4330,
      "Ġcout": 4331,
      "Ġnage": 4332,
      "omb": 4333,
      "Ġbody": 4334,
      "atch": 4335,
      "arter": 4336,
      "eli": 4337,
      "teen": 4338,
      "dev": 4339,
      "Ġgolf": 4340,
      "Ġrespe": 4341,
      "Ġpartout": 4342,
      "Ġdirection": 4343,
      "Ġaies": 4344,
      "istance": 4345,
      "Ġlock": 4346,
      "Ġgotten": 4347,
      "ressed": 4348,
      "Ġsoucie": 4349,
      "Ġpull": 4350,
      "Ġweeks": 4351,
      "Ġcoupe": 4352,
      "Ġobject": 4353,
      "Ġrealize": 4354,
      "Ġwarned": 4355,
      "ception": 4356,
      "empecher": 4357,
      "Ġcommenca": 4358,
      "Ġbehav": 4359,
      "ucation": 4360,
      "Ġarticle": 4361,
      "Ġseriously": 4362,
      "Ġignor": 4363,
      "Ġprevu": 4364,
      "Ġsuitc": 4365,
      "affaire": 4366,
      "Ġstylo": 4367,
      "Ġenseignant": 4368,
      "Ġenvoye": 4369,
      "Ġsatisfied": 4370,
      "maintenant": 4371,
      "iar": 4372,
      "met": 4373,
      "ument": 4374,
      "Ġlente": 4375,
      "Ġlondres": 4376,
      "inced": 4377,
      "itive": 4378,
      "ituteur": 4379,
      "Ġwood": 4380,
      "Ġboute": 4381,
      "Ġquant": 4382,
      "Ġgri": 4383,
      "aiss": 4384,
      "Ġmeant": 4385,
      "Ġos": 4386,
      "Ġeche": 4387,
      "verser": 4388,
      "Ġrate": 4389,
      "olen": 4390,
      "Ġcompre": 4391,
      "Ġdemission": 4392,
      "istes": 4393,
      "abilite": 4394,
      "Ġmater": 4395,
      "Ġblague": 4396,
      "Ġterminer": 4397,
      "exterieur": 4398,
      "essayez": 4399,
      "Ġplayed": 4400,
      "Ġtelephon": 4401,
      "Ġdouche": 4402,
      "Ġmenti": 4403,
      "Ġprefererais": 4404,
      "Ġinstru": 4405,
      "Ġtombee": 4406,
      "Ġanimals": 4407,
      "Ġsurviv": 4408,
      "Ġchoisir": 4409,
      "Ġlondon": 4410,
      "Ġpromenade": 4411,
      "Ġgouvernement": 4412,
      "ling": 4413,
      "Ġutile": 4414,
      "Ġsen": 4415,
      "Ġland": 4416,
      "qua": 4417,
      "Ġwake": 4418,
      "Ġfass": 4419,
      "Ġfiche": 4420,
      "ased": 4421,
      "Ġjud": 4422,
      "ayez": 4423,
      "amb": 4424,
      "Ġaugment": 4425,
      "tendez": 4426,
      "Ġtouche": 4427,
      "Ġcontente": 4428,
      "Ġstudi": 4429,
      "Ġblanc": 4430,
      "make": 4431,
      "Ġpromesse": 4432,
      "Ġseemed": 4433,
      "Ġfired": 4434,
      "Ġbird": 4435,
      "occupe": 4436,
      "Ġemmen": 4437,
      "Ġprincip": 4438,
      "Ġtrompe": 4439,
      "quisition": 4440,
      "universite": 4441,
      "Ġduty": 4442,
      "Ġgovernment": 4443,
      "jus": 4444,
      "mand": 4445,
      "od": 4446,
      "ok": 4447,
      "pres": 4448,
      "vious": 4449,
      "wait": 4450,
      "Â»": 4451,
      "Ġsim": 4452,
      "hemat": 4453,
      "Ġlou": 4454,
      "leve": 4455,
      "vered": 4456,
      "ceci": 4457,
      "Ġparles": 4458,
      "Ġstood": 4459,
      "Ġstolen": 4460,
      "Ġring": 4461,
      "Ġdisent": 4462,
      "Ġcompagn": 4463,
      "Ġconnu": 4464,
      "Ġmontagne": 4465,
      "Ġgarage": 4466,
      "Ġefforts": 4467,
      "Ġproposal": 4468,
      "Ġreviend": 4469,
      "Ġconvinced": 4470,
      "Ġdocteur": 4471,
      "Ġhabitue": 4472,
      "Ġbridge": 4473,
      "Ġparticular": 4474,
      "Ġpleased": 4475,
      "Ġcruel": 4476,
      "Ġdoubt": 4477,
      "Ġexcellent": 4478,
      "emy": 4479,
      "hood": 4480,
      "Ġcess": 4481,
      "Ġmel": 4482,
      "inqui": 4483,
      "itie": 4484,
      "Ġfant": 4485,
      "ash": 4486,
      "assi": 4487,
      "ushed": 4488,
      "Ġnez": 4489,
      "Ġneuf": 4490,
      "Ġenemy": 4491,
      "rage": 4492,
      "Ġcomfort": 4493,
      "Ġauriez": 4494,
      "aveur": 4495,
      "Ġalso": 4496,
      "Ġamaz": 4497,
      "ecouter": 4498,
      "apprendre": 4499,
      "Ġcommit": 4500,
      "Ġintention": 4501,
      "irez": 4502,
      "Ġpleure": 4503,
      "Ġgrandfather": 4504,
      "Ġinvest": 4505,
      "Ġmuseu": 4506,
      "Ġcorps": 4507,
      "Ġobtenu": 4508,
      "Ġlangues": 4509,
      "impression": 4510,
      "Ġsinging": 4511,
      "should": 4512,
      "Ġdelic": 4513,
      "Ġfollowed": 4514,
      "Ġactuellement": 4515,
      "Ġchinese": 4516,
      "Ġsouhaite": 4517,
      "Ġbeginning": 4518,
      "Ġinjured": 4519,
      "Ġashamed": 4520,
      "gy": 4521,
      "iff": 4522,
      "voir": 4523,
      "Ġ8": 4524,
      "Ġdents": 4525,
      "Ġpier": 4526,
      "Ġcot": 4527,
      "quelles": 4528,
      "Ġfif": 4529,
      "Ġfile": 4530,
      "Ġfaveur": 4531,
      "aies": 4532,
      "resh": 4533,
      "Ġplu": 4534,
      "Ġallait": 4535,
      "uise": 4536,
      "Ġlongue": 4537,
      "Ġimplique": 4538,
      "Ġfeels": 4539,
      "Ġferait": 4540,
      "Ġmoved": 4541,
      "izz": 4542,
      "Ġrefus": 4543,
      "Ġpersonn": 4544,
      "Ġdetails": 4545,
      "Ġseuls": 4546,
      "Ġmorce": 4547,
      "Ġfortune": 4548,
      "Ġpatience": 4549,
      "Ġhabite": 4550,
      "Ġmerite": 4551,
      "Ġcrimin": 4552,
      "Ġprudente": 4553,
      "Ġsourire": 4554,
      "Ġattraper": 4555,
      "Ġtrees": 4556,
      "Ġconvaincu": 4557,
      "Ġlaughing": 4558,
      "Ġserieusement": 4559,
      "Ġmaladie": 4560,
      "dom": 4561,
      "eff": 4562,
      "ired": 4563,
      "Ġpack": 4564,
      "Ġsie": 4565,
      "Ġfol": 4566,
      "eth": 4567,
      "Ġreellement": 4568,
      "Ġrevenu": 4569,
      "cee": 4570,
      "Ġseven": 4571,
      "Ġital": 4572,
      "urry": 4573,
      "Ġprenez": 4574,
      "uler": 4575,
      "Ġclo": 4576,
      "Ġclos": 4577,
      "aka": 4578,
      "Ġbutton": 4579,
      "Ġderanger": 4580,
      "Ġcommande": 4581,
      "Ġafin": 4582,
      "didn": 4583,
      "Ġidees": 4584,
      "Ġdrank": 4585,
      "Ġsleepy": 4586,
      "Ġmentir": 4587,
      "Ġpopular": 4588,
      "regardez": 4589,
      "Ġennuis": 4590,
      "Ġsuggere": 4591,
      "Ġbottle": 4592,
      "Ġvideo": 4593,
      "Ġhorrible": 4594,
      "Ġincroyable": 4595,
      "Ġlentement": 4596,
      "dle": 4597,
      "Ġtaller": 4598,
      "reg": 4599,
      "ences": 4600,
      "issez": 4601,
      "Ġthough": 4602,
      "Ġmeurt": 4603,
      "Ġobe": 4604,
      "tume": 4605,
      "rested": 4606,
      "iced": 4607,
      "rend": 4608,
      "Ġkil": 4609,
      "accep": 4610,
      "Ġprov": 4611,
      "Ġvert": 4612,
      "Ġapples": 4613,
      "Ġpeint": 4614,
      "Ġoui": 4615,
      "Ġescape": 4616,
      "ectu": 4617,
      "Ġseules": 4618,
      "Ġblind": 4619,
      "Ġgrands": 4620,
      "Ġempty": 4621,
      "Ġcats": 4622,
      "icious": 4623,
      "Ġconduit": 4624,
      "Ġsemblez": 4625,
      "Ġportes": 4626,
      "Ġbouton": 4627,
      "Ġconvaincre": 4628,
      "Ġreceived": 4629,
      "ĠÅĵil": 4630,
      "Ġguitare": 4631,
      "Ġeggs": 4632,
      "Ġmuseum": 4633,
      "bb": 4634,
      "cture": 4635,
      "marie": 4636,
      "sy": 4637,
      "Ġmid": 4638,
      "inv": 4639,
      "Ġbain": 4640,
      "ilar": 4641,
      "ety": 4642,
      "ories": 4643,
      "Ġrevenir": 4644,
      "Ġsept": 4645,
      "Ġstri": 4646,
      "Ġmaj": 4647,
      "Ġproject": 4648,
      "Ġavion": 4649,
      "Ġtient": 4650,
      "anges": 4651,
      "Ġchef": 4652,
      "Ġcheap": 4653,
      "cks": 4654,
      "ounded": 4655,
      "Åĵil": 4656,
      "Ġregarda": 4657,
      "Ġarrives": 4658,
      "Ġcapit": 4659,
      "Ġsauf": 4660,
      "Ġhundre": 4661,
      "Ġvoice": 4662,
      "enfant": 4663,
      "Ġespoir": 4664,
      "Ġgerman": 4665,
      "Ġsuddenly": 4666,
      "ograph": 4667,
      "Ġouverte": 4668,
      "Ġlawyer": 4669,
      "hurry": 4670,
      "oles": 4671,
      "Ġpomme": 4672,
      "Ġloi": 4673,
      "Ġmusee": 4674,
      "Ġvus": 4675,
      "ara": 4676,
      "arch": 4677,
      "Ġoper": 4678,
      "Ġens": 4679,
      "Ġwashing": 4680,
      "Ġmonte": 4681,
      "Ġavions": 4682,
      "Ġfeet": 4683,
      "Ġfear": 4684,
      "Ġhadn": 4685,
      "Ġrarement": 4686,
      "Ġsavons": 4687,
      "Ġaccount": 4688,
      "exper": 4689,
      "Ġpromets": 4690,
      "Ġpersonal": 4691,
      "Ġimportante": 4692,
      "Ġcroit": 4693,
      "Ġnative": 4694,
      "Ġgradu": 4695,
      "Ġpreparer": 4696,
      "Ġinstant": 4697,
      "Ġsilence": 4698,
      "Ġdriver": 4699,
      "Ġemot": 4700,
      "today": 4701,
      "Ġsweet": 4702,
      "Ġagreable": 4703,
      "Ġslowly": 4704,
      "Ġmagazine": 4705,
      "eliore": 4706,
      "cel": 4707,
      "fin": 4708,
      "ple": 4709,
      "Ġtaught": 4710,
      "Ġsche": 4711,
      "esper": 4712,
      "Ġcine": 4713,
      "Ġmienne": 4714,
      "Ġwed": 4715,
      "Ġfresh": 4716,
      "ilty": 4717,
      "Ġreturn": 4718,
      "tead": 4719,
      "riv": 4720,
      "rique": 4721,
      "Ġant": 4722,
      "child": 4723,
      "Ġplays": 4724,
      "Ġpourriez": 4725,
      "terre": 4726,
      "Ġtomb": 4727,
      "urg": 4728,
      "Ġyen": 4729,
      "avis": 4730,
      "Ġsurve": 4731,
      "Ġmanager": 4732,
      "Ġtight": 4733,
      "Ġarrested": 4734,
      "sign": 4735,
      "raight": 4736,
      "whose": 4737,
      "Ġsale": 4738,
      "Ġregle": 4739,
      "Ġguilty": 4740,
      "Ġarrivee": 4741,
      "Ġmets": 4742,
      "Ġconcl": 4743,
      "Ġcalm": 4744,
      "Ġvisited": 4745,
      "Ġacting": 4746,
      "turned": 4747,
      "Ġsignif": 4748,
      "Ġgrave": 4749,
      "Ġfollowing": 4750,
      "Ġechoue": 4751,
      "Ġlanguages": 4752,
      "Ġprintemps": 4753,
      "Ġtraite": 4754,
      "Ġgunsh": 4755,
      "Ġconsidered": 4756,
      "certains": 4757,
      "Ġremarque": 4758,
      "Ġsemblait": 4759,
      "Ġbreath": 4760,
      "Ġnaive": 4761,
      "Ġgift": 4762,
      "Ġmouth": 4763,
      "Ġstudied": 4764,
      "cil": 4765,
      "call": 4766,
      "ror": 4767,
      "sont": 4768,
      "sui": 4769,
      "tra": 4770,
      "Ġding": 4771,
      "Ġpract": 4772,
      "Ġly": 4773,
      "Ġloud": 4774,
      "Ġcoo": 4775,
      "Ġcool": 4776,
      "Ġmorte": 4777,
      "Ġvienne": 4778,
      "Ġsep": 4779,
      "Ġtears": 4780,
      "Ġforte": 4781,
      "ifique": 4782,
      "Ġsonge": 4783,
      "Ġravi": 4784,
      "Ġclair": 4785,
      "uits": 4786,
      "moire": 4787,
      "Ġordered": 4788,
      "Ġnouveaux": 4789,
      "Ġcray": 4790,
      "Ġinvitation": 4791,
      "Ġdrinks": 4792,
      "Ġdrop": 4793,
      "Ġcravate": 4794,
      "Ġyounger": 4795,
      "Ġsitting": 4796,
      "Ġmedicament": 4797,
      "Ġextra": 4798,
      "Ġfourn": 4799,
      "etudier": 4800,
      "hold": 4801,
      "Ġzoo": 4802,
      "expliquer": 4803,
      "Ġpossede": 4804,
      "Ġfishing": 4805,
      "Ġmemory": 4806,
      "Ġpaix": 4807,
      "Ġavocat": 4808,
      "bo": 4809,
      "life": 4810,
      "pri": 4811,
      "pro": 4812,
      "Ġpique": 4813,
      "Ġsache": 4814,
      "Ġlett": 4815,
      "Ġmille": 4816,
      "inform": 4817,
      "ities": 4818,
      "etres": 4819,
      "Ġhuit": 4820,
      "Ġneg": 4821,
      "Ġlave": 4822,
      "Ġjealous": 4823,
      "acter": 4824,
      "Ġcandid": 4825,
      "Ġstraight": 4826,
      "Ġdieu": 4827,
      "Ġrang": 4828,
      "ession": 4829,
      "Ġdevraient": 4830,
      "ifs": 4831,
      "Ġapporte": 4832,
      "aking": 4833,
      "Ġloc": 4834,
      "lette": 4835,
      "Ġspring": 4836,
      "raite": 4837,
      "Ġpretend": 4838,
      "Ġpoe": 4839,
      "Ġrepondu": 4840,
      "Ġprofonde": 4841,
      "Ġfonction": 4842,
      "Ġhistory": 4843,
      "Ġtickets": 4844,
      "demain": 4845,
      "Ġsentiments": 4846,
      "Ġdoig": 4847,
      "Ġneighbor": 4848,
      "Ġendormi": 4849,
      "Ġattentive": 4850,
      "oila": 4851,
      "Ġprecisement": 4852,
      "Ġextremement": 4853,
      "Ġbouteille": 4854,
      "Ġcinema": 4855,
      "cis": 4856,
      "gra": 4857,
      "ieu": 4858,
      "Ġ4": 4859,
      "Ġsain": 4860,
      "Ġcell": 4861,
      "Ġnor": 4862,
      "Ġfing": 4863,
      "Ġboit": 4864,
      "Ġvendre": 4865,
      "ousand": 4866,
      "Ġthrow": 4867,
      "Ġmeal": 4868,
      "Ġlied": 4869,
      "uts": 4870,
      "Ġdeserve": 4871,
      "Ġavaient": 4872,
      "Ġverifier": 4873,
      "Ġfrais": 4874,
      "Ġresol": 4875,
      "aps": 4876,
      "artient": 4877,
      "Ġstuck": 4878,
      "Ġmathemat": 4879,
      "Ġencour": 4880,
      "Ġecouter": 4881,
      "Ġsoud": 4882,
      "Ġremettre": 4883,
      "Ġkeeps": 4884,
      "Ġdroite": 4885,
      "Ġvoler": 4886,
      "Ġrude": 4887,
      "Ġcertainly": 4888,
      "Ġsauve": 4889,
      "Ġplaisant": 4890,
      "Ġdirai": 4891,
      "Ġnerveux": 4892,
      "Ġ20": 4893,
      "Ġblessee": 4894,
      "Ġtrouvait": 4895,
      "Ġsubject": 4896,
      "Ġprevois": 4897,
      "Ġcouteau": 4898,
      "Ġsugar": 4899,
      "Ġsaved": 4900,
      "Ġlonely": 4901,
      "Ġfruits": 4902,
      "Ġsympa": 4903,
      "Ġdivorce": 4904,
      "Ġtrucs": 4905,
      "Ġfamiliar": 4906,
      "Ġknife": 4907,
      "Ġembrasse": 4908,
      "both": 4909,
      "fr": 4910,
      "mage": 4911,
      "mets": 4912,
      "Ġtast": 4913,
      "Ġdort": 4914,
      "Ġpizz": 4915,
      "Ġcried": 4916,
      "Ġcustom": 4917,
      "Ġbais": 4918,
      "entends": 4919,
      "unte": 4920,
      "Ġrequi": 4921,
      "Ġreach": 4922,
      "aitre": 4923,
      "rois": 4924,
      "never": 4925,
      "ury": 4926,
      "Ġpred": 4927,
      "ouvons": 4928,
      "Ġrare": 4929,
      "Ġpeace": 4930,
      "Ġenter": 4931,
      "selves": 4932,
      "Ġheureuses": 4933,
      "asseoir": 4934,
      "Ġconsac": 4935,
      "Ġpleine": 4936,
      "Ġexcited": 4937,
      "Ġpaint": 4938,
      "Ġenseigne": 4939,
      "Ġlistened": 4940,
      "Ġsilen": 4941,
      "Ġconnaissance": 4942,
      "Ġseconde": 4943,
      "Ġcorrectement": 4944,
      "Ġprotect": 4945,
      "Ġfaster": 4946,
      "certaines": 4947,
      "aimait": 4948,
      "children": 4949,
      "gal": 4950,
      "iments": 4951,
      "phe": 4952,
      "sur": 4953,
      "vos": 4954,
      "Ġlour": 4955,
      "Ġnose": 4956,
      "rime": 4957,
      "aurai": 4958,
      "Ġchine": 4959,
      "Ġsea": 4960,
      "ird": 4961,
      "Ġkitch": 4962,
      "acquisition": 4963,
      "Ġavoid": 4964,
      "usted": 4965,
      "Ġsurs": 4966,
      "idee": 4967,
      "Ġrepro": 4968,
      "Ġhelping": 4969,
      "Ġimporte": 4970,
      "Ġlog": 4971,
      "Ġbuying": 4972,
      "itesse": 4973,
      "Ġcherch": 4974,
      "Ġvolont": 4975,
      "Ġgentle": 4976,
      "Ġlarmes": 4977,
      "Ġgrew": 4978,
      "Ġgreen": 4979,
      "Ġgrowing": 4980,
      "Ġparfaitement": 4981,
      "Ġbattre": 4982,
      "Ġnaturel": 4983,
      "Ġmensonge": 4984,
      "Ġbillet": 4985,
      "experience": 4986,
      "cue": 4987,
      "jam": 4988,
      "Ġlow": 4989,
      "ouser": 4990,
      "orie": 4991,
      "Ġgauche": 4992,
      "Ġlegu": 4993,
      "Ġevent": 4994,
      "Ġdocu": 4995,
      "Ġnotice": 4996,
      "Ġasse": 4997,
      "Ġtraverser": 4998,
      "Ġconne": 4999,
      "ctions": 5000,
      "Ġrains": 5001,
      "Ġclaire": 5002,
      "Ġaiment": 5003,
      "Ġcommon": 5004,
      "Ġvoitures": 5005,
      "Ġvaleur": 5006,
      "Ġfaisais": 5007,
      "Ġsoupe": 5008,
      "Ġawake": 5009,
      "Ġsortie": 5010,
      "Ġflat": 5011,
      "Ġsooner": 5012,
      "Ġtourne": 5013,
      "Ġretourne": 5014,
      "Ġprofession": 5015,
      "Ġsoient": 5016,
      "Ġstanding": 5017,
      "Ġextrem": 5018,
      "Ġfoule": 5019,
      "Ġregrette": 5020,
      "demande": 5021,
      "Ġabandonne": 5022,
      "Ġbrave": 5023,
      "Ġrecherche": 5024,
      "Ġkitchen": 5025,
      "eche": 5026,
      "gest": 5027,
      "jap": 5028,
      "mettez": 5029,
      "neu": 5030,
      "old": 5031,
      "pir": 5032,
      "Ġtas": 5033,
      "rees": 5034,
      "enne": 5035,
      "isation": 5036,
      "Ġlos": 5037,
      "Ġmise": 5038,
      "Ġnul": 5039,
      "leterre": 5040,
      "Ġbour": 5041,
      "Ġhu": 5042,
      "Ġhide": 5043,
      "orn": 5044,
      "riger": 5045,
      "Ġbeat": 5046,
      "outes": 5047,
      "Ġking": 5048,
      "ural": 5049,
      "urch": 5050,
      "Ġarr": 5051,
      "Ġdemen": 5052,
      "Ġhasard": 5053,
      "Ġoubl": 5054,
      "Ġdecouvert": 5055,
      "Ġtalks": 5056,
      "Ġsavent": 5057,
      "issent": 5058,
      "Ġprets": 5059,
      "Ġdetest": 5060,
      "Ġcoupable": 5061,
      "Ġbouche": 5062,
      "Ġforgive": 5063,
      "Ġskin": 5064,
      "Ġprisonn": 5065,
      "Ġboring": 5066,
      "chaque": 5067,
      "Ġterrif": 5068,
      "Ġproteger": 5069,
      "aucune": 5070,
      "Ġpersuade": 5071,
      "Ġcircul": 5072,
      "Ġuniversity": 5073,
      "Ġexha": 5074,
      "Ġenergy": 5075,
      "Ġensuite": 5076,
      "io": 5077,
      "tw": 5078,
      "ual": 5079,
      "vois": 5080,
      "Ġ6": 5081,
      "Ġille": 5082,
      "Ġ30": 5083,
      "Ġdad": 5084,
      "Ġpon": 5085,
      "eng": 5086,
      "heur": 5087,
      "its": 5088,
      "Ġfed": 5089,
      "Ġbored": 5090,
      "ateurs": 5091,
      "Ġreturned": 5092,
      "Ġmemoire": 5093,
      "Ġira": 5094,
      "Ġoct": 5095,
      "Ġlaver": 5096,
      "Ġlazy": 5097,
      "alors": 5098,
      "Ġchurch": 5099,
      "tenez": 5100,
      "Ġseront": 5101,
      "ighted": 5102,
      "Ġgroup": 5103,
      "astic": 5104,
      "Ġattack": 5105,
      "Ġretire": 5106,
      "Ġflu": 5107,
      "Ġflight": 5108,
      "Ġscene": 5109,
      "Ġexcit": 5110,
      "Ġclever": 5111,
      "Ġgene": 5112,
      "Ġconduis": 5113,
      "Ġmissing": 5114,
      "Ġlearning": 5115,
      "Ġvolunte": 5116,
      "Ġnerve": 5117,
      "Ġvalise": 5118,
      "occasion": 5119,
      "Ġjuge": 5120,
      "Ġchinois": 5121,
      "Ġgerer": 5122,
      "occuper": 5123,
      "Ġapartment": 5124,
      "Ġwelcome": 5125,
      "Ġschedu": 5126,
      "cool": 5127,
      "equipe": 5128,
      "mis": 5129,
      "well": 5130,
      "watch": 5131,
      "Ġlune": 5132,
      "Ġcow": 5133,
      "Ġcreat": 5134,
      "Ġfie": 5135,
      "Ġfaux": 5136,
      "Ġbread": 5137,
      "ata": 5138,
      "attendez": 5139,
      "arm": 5140,
      "entend": 5141,
      "aign": 5142,
      "Ġreves": 5143,
      "Ġjal": 5144,
      "mpe": 5145,
      "Ġdirige": 5146,
      "Ġamong": 5147,
      "Ġworst": 5148,
      "igin": 5149,
      "Ġparties": 5150,
      "aken": 5151,
      "Ġentierement": 5152,
      "Ġperte": 5153,
      "Ġallerg": 5154,
      "Ġfriendly": 5155,
      "Ġvenus": 5156,
      "Ġaccord": 5157,
      "Ġwatched": 5158,
      "Ġgrandes": 5159,
      "exer": 5160,
      "Ġaware": 5161,
      "Ġscream": 5162,
      "Ġcalling": 5163,
      "Ġfrequ": 5164,
      "Ġexplan": 5165,
      "Ġobser": 5166,
      "Ġshoot": 5167,
      "Ġeffic": 5168,
      "Ġvoudriez": 5169,
      "Ġbless": 5170,
      "entreprise": 5171,
      "Ġrule": 5172,
      "Ġproduire": 5173,
      "Ġportait": 5174,
      "Ġresponsible": 5175,
      "Ġresponsib": 5176,
      "Ġdelighted": 5177,
      "excuser": 5178,
      "Ġselon": 5179,
      "Ġparticulier": 5180,
      "ĠÅĵufs": 5181,
      "Ġcomplaining": 5182,
      "Ġpolitique": 5183,
      "Ġconference": 5184,
      "attraper": 5185,
      "Ġappartement": 5186,
      "Ġfurther": 5187,
      "Ġopportunity": 5188,
      "Ġlegumes": 5189,
      "Ġextremely": 5190,
      "japan": 5191,
      "bum": 5192,
      "deux": 5193,
      "off": 5194,
      "pu": 5195,
      "tiens": 5196,
      "Ġpair": 5197,
      "Ġmas": 5198,
      "inue": 5199,
      "arrasser": 5200,
      "Ġqual": 5201,
      "usse": 5202,
      "Ġrequ": 5203,
      "Ġreached": 5204,
      "Ġunited": 5205,
      "Ġteeth": 5206,
      "Ġpourrions": 5207,
      "Ġweird": 5208,
      "Ġgod": 5209,
      "Ġgold": 5210,
      "Ġmarrant": 5211,
      "Ġsurf": 5212,
      "oph": 5213,
      "pourv": 5214,
      "Ġnobody": 5215,
      "Ġcars": 5216,
      "Ġenfin": 5217,
      "Ġoccur": 5218,
      "Ġjaponaise": 5219,
      "Ġvisiter": 5220,
      "Ġmeaning": 5221,
      "Ġrelig": 5222,
      "Ġdreams": 5223,
      "Ġsteal": 5224,
      "Ġanimal": 5225,
      "Ġexplained": 5226,
      "Ġcontrole": 5227,
      "Ġballe": 5228,
      "energie": 5229,
      "Ġaustralia": 5230,
      "Ġhyp": 5231,
      "Ġcompagnie": 5232,
      "Ġcloche": 5233,
      "Ġhundred": 5234,
      "Ġwedding": 5235,
      "gre": 5236,
      "ging": 5237,
      "light": 5238,
      "sm": 5239,
      "sp": 5240,
      "vas": 5241,
      "Ġtar": 5242,
      "het": 5243,
      "Ġcos": 5244,
      "Ġband": 5245,
      "jection": 5246,
      "Ġrever": 5247,
      "Ġrepe": 5248,
      "Ġeight": 5249,
      "Ġepuis": 5250,
      "Ġanc": 5251,
      "tern": 5252,
      "andis": 5253,
      "Ġaura": 5254,
      "Ġmagn": 5255,
      "Ġavance": 5256,
      "Ġsigne": 5257,
      "dois": 5258,
      "Ġappa": 5259,
      "Ġclient": 5260,
      "Ġentire": 5261,
      "Ġcontrib": 5262,
      "Ġdecu": 5263,
      "Ġmoder": 5264,
      "Ġplanning": 5265,
      "Ġrestes": 5266,
      "Ġfreres": 5267,
      "Ġobtenir": 5268,
      "Ġshocked": 5269,
      "Ġeffectu": 5270,
      "Ġconvince": 5271,
      "somebody": 5272,
      "Ġentreprise": 5273,
      "Ġchaude": 5274,
      "Ġkidding": 5275,
      "Ġbicyc": 5276,
      "Ġbagages": 5277,
      "Ġsilent": 5278,
      "Ġnearly": 5279,
      "Ġmonths": 5280,
      "Ġresultat": 5281,
      "Ġpanne": 5282,
      "amerique": 5283,
      "Ġgasp": 5284,
      "Ġlicense": 5285,
      "Ġbehavior": 5286,
      "Ġsuitcase": 5287,
      "Ġcomfortable": 5288,
      "Ġmorceau": 5289,
      "bon": 5290,
      "happ": 5291,
      "ires": 5292,
      "line": 5293,
      "Ġ7": 5294,
      "Ġlat": 5295,
      "ina": 5296,
      "itut": 5297,
      "Ġvain": 5298,
      "Ġdepourv": 5299,
      "Ġtheorie": 5300,
      "Ġgate": 5301,
      "Ġgiving": 5302,
      "Ġemer": 5303,
      "Ġinde": 5304,
      "depe": 5305,
      "utely": 5306,
      "Ġwash": 5307,
      "Ġkno": 5308,
      "Ġstole": 5309,
      "Ġstates": 5310,
      "Ġsoyons": 5311,
      "cious": 5312,
      "Ġpenetre": 5313,
      "Ġfaits": 5314,
      "Ġprepar": 5315,
      "Ġprecip": 5316,
      "Ġdemar": 5317,
      "Ġcontra": 5318,
      "Ġbrule": 5319,
      "Ġspot": 5320,
      "Ġeats": 5321,
      "Ġecriv": 5322,
      "Ġtenu": 5323,
      "Ġpretes": 5324,
      "Ġchaleur": 5325,
      "Ġinvites": 5326,
      "Ġcalls": 5327,
      "Ġmetho": 5328,
      "Ġtotally": 5329,
      "Ġcouper": 5330,
      "Ġdouble": 5331,
      "velopp": 5332,
      "Ġmerci": 5333,
      "Ġsingle": 5334,
      "Ġinteressante": 5335,
      "Ġchina": 5336,
      "Ġchansons": 5337,
      "Ġpicked": 5338,
      "Ġhealthy": 5339,
      "Ġdescri": 5340,
      "Ġplaindre": 5341,
      "Ġressemb": 5342,
      "Ġabsolument": 5343,
      "Ġdoivent": 5344,
      "Ġhiding": 5345,
      "montre": 5346,
      "Ġoccupes": 5347,
      "Ġraconter": 5348,
      "Ġsuicide": 5349,
      "underst": 5350,
      "Ġvegetables": 5351,
      "Ġosaka": 5352,
      "information": 5353,
      "aque": 5354,
      "lac": 5355,
      "pris": 5356,
      "sortez": 5357,
      "Ġdote": 5358,
      "Ġcur": 5359,
      "Ġwoke": 5360,
      "Ġbare": 5361,
      "Ġvase": 5362,
      "etage": 5363,
      "usion": 5364,
      "Ġid": 5365,
      "Ġunique": 5366,
      "rimer": 5367,
      "Ġligne": 5368,
      "ications": 5369,
      "amis": 5370,
      "aman": 5371,
      "Ġcanape": 5372,
      "Ġsocc": 5373,
      "Ġmys": 5374,
      "Ġmap": 5375,
      "Ġalbum": 5376,
      "Ġarbres": 5377,
      "iger": 5378,
      "Ġpartis": 5379,
      "Ġappel": 5380,
      "aped": 5381,
      "venus": 5382,
      "Ġjambe": 5383,
      "Ġclock": 5384,
      "Ġrepare": 5385,
      "Ġlocked": 5386,
      "Ġpresence": 5387,
      "Ġcommis": 5388,
      "Ġsmarter": 5389,
      "attention": 5390,
      "Ġpale": 5391,
      "Ġpause": 5392,
      "Ġmoon": 5393,
      "Ġcesse": 5394,
      "Ġessaya": 5395,
      "Ġeffe": 5396,
      "Ġdebarrasser": 5397,
      "Ġrealized": 5398,
      "Ġsalaire": 5399,
      "gged": 5400,
      "Ġrendit": 5401,
      "Ġbrothers": 5402,
      "Ġexpecting": 5403,
      "habitu": 5404,
      "Ġcookies": 5405,
      "Ġlights": 5406,
      "Ġexamen": 5407,
      "Ġbike": 5408,
      "Ġdefin": 5409,
      "Ġearthqu": 5410,
      "Ġabsolutely": 5411,
      "Ġelectric": 5412,
      "Ġautorise": 5413,
      "Ġaccepte": 5414,
      "Ġdisparu": 5415,
      "Ġholiday": 5416,
      "Ġlettres": 5417,
      "Ġsilencieux": 5418,
      "Ġoctob": 5419,
      "Ġschedule": 5420,
      "Ġexplanation": 5421,
      "Ġsoccer": 5422,
      "fs": 5423,
      "feu": 5424,
      "jou": 5425,
      "Ġdan": 5426,
      "oncer": 5427,
      "Ġcelles": 5428,
      "quet": 5429,
      "Ġbul": 5430,
      "Ġbrie": 5431,
      "Ġvint": 5432,
      "Ġvitesse": 5433,
      "jeune": 5434,
      "Ġtheory": 5435,
      "ieves": 5436,
      "Ġchick": 5437,
      "Ġtext": 5438,
      "endie": 5439,
      "Ġcab": 5440,
      "Ġcaused": 5441,
      "Ġsombre": 5442,
      "Ġmaries": 5443,
      "Ġconge": 5444,
      "Ġprevent": 5445,
      "Ġappoint": 5446,
      "Ġrepos": 5447,
      "Ġcartes": 5448,
      "Ġador": 5449,
      "Ġbrise": 5450,
      "Ġrose": 5451,
      "aband": 5452,
      "Ġexpert": 5453,
      "Ġposition": 5454,
      "Ġvues": 5455,
      "Ġmode": 5456,
      "Ġveuilles": 5457,
      "glise": 5458,
      "Ġengland": 5459,
      "Ġcorde": 5460,
      "Ġbedroom": 5461,
      "Ġbigger": 5462,
      "Ġincap": 5463,
      "Ġmatters": 5464,
      "Ġdifficultes": 5465,
      "Ġfilms": 5466,
      "Ġsongs": 5467,
      "Ġoblig": 5468,
      "Ġcirculation": 5469,
      "ker": 5470,
      "pendant": 5471,
      "pouvons": 5472,
      "sans": 5473,
      "vation": 5474,
      "wers": 5475,
      "Ġtill": 5476,
      "Ġsqu": 5477,
      "Ġhall": 5478,
      "Ġhob": 5479,
      "orde": 5480,
      "eless": 5481,
      "Ġthousand": 5482,
      "Ġore": 5483,
      "Ġlady": 5484,
      "Ġlecture": 5485,
      "Ġeveille": 5486,
      "Ġetat": 5487,
      "rog": 5488,
      "ney": 5489,
      "Ġpars": 5490,
      "Ġtech": 5491,
      "icule": 5492,
      "Ġdue": 5493,
      "lage": 5494,
      "allais": 5495,
      "Ġpeinture": 5496,
      "Ġspect": 5497,
      "Ġexpliquer": 5498,
      "Ġview": 5499,
      "Ġspeaker": 5500,
      "Ġtwenty": 5501,
      "Ġpretended": 5502,
      "Ġchamp": 5503,
      "cesse": 5504,
      "Ġderniers": 5505,
      "Ġdisputer": 5506,
      "Ġcroy": 5507,
      "action": 5508,
      "Ġdropped": 5509,
      "Ġeffort": 5510,
      "querir": 5511,
      "Ġadvant": 5512,
      "Ġsauver": 5513,
      "Ġdonnerai": 5514,
      "Ġprendra": 5515,
      "viend": 5516,
      "Ġattractive": 5517,
      "Ġfright": 5518,
      "Ġconcerned": 5519,
      "Ġharm": 5520,
      "Ġcurious": 5521,
      "Ġplaces": 5522,
      "importance": 5523,
      "Ġspoken": 5524,
      "Ġmajor": 5525,
      "Ġpizza": 5526,
      "Ġexhausted": 5527,
      "nant": 5528,
      "nic": 5529,
      "rat": 5530,
      "rouv": 5531,
      "xim": 5532,
      "Ġtandis": 5533,
      "Ġailles": 5534,
      "Ġdam": 5535,
      "Ġmira": 5536,
      "lequel": 5537,
      "arme": 5538,
      "orge": 5539,
      "Ġthreat": 5540,
      "Ġow": 5541,
      "Ġjet": 5542,
      "Ġenne": 5543,
      "Ġparait": 5544,
      "Ġpoursui": 5545,
      "Ġnoticed": 5546,
      "Ġstock": 5547,
      "Ġdesire": 5548,
      "cice": 5549,
      "Ġshar": 5550,
      "Ġroi": 5551,
      "Ġprot": 5552,
      "anged": 5553,
      "Ġpecher": 5554,
      "hered": 5555,
      "sert": 5556,
      "Ġrope": 5557,
      "conte": 5558,
      "issait": 5559,
      "Ġauthor": 5560,
      "Ġaccuse": 5561,
      "Ġdrown": 5562,
      "ieved": 5563,
      "Ġrecord": 5564,
      "Ġconnaissez": 5565,
      "Ġinstead": 5566,
      "Ġmorts": 5567,
      "Ġmisunderst": 5568,
      "Ġcapital": 5569,
      "Ġinternet": 5570,
      "Ġpermettre": 5571,
      "Ġannoy": 5572,
      "Ġtrusted": 5573,
      "Ġcomplete": 5574,
      "Ġstep": 5575,
      "Ġconfectionne": 5576,
      "Ġcritique": 5577,
      "Ġgeneral": 5578,
      "Ġneighbors": 5579,
      "Ġpurpose": 5580,
      "Ġinquiet": 5581,
      "Ġcrayon": 5582,
      "Ġgentleman": 5583,
      "Ġnulle": 5584,
      "ares": 5585,
      "bri": 5586,
      "gner": 5587,
      "hand": 5588,
      "ji": 5589,
      "vant": 5590,
      "Ġtiens": 5591,
      "Ġpant": 5592,
      "Ġpare": 5593,
      "help": 5594,
      "Ġmett": 5595,
      "ita": 5596,
      "Ġwise": 5597,
      "Ġfiere": 5598,
      "Ġfasses": 5599,
      "asun": 5600,
      "Ġbisc": 5601,
      "Ġtoward": 5602,
      "Ġquot": 5603,
      "unt": 5604,
      "eds": 5605,
      "Ġmecs": 5606,
      "Ġhero": 5607,
      "Ġetasun": 5608,
      "chois": 5609,
      "Ġforced": 5610,
      "icier": 5611,
      "osition": 5612,
      "Ġstone": 5613,
      "Ġaud": 5614,
      "Ġautom": 5615,
      "Ġavail": 5616,
      "Ġaveug": 5617,
      "Ġpencil": 5618,
      "Ġriches": 5619,
      "Ġveritable": 5620,
      "Ġserons": 5621,
      "Ġentered": 5622,
      "Ġmalheure": 5623,
      "Ġsupplement": 5624,
      "Ġdepense": 5625,
      "Ġsoul": 5626,
      "Ġbelieved": 5627,
      "expl": 5628,
      "Ġrecently": 5629,
      "Ġ100": 5630,
      "Ġassister": 5631,
      "Ġexplique": 5632,
      "Ġsatur": 5633,
      "Ġincre": 5634,
      "Ġsalt": 5635,
      "Ġletters": 5636,
      "Ġsinger": 5637,
      "faisons": 5638,
      "Ġdirais": 5639,
      "Ġdirty": 5640,
      "Ġforever": 5641,
      "Ġidiote": 5642,
      "Ġpoison": 5643,
      "Ġtremble": 5644,
      "Ġdisposons": 5645,
      "bye": 5646,
      "Ġobligee": 5647,
      "sometimes": 5648,
      "Ġaccepter": 5649,
      "Ġmignon": 5650,
      "Ġsandw": 5651,
      "Ġmeurtre": 5652,
      "two": 5653,
      "sors": 5654,
      "write": 5655,
      "rep": 5656,
      "Ġach": 5657,
      "Ġsamed": 5658,
      "onner": 5659,
      "Ġcoun": 5660,
      "Ġmic": 5661,
      "iture": 5662,
      "Ġnuts": 5663,
      "quette": 5664,
      "ilites": 5665,
      "Ġmech": 5666,
      "Ġuns": 5667,
      "Ġsures": 5668,
      "Ġheat": 5669,
      "Ġchances": 5670,
      "Ġliqu": 5671,
      "Ġnotes": 5672,
      "ama": 5673,
      "Ġtraverse": 5674,
      "Ġmanaged": 5675,
      "ellerai": 5676,
      "Ġtirer": 5677,
      "Ġdevint": 5678,
      "Ġpratique": 5679,
      "Ġserve": 5680,
      "Ġtoucher": 5681,
      "appro": 5682,
      "Ġattitude": 5683,
      "Ġorigin": 5684,
      "Ġsports": 5685,
      "assurer": 5686,
      "Ġcovered": 5687,
      "Ġmath": 5688,
      "Ġpensent": 5689,
      "Ġretraite": 5690,
      "Ġdrug": 5691,
      "Ġfume": 5692,
      "Ġcouru": 5693,
      "Ġpolite": 5694,
      "Ġinteressee": 5695,
      "Ġexplication": 5696,
      "Ġobvious": 5697,
      "Ġrealite": 5698,
      "Ġdevenue": 5699,
      "Ġtourner": 5700,
      "Ġcountries": 5701,
      "Ġgentille": 5702,
      "Ġfeuilles": 5703,
      "Ġresponsabilite": 5704,
      "Ġdecida": 5705,
      "Ġhuman": 5706,
      "Ġcash": 5707,
      "Ġchanges": 5708,
      "Ġsweater": 5709,
      "Ġlegs": 5710,
      "Ġchoisi": 5711,
      "Ġimpressionne": 5712,
      "Ġattemp": 5713,
      "Ġrecommande": 5714,
      "emmen": 5715,
      "montrez": 5716,
      "Ġemploye": 5717,
      "Ġchocolat": 5718,
      "Ġnavire": 5719,
      "Ġgunshot": 5720,
      "Ġdingue": 5721,
      "Ġattentivement": 5722,
      "Ġlosing": 5723,
      "Ġcostume": 5724,
      "Ġadvantage": 5725,
      "Ġsaturday": 5726,
      "cter": 5727,
      "ere": 5728,
      "with": 5729,
      "ouille": 5730,
      "Ġavert": 5731,
      "Ġpul": 5732,
      "Ġprive": 5733,
      "onom": 5734,
      "Ġcream": 5735,
      "Ġmood": 5736,
      "Ġwal": 5737,
      "Ġhes": 5738,
      "Ġlab": 5739,
      "Ġetage": 5740,
      "Ġiss": 5741,
      "Ġanx": 5742,
      "Ġchoque": 5743,
      "Ġforces": 5744,
      "tery": 5745,
      "Ġweap": 5746,
      "Ġaurez": 5747,
      "Ġalla": 5748,
      "Ġproc": 5749,
      "avance": 5750,
      "avenir": 5751,
      "oney": 5752,
      "Ġdistur": 5753,
      "Ġsach": 5754,
      "Ġmaisons": 5755,
      "Ġcarried": 5756,
      "Ġadult": 5757,
      "Ġroses": 5758,
      "Ġcroi": 5759,
      "aimeriez": 5760,
      "Ġmoque": 5761,
      "Ġsentis": 5762,
      "Ġthemselves": 5763,
      "phone": 5764,
      "Ġdetr": 5765,
      "Ġdetail": 5766,
      "Ġunderstood": 5767,
      "Ġscience": 5768,
      "Ġconfused": 5769,
      "lik": 5770,
      "Ġassistance": 5771,
      "Ġvoisins": 5772,
      "Ġmenteur": 5773,
      "Ġprendrai": 5774,
      "Ġbetray": 5775,
      "Ġwindows": 5776,
      "Ġsembles": 5777,
      "Ġbarbe": 5778,
      "Ġsuggestion": 5779,
      "Ġmurder": 5780,
      "Ġdommage": 5781,
      "Ġargument": 5782,
      "Ġcomportement": 5783,
      "anniversaire": 5784,
      "Ġembarrassed": 5785,
      "Ġcousin": 5786,
      "Ġjudge": 5787,
      "Ġamazing": 5788,
      "accepter": 5789,
      "Ġlycee": 5790,
      "Ġresponsibility": 5791,
      "Ġbicyclette": 5792,
      "Ġdanse": 5793,
      "Ġwallet": 5794,
      "cence": 5795,
      "nique": 5796,
      "naie": 5797,
      "reur": 5798,
      "Ġpal": 5799,
      "Ġpaie": 5800,
      "Ġpisc": 5801,
      "Ġpsy": 5802,
      "Ġcouver": 5803,
      "Ġmir": 5804,
      "Ġnine": 5805,
      "Ġfal": 5806,
      "ieuse": 5807,
      "Ġbear": 5808,
      "Ġbecom": 5809,
      "rain": 5810,
      "Ġchess": 5811,
      "their": 5812,
      "Ġlies": 5813,
      "Ġplant": 5814,
      "endroit": 5815,
      "acite": 5816,
      "illi": 5817,
      "Ġprove": 5818,
      "Ġyell": 5819,
      "Ġdiet": 5820,
      "Ġmarket": 5821,
      "Ġsurvenu": 5822,
      "Ġdishes": 5823,
      "Ġprise": 5824,
      "Ġpartage": 5825,
      "ouvrez": 5826,
      "Ġclou": 5827,
      "Ġesper": 5828,
      "Ġrepres": 5829,
      "ecris": 5830,
      "istic": 5831,
      "Ġlocal": 5832,
      "Ġrole": 5833,
      "Ġregul": 5834,
      "Ġmatinee": 5835,
      "Ġpensait": 5836,
      "Ġprior": 5837,
      "Ġdepressed": 5838,
      "Ġguest": 5839,
      "Ġexcite": 5840,
      "Ġhearing": 5841,
      "Ġmauvaises": 5842,
      "Ġabsence": 5843,
      "Ġauras": 5844,
      "Ġnatural": 5845,
      "Ġskier": 5846,
      "Ġdifferentes": 5847,
      "Ġmeilleurs": 5848,
      "Ġforgotten": 5849,
      "Ġboisson": 5850,
      "Ġvoleur": 5851,
      "Ġpunctu": 5852,
      "fortun": 5853,
      "Ġpossibility": 5854,
      "Ġpousser": 5855,
      "Ġengage": 5856,
      "Ġcampagne": 5857,
      "Ġclimb": 5858,
      "Ġfighting": 5859,
      "Ġdenied": 5860,
      "Ġeducation": 5861,
      "Ġoiseaux": 5862,
      "Ġexercise": 5863,
      "gency": 5864,
      "Ġescaped": 5865,
      "Ġfolle": 5866,
      "Ġcooper": 5867,
      "Ġponctu": 5868,
      "happy": 5869,
      "Ġappointment": 5870,
      "Ġhobby": 5871,
      "Ġavailable": 5872,
      "eh": 5873,
      "haps": 5874,
      "mal": 5875,
      "ners": 5876,
      "prom": 5877,
      "wor": 5878,
      "zen": 5879,
      "Ġpoin": 5880,
      "Ġmons": 5881,
      "itot": 5882,
      "Ġfab": 5883,
      "ato": 5884,
      "Ġnee": 5885,
      "Ġunless": 5886,
      "Ġjeter": 5887,
      "Ġenvers": 5888,
      "Ġchanc": 5889,
      "depuis": 5890,
      "Ġparlent": 5891,
      "Ġjeux": 5892,
      "acle": 5893,
      "Ġweak": 5894,
      "Ġdesp": 5895,
      "ader": 5896,
      "Ġconte": 5897,
      "Ġshy": 5898,
      "Ġriz": 5899,
      "compl": 5900,
      "Ġsaf": 5901,
      "oye": 5902,
      "Ġcheer": 5903,
      "redi": 5904,
      "apper": 5905,
      "Ġprize": 5906,
      "Ġlaissa": 5907,
      "Ġmonter": 5908,
      "Ġlots": 5909,
      "Ġoldest": 5910,
      "mail": 5911,
      "Ġfache": 5912,
      "Ġstarting": 5913,
      "Ġended": 5914,
      "Ġaffe": 5915,
      "Ġpoliceman": 5916,
      "Ġincl": 5917,
      "heureusement": 5918,
      "Ġpreferee": 5919,
      "Ġblesser": 5920,
      "Ġchauff": 5921,
      "Ġportable": 5922,
      "azz": 5923,
      "connaissez": 5924,
      "Ġsuivi": 5925,
      "Ġcinqu": 5926,
      "Ġresultats": 5927,
      "Ġbright": 5928,
      "oublier": 5929,
      "Ġcards": 5930,
      "Ġmignonne": 5931,
      "Ġchocolate": 5932,
      "Ġcombat": 5933,
      "ordinaire": 5934,
      "Ġpardonner": 5935,
      "Ġmerveilleux": 5936,
      "Ġcrowd": 5937,
      "Ġtastes": 5938,
      "Ġillegal": 5939,
      "feuille": 5940,
      "Ġincapable": 5941,
      "Ġsamedi": 5942,
      "Ġpiscine": 5943,
      "bable": 5944,
      "lie": 5945,
      "nelle": 5946,
      "wel": 5947,
      "Ġtit": 5948,
      "Ġdying": 5949,
      "Ġpaire": 5950,
      "Ġpool": 5951,
      "engl": 5952,
      "Ġwet": 5953,
      "Ġbell": 5954,
      "Ġbene": 5955,
      "Ġvive": 5956,
      "Ġhire": 5957,
      "ari": 5958,
      "arante": 5959,
      "Ġquart": 5960,
      "elves": 5961,
      "Ġgames": 5962,
      "Ġrese": 5963,
      "Ġears": 5964,
      "aurait": 5965,
      "Ġparvenir": 5966,
      "ainted": 5967,
      "Ġcapt": 5968,
      "Ġproced": 5969,
      "adresse": 5970,
      "Ġmanu": 5971,
      "Ġmanage": 5972,
      "Ġdevais": 5973,
      "Ġdevait": 5974,
      "Ġdevient": 5975,
      "Ġdisag": 5976,
      "Ġsaches": 5977,
      "Ġsert": 5978,
      "astique": 5979,
      "Ġgoodbye": 5980,
      "econom": 5981,
      "Ġspends": 5982,
      "Ġanswers": 5983,
      "Ġgrandi": 5984,
      "Ġgrandmother": 5985,
      "Ġsoulage": 5986,
      "Ġtenait": 5987,
      "Ġsentez": 5988,
      "Ġportefeuille": 5989,
      "Ġdispon": 5990,
      "ussitot": 5991,
      "Ġaimez": 5992,
      "Ġdrogue": 5993,
      "Ġoccupees": 5994,
      "Ġincred": 5995,
      "ĠsÅĵurs": 5996,
      "Ġgentilles": 5997,
      "Ġfaudra": 5998,
      "Ġutilise": 5999,
      "Ġhighly": 6000,
      "champ": 6001,
      "Ġresults": 6002,
      "etudie": 6003,
      "Ġconsidere": 6004,
      "Ġhiver": 6005,
      "Ġstyle": 6006,
      "Ġcritic": 6007,
      "Ġharv": 6008,
      "Ġsemblant": 6009,
      "Ġcercle": 6010,
      "Ġoiseau": 6011,
      "Ġennuyeux": 6012,
      "Ġpierre": 6013,
      "itutrice": 6014,
      "Ġquotid": 6015,
      "fl": 6016,
      "ls": 6017,
      "Ġtache": 6018,
      "Ġmaig": 6019,
      "Ġnag": 6020,
      "Ġveste": 6021,
      "Ġhous": 6022,
      "Ġresign": 6023,
      "Ġequ": 6024,
      "Ġeau": 6025,
      "Ġinse": 6026,
      "Ġjazz": 6027,
      "Ġenvis": 6028,
      "rop": 6029,
      "Ġisland": 6030,
      "ided": 6031,
      "ices": 6032,
      "Ġdesert": 6033,
      "Ġalliez": 6034,
      "Ġsommet": 6035,
      "Ġsize": 6036,
      "Ġabove": 6037,
      "Ġexemp": 6038,
      "Ġexamp": 6039,
      "sier": 6040,
      "Ġdisg": 6041,
      "Ġjambes": 6042,
      "Ġvire": 6043,
      "Ġoffre": 6044,
      "Ġderoule": 6045,
      "Ġcommand": 6046,
      "Ġvenez": 6047,
      "ancer": 6048,
      "Ġbonheur": 6049,
      "Ġretirer": 6050,
      "Ġconscient": 6051,
      "Ġpersonnel": 6052,
      "Ġmayor": 6053,
      "Ġpoche": 6054,
      "Ġvivant": 6055,
      "Ġvoisin": 6056,
      "Ġappear": 6057,
      "Ġimaginer": 6058,
      "shut": 6059,
      "Ġcomplique": 6060,
      "Ġexamination": 6061,
      "Ġmiles": 6062,
      "Ġrejoin": 6063,
      "Ġarrivera": 6064,
      "Ġadmire": 6065,
      "rouiller": 6066,
      "Ġsoldats": 6067,
      "Ġseldom": 6068,
      "Ġdescend": 6069,
      "Ġamoureuse": 6070,
      "Ġprojets": 6071,
      "Ġatteint": 6072,
      "Ġengine": 6073,
      "Ġimprobable": 6074,
      "Ġskiing": 6075,
      "Ġjackson": 6076,
      "Ġdiplom": 6077,
      "Ġdiplome": 6078,
      "Ġintroduced": 6079,
      "Ġourselves": 6080,
      "Ġcigarette": 6081,
      "Ġsimilar": 6082,
      "Ġsiege": 6083,
      "Ġprofondement": 6084,
      "Ġdoigt": 6085,
      "Ġdocument": 6086,
      "Ġemergency": 6087,
      "Ġearthquake": 6088,
      "Ġmiracle": 6089,
      "Ġsharp": 6090,
      "Ġpsych": 6091,
      "Ġpunctual": 6092,
      "eus": 6093,
      "fo": 6094,
      "mange": 6095,
      "none": 6096,
      "spe": 6097,
      "ude": 6098,
      "urent": 6099,
      "Ġtien": 6100,
      "Ġpoupe": 6101,
      "Ġpush": 6102,
      "Ġcacher": 6103,
      "Ġcentre": 6104,
      "Ġmi": 6105,
      "ana": 6106,
      "Ġnames": 6107,
      "Ġbud": 6108,
      "Ġhates": 6109,
      "Ġgars": 6110,
      "Ġgorge": 6111,
      "eday": 6112,
      "Ġmeals": 6113,
      "ayed": 6114,
      "aule": 6115,
      "Ġchic": 6116,
      "Ġchacun": 6117,
      "Ġsepar": 6118,
      "Ġplante": 6119,
      "amuser": 6120,
      "wered": 6121,
      "Ġdeser": 6122,
      "Ġwithin": 6123,
      "Ġtru": 6124,
      "Ġexige": 6125,
      "Ġmanqu": 6126,
      "Ġpreuve": 6127,
      "Ġdisting": 6128,
      "Ġsaou": 6129,
      "Ġprouver": 6130,
      "Ġsonne": 6131,
      "Ġupstairs": 6132,
      "rivez": 6133,
      "few": 6134,
      "Ġshoulder": 6135,
      "Ġescal": 6136,
      "Ġrepeter": 6137,
      "Ġpresse": 6138,
      "Ġoffended": 6139,
      "Ġregime": 6140,
      "Ġexpress": 6141,
      "Ġanswered": 6142,
      "Ġmoving": 6143,
      "Ġproper": 6144,
      "Ġpaying": 6145,
      "Ġremained": 6146,
      "Ġrencontree": 6147,
      "Ġdifferente": 6148,
      "Ġteachers": 6149,
      "Ġuseful": 6150,
      "Ġruns": 6151,
      "Ġrendue": 6152,
      "habite": 6153,
      "Ġcontroler": 6154,
      "Ġcoinc": 6155,
      "Ġbasket": 6156,
      "Ġtraveling": 6157,
      "Ġdisease": 6158,
      "posez": 6159,
      "Ġcanada": 6160,
      "hiver": 6161,
      "Ġconcentr": 6162,
      "Ġeffraye": 6163,
      "Ġfassiez": 6164,
      "exercice": 6165,
      "Ġaveugle": 6166,
      "den": 6167,
      "fle": 6168,
      "niture": 6169,
      "siere": 6170,
      "voila": 6171,
      "Ġ9": 6172,
      "Ġtienne": 6173,
      "Ġsett": 6174,
      "hey": 6175,
      "Ġcla": 6176,
      "Ġcast": 6177,
      "Ġdejeune": 6178,
      "etiez": 6179,
      "Ġtoit": 6180,
      "entree": 6181,
      "Ġgos": 6182,
      "Ġthin": 6183,
      "Ġthief": 6184,
      "Ġthrew": 6185,
      "eue": 6186,
      "Ġlay": 6187,
      "memes": 6188,
      "Ġjo": 6189,
      "ressive": 6190,
      "Ġparv": 6191,
      "Ġparie": 6192,
      "onses": 6193,
      "ami": 6194,
      "Ġsof": 6195,
      "Ġmondi": 6196,
      "Ġdiz": 6197,
      "Ġmarre": 6198,
      "cteur": 6199,
      "esses": 6200,
      "agers": 6201,
      "Ġreserve": 6202,
      "Ġpeindre": 6203,
      "Ġvraie": 6204,
      "Ġclot": 6205,
      "Ġcloser": 6206,
      "Ġreply": 6207,
      "Ġreponses": 6208,
      "epouser": 6209,
      "Ġtells": 6210,
      "Ġrock": 6211,
      "obile": 6212,
      "Ġspell": 6213,
      "Ġmatins": 6214,
      "Ġveniez": 6215,
      "Ġpropose": 6216,
      "Ġpolicier": 6217,
      "Ġveuille": 6218,
      "lige": 6219,
      "Ġconnaisse": 6220,
      "sommes": 6221,
      "Ġinterest": 6222,
      "Ġallees": 6223,
      "Ġallemand": 6224,
      "ician": 6225,
      "Ġprofond": 6226,
      "Ġvoyez": 6227,
      "Ġstranger": 6228,
      "Ġconvient": 6229,
      "Ġsales": 6230,
      "Ġrestee": 6231,
      "Ġsecrets": 6232,
      "Ġblesses": 6233,
      "Ġpicnic": 6234,
      "Ġsisters": 6235,
      "Ġamerique": 6236,
      "Ġcops": 6237,
      "Ġcelib": 6238,
      "Ġetranger": 6239,
      "ibles": 6240,
      "Ġcamion": 6241,
      "Ġegard": 6242,
      "Ġaccepted": 6243,
      "Ġtraiter": 6244,
      "Ġsoldiers": 6245,
      "Ġcosts": 6246,
      "Ġbleu": 6247,
      "Ġtimide": 6248,
      "Ġtimbres": 6249,
      "Ġgives": 6250,
      "attrape": 6251,
      "Ġreconnu": 6252,
      "Ġculture": 6253,
      "Ġsystem": 6254,
      "imagine": 6255,
      "Ġdancing": 6256,
      "Ġprogramme": 6257,
      "Ġfinger": 6258,
      "Ġchicken": 6259,
      "Ġprotest": 6260,
      "Ġchanceux": 6261,
      "Ġcelibat": 6262,
      "coh": 6263,
      "lache": 6264,
      "ns": 6265,
      "nos": 6266,
      "ye": 6267,
      "Ġ$": 6268,
      "isme": 6269,
      "Ġlent": 6270,
      "Ġlaid": 6271,
      "Ġciv": 6272,
      "inze": 6273,
      "Ġnur": 6274,
      "Ġded": 6275,
      "Ġdeli": 6276,
      "Ġtooth": 6277,
      "Ġhill": 6278,
      "Ġgue": 6279,
      "Ġunlik": 6280,
      "alcool": 6281,
      "oigne": 6282,
      "char": 6283,
      "Ġplantes": 6284,
      "add": 6285,
      "Ġaliments": 6286,
      "Ġrice": 6287,
      "Ġanyway": 6288,
      "ulaire": 6289,
      "Ġdiss": 6290,
      "apporte": 6291,
      "Ġperform": 6292,
      "assit": 6293,
      "Ġpouviez": 6294,
      "Ġlovely": 6295,
      "Ġchildhood": 6296,
      "Ġrefaire": 6297,
      "Ġremis": 6298,
      "Ġdiscute": 6299,
      "Ġconfident": 6300,
      "Ġraisons": 6301,
      "parlez": 6302,
      "Ġpoints": 6303,
      "Ġpoll": 6304,
      "Ġassure": 6305,
      "Ġeleg": 6306,
      "Ġaccidents": 6307,
      "Ġhabille": 6308,
      "Ġrained": 6309,
      "Ġwarn": 6310,
      "Ġeasier": 6311,
      "Ġinflu": 6312,
      "Ġcertains": 6313,
      "Ġfoods": 6314,
      "Ġrelations": 6315,
      "Ġcollection": 6316,
      "close": 6317,
      "Ġusual": 6318,
      "Ġtrouves": 6319,
      "Ġconnaissait": 6320,
      "Ġself": 6321,
      "Ġdisappe": 6322,
      "Ġfascin": 6323,
      "Ġburned": 6324,
      "Ġpleasure": 6325,
      "Ġviolence": 6326,
      "Ġreconnaissante": 6327,
      "Ġindust": 6328,
      "Ġabandonner": 6329,
      "Ġfoolish": 6330,
      "Ġdentist": 6331,
      "Ġdentiste": 6332,
      "Ġconstruit": 6333,
      "Ġpostp": 6334,
      "Ġlimite": 6335,
      "Ġleader": 6336,
      "Ġmembers": 6337,
      "Ġcomprenez": 6338,
      "Ġresolu": 6339,
      "jamais": 6340,
      "Ġclairement": 6341,
      "Ġtaste": 6342,
      "Ġoublier": 6343,
      "Ġdemarrer": 6344,
      "Ġbiscuits": 6345,
      "fortunately": 6346,
      "english": 6347,
      "cohol": 6348,
      "Ġunlikely": 6349,
      "aw": 6350,
      "cens": 6351,
      "oon": 6352,
      "rouver": 6353,
      "Ġing": 6354,
      "esome": 6355,
      "endez": 6356,
      "Ġloss": 6357,
      "Ġcaisse": 6358,
      "Ġnaked": 6359,
      "ases": 6360,
      "omas": 6361,
      "Ġviennent": 6362,
      "ung": 6363,
      "oti": 6364,
      "Ġchand": 6365,
      "llo": 6366,
      "accomp": 6367,
      "Ġsta": 6368,
      "Ġyens": 6369,
      "Ġdiary": 6370,
      "Ġcong": 6371,
      "Ġshall": 6372,
      "whatever": 6373,
      "open": 6374,
      "indiquer": 6375,
      "Ġappartient": 6376,
      "Ġramen": 6377,
      "venues": 6378,
      "enser": 6379,
      "Ġperdit": 6380,
      "Ġroof": 6381,
      "assa": 6382,
      "Ġwhenever": 6383,
      "ignit": 6384,
      "Ġcourrier": 6385,
      "Ġsortit": 6386,
      "Ġhurried": 6387,
      "Ġresta": 6388,
      "Ġcalcul": 6389,
      "Ġ16": 6390,
      "Ġbouge": 6391,
      "Ġpassport": 6392,
      "Ġfilled": 6393,
      "Ġcouche": 6394,
      "Ġinsurance": 6395,
      "Ġacted": 6396,
      "Ġinterrupt": 6397,
      "Ġcopy": 6398,
      "Ġcopain": 6399,
      "Ġtyph": 6400,
      "Ġcuisin": 6401,
      "Ġbirds": 6402,
      "Ġmilieu": 6403,
      "Ġdrives": 6404,
      "Ġdisposer": 6405,
      "instituteur": 6406,
      "Ġetrangere": 6407,
      "Ġpunished": 6408,
      "Ġrome": 6409,
      "Ġdestin": 6410,
      "Ġdestination": 6411,
      "Ġdestroy": 6412,
      "Ġhired": 6413,
      "Ġpossibilite": 6414,
      "Ġadoles": 6415,
      "Ġdeclare": 6416,
      "Ġtalented": 6417,
      "embrasser": 6418,
      "Ġambit": 6419,
      "Ġsouper": 6420,
      "Ġabandoned": 6421,
      "Ġrumeur": 6422,
      "Ġtoilettes": 6423,
      "Ġsysteme": 6424,
      "Ġmembres": 6425,
      "Ġechecs": 6426,
      "inquiete": 6427,
      "Ġident": 6428,
      "Ġguere": 6429,
      "cles": 6430,
      "elez": 6431,
      "eglise": 6432,
      "gar": 6433,
      "gnez": 6434,
      "last": 6435,
      "say": 6436,
      "toute": 6437,
      "ually": 6438,
      "yesterday": 6439,
      "Ġtir": 6440,
      "Ġpil": 6441,
      "Ġstom": 6442,
      "envoy": 6443,
      "Ġcrai": 6444,
      "Ġbelles": 6445,
      "Ġbete": 6446,
      "Ġremer": 6447,
      "Ġmec": 6448,
      "Ġunhappy": 6449,
      "tered": 6450,
      "cean": 6451,
      "Ġenorme": 6452,
      "chons": 6453,
      "chacun": 6454,
      "Ġcere": 6455,
      "Ġyes": 6456,
      "Ġtrah": 6457,
      "Ġtruck": 6458,
      "Ġamour": 6459,
      "Ġameliore": 6460,
      "Ġability": 6461,
      "Ġexcept": 6462,
      "Ġpreoccupe": 6463,
      "ulance": 6464,
      "Ġdisait": 6465,
      "Ġrende": 6466,
      "Ġracc": 6467,
      "Ġraconte": 6468,
      "Ġdemi": 6469,
      "Ġhappiness": 6470,
      "ckets": 6471,
      "Ġbrill": 6472,
      "oblige": 6473,
      "icked": 6474,
      "Ġpasseport": 6475,
      "gnes": 6476,
      "Ġpropri": 6477,
      "Ġveuillez": 6478,
      "Ġflics": 6479,
      "Ġdispute": 6480,
      "Ġdiscut": 6481,
      "Ġraise": 6482,
      "Ġpetits": 6483,
      "Ġ18": 6484,
      "Ġsuffit": 6485,
      "compare": 6486,
      "Ġwriter": 6487,
      "Ġvoie": 6488,
      "Ġprudents": 6489,
      "Ġgreet": 6490,
      "Ġsteak": 6491,
      "Ġpoissons": 6492,
      "Ġsouhaiterais": 6493,
      "Ġexperien": 6494,
      "espoir": 6495,
      "Ġfermee": 6496,
      "Ġteaching": 6497,
      "Ġsympath": 6498,
      "Ġfurniture": 6499,
      "Ġdetermin": 6500,
      "Ġjacket": 6501,
      "Ġmiddle": 6502,
      "Ġmathematiques": 6503,
      "Ġoccurred": 6504,
      "Ġrepresent": 6505,
      "Ġquotidienne": 6506,
      "Ġhouses": 6507,
      "Ġexample": 6508,
      "Ġsofa": 6509,
      "Ġstamps": 6510,
      "Ġstomach": 6511,
      "dr": 6512,
      "gage": 6513,
      "jud": 6514,
      "lit": 6515,
      "magne": 6516,
      "pte": 6517,
      "Ġtelles": 6518,
      "Ġaj": 6519,
      "Ġdry": 6520,
      "Ġsin": 6521,
      "Ġsage": 6522,
      "Ġmidi": 6523,
      "anches": 6524,
      "Ġnar": 6525,
      "Ġfous": 6526,
      "Ġfoi": 6527,
      "Ġben": 6528,
      "Ġbite": 6529,
      "Ġgh": 6530,
      "Ġgal": 6531,
      "Ġgaz": 6532,
      "Ġrely": 6533,
      "Ġemail": 6534,
      "resp": 6535,
      "resser": 6536,
      "auriez": 6537,
      "Ġlif": 6538,
      "choose": 6539,
      "pper": 6540,
      "Ġwashed": 6541,
      "Ġstat": 6542,
      "Ġsocial": 6543,
      "ades": 6544,
      "Ġaltern": 6545,
      "Ġamusee": 6546,
      "Ġcompt": 6547,
      "Ġfever": 6548,
      "Ġusing": 6549,
      "Ġrace": 6550,
      "Ġtough": 6551,
      "Ġattir": 6552,
      "Ġbrit": 6553,
      "Ġbutter": 6554,
      "Ġintend": 6555,
      "Ġferions": 6556,
      "Ġvenues": 6557,
      "Ġprivate": 6558,
      "monte": 6559,
      "Ġenfance": 6560,
      "Ġconsom": 6561,
      "Ġlaisses": 6562,
      "Ġguer": 6563,
      "Ġfumes": 6564,
      "continue": 6565,
      "Ġvoulaient": 6566,
      "Ġdownstairs": 6567,
      "Ġpromot": 6568,
      "Ġraised": 6569,
      "Ġgeni": 6570,
      "Ġchangement": 6571,
      "Ġbouger": 6572,
      "Ġassise": 6573,
      "Ġlaissee": 6574,
      "Ġinsist": 6575,
      "Ġrevol": 6576,
      "Ġmistaken": 6577,
      "Ġhurts": 6578,
      "Ġreveiller": 6579,
      "Ġfaible": 6580,
      "Ġlaisserai": 6581,
      "Ġsitue": 6582,
      "Ġsincere": 6583,
      "Ġordres": 6584,
      "Ġfenetres": 6585,
      "Ġfixed": 6586,
      "Ġcomplained": 6587,
      "Ġrecommand": 6588,
      "Ġsouffre": 6589,
      "Ġserieuse": 6590,
      "Ġmemor": 6591,
      "Ġstaring": 6592,
      "excusez": 6593,
      "Ġrumor": 6594,
      "Ġsmells": 6595,
      "Ġconstru": 6596,
      "Ġarguing": 6597,
      "Ġbelongs": 6598,
      "Ġreservation": 6599,
      "Ġfairly": 6600,
      "Ġwebs": 6601,
      "Ġfailure": 6602,
      "fermez": 6603,
      "Ġtranslate": 6604,
      "Ġdemissionner": 6605,
      "Ġinstructions": 6606,
      "Ġsensible": 6607,
      "jusqu": 6608,
      "Ġrefusa": 6609,
      "Ġfonctionner": 6610,
      "Ġmaster": 6611,
      "Ġspectacle": 6612,
      "Ġexemple": 6613,
      "Ġdizzy": 6614,
      "Ġnurse": 6615,
      "cor": 6616,
      "pr": 6617,
      "uff": 6618,
      "vait": 6619,
      "water": 6620,
      "zz": 6621,
      "Ġug": 6622,
      "Ġaise": 6623,
      "Ġsli": 6624,
      "oned": 6625,
      "Ġchere": 6626,
      "Ġcouvert": 6627,
      "itaire": 6628,
      "Ġvendu": 6629,
      "Ġgam": 6630,
      "eding": 6631,
      "Ġnego": 6632,
      "Ġreli": 6633,
      "eule": 6634,
      "Ġlap": 6635,
      "Ġhaute": 6636,
      "Ġseve": 6637,
      "change": 6638,
      "icted": 6639,
      "osion": 6640,
      "Ġstren": 6641,
      "Ġauquel": 6642,
      "cier": 6643,
      "Ġmars": 6644,
      "Ġrough": 6645,
      "Ġtap": 6646,
      "commen": 6647,
      "ulty": 6648,
      "Ġusage": 6649,
      "Ġtouched": 6650,
      "Ġgrass": 6651,
      "things": 6652,
      "Ġrepair": 6653,
      "Ġrepris": 6654,
      "Ġworkers": 6655,
      "istre": 6656,
      "Ġfinal": 6657,
      "Ġoffense": 6658,
      "abord": 6659,
      "assure": 6660,
      "Ġcode": 6661,
      "Ġintim": 6662,
      "Ġecout": 6663,
      "Ġvieilles": 6664,
      "Ġaccompl": 6665,
      "dix": 6666,
      "Ġsentais": 6667,
      "Ġawesome": 6668,
      "Ġdifficiles": 6669,
      "Ġdifficulty": 6670,
      "Ġhanded": 6671,
      "Ġsortes": 6672,
      "Ġfacts": 6673,
      "Ġplayer": 6674,
      "Ġdetendre": 6675,
      "Ġsouven": 6676,
      "Ġimportance": 6677,
      "Ġpoches": 6678,
      "Ġ15": 6679,
      "Ġresterai": 6680,
      "Ġsurprises": 6681,
      "Ġrealise": 6682,
      "Ġsalary": 6683,
      "Ġvoudrait": 6684,
      "Ġcertaines": 6685,
      "Ġnourrir": 6686,
      "Ġwondering": 6687,
      "Ġmenace": 6688,
      "Ġenjoying": 6689,
      "Ġamericain": 6690,
      "Ġairpl": 6691,
      "Ġwinning": 6692,
      "Ġprisoners": 6693,
      "Ġrencontrees": 6694,
      "Ġinstituteur": 6695,
      "Ġclassroom": 6696,
      "Ġheadache": 6697,
      "uyer": 6698,
      "Ġrecemment": 6699,
      "etudi": 6700,
      "Ġsurvive": 6701,
      "Ġfash": 6702,
      "Ġressens": 6703,
      "Ġthird": 6704,
      "Ġ197": 6705,
      "Ġ50": 6706,
      "Ġenvirons": 6707,
      "Ġadopt": 6708,
      "Ġsucceeded": 6709,
      "Ġpersuaded": 6710,
      "Ġinnocence": 6711,
      "Ġcelebr": 6712,
      "Ġpuissions": 6713,
      "Ġentendue": 6714,
      "Ġaustralie": 6715,
      "Ġoptim": 6716,
      "appelez": 6717,
      "Ġmodel": 6718,
      "Ġintroduce": 6719,
      "Ġdepecher": 6720,
      "Ġparticip": 6721,
      "Ġrespecte": 6722,
      "Ġderangerait": 6723,
      "Ġobey": 6724,
      "Ġtomba": 6725,
      "Ġsaint": 6726,
      "Ġfievre": 6727,
      "smoking": 6728,
      "Ġtechn": 6729,
      "Ġdamage": 6730,
      "Ġsandwich": 6731,
      "Ġbetrayed": 6732,
      "Ġugly": 6733,
      "cus": 6734,
      "ciez": 6735,
      "good": 6736,
      "ks": 6737,
      "lock": 6738,
      "moin": 6739,
      "mark": 6740,
      "non": 6741,
      "ores": 6742,
      "ril": 6743,
      "ura": 6744,
      "yes": 6745,
      "Ġaid": 6746,
      "Ġpity": 6747,
      "itting": 6748,
      "Ġfence": 6749,
      "Ġdete": 6750,
      "atives": 6751,
      "aries": 6752,
      "Ġthirst": 6753,
      "Ġnegl": 6754,
      "Ġunable": 6755,
      "Ġinutile": 6756,
      "raine": 6757,
      "onter": 6758,
      "chose": 6759,
      "renons": 6760,
      "aired": 6761,
      "Ġstate": 6762,
      "Ġproxim": 6763,
      "aving": 6764,
      "Ġarea": 6765,
      "Ġround": 6766,
      "Ġmanges": 6767,
      "Ġarms": 6768,
      "Ġwhis": 6769,
      "onges": 6770,
      "Ġdeviend": 6771,
      "Ġdises": 6772,
      "Ġappelle": 6773,
      "angleterre": 6774,
      "Ġravie": 6775,
      "Ġpeche": 6776,
      "ension": 6777,
      "Ġground": 6778,
      "Ġentier": 6779,
      "Ġlongs": 6780,
      "Ġfinan": 6781,
      "abet": 6782,
      "Ġspeci": 6783,
      "Ġsaviez": 6784,
      "issons": 6785,
      "Ġsupporte": 6786,
      "Ġretarde": 6787,
      "Ġretired": 6788,
      "Ġbelieves": 6789,
      "Ġaccent": 6790,
      "Ġconsul": 6791,
      "Ġcareless": 6792,
      "cessez": 6793,
      "Ġrefuser": 6794,
      "Ġimage": 6795,
      "Ġinvent": 6796,
      "Ġscar": 6797,
      "parle": 6798,
      "parfois": 6799,
      "Ġpoem": 6800,
      "Ġpocket": 6801,
      "Ġpasses": 6802,
      "Ġkinds": 6803,
      "Ġmangez": 6804,
      "desc": 6805,
      "Ġmortes": 6806,
      "Ġdonnees": 6807,
      "Ġadvance": 6808,
      "eralement": 6809,
      "according": 6810,
      "Ġcharger": 6811,
      "voyons": 6812,
      "Ġmene": 6813,
      "Ġannule": 6814,
      "Ġsoif": 6815,
      "cule": 6816,
      "Ġdistrib": 6817,
      "Ġjournaux": 6818,
      "Ġpopulaire": 6819,
      "Ġcontinued": 6820,
      "Ġviendrai": 6821,
      "Ġsuggested": 6822,
      "interrom": 6823,
      "enfants": 6824,
      "Ġcassee": 6825,
      "Ġpleasant": 6826,
      "Ġfriday": 6827,
      "Ġclearly": 6828,
      "Ġviolon": 6829,
      "Ġconcerne": 6830,
      "Ġsouffle": 6831,
      "Ġborrowed": 6832,
      "Ġpuissiez": 6833,
      "Ġdetermine": 6834,
      "Ġconcentrer": 6835,
      "Ġcompreh": 6836,
      "Ġcesser": 6837,
      "Ġcapitale": 6838,
      "Ġpractice": 6839,
      "Ġhuge": 6840,
      "Ġpareille": 6841,
      "Ġpulled": 6842,
      "Ġcoincidence": 6843,
      "Ġghost": 6844,
      "Ġfashion": 6845,
      "Ġproximite": 6846,
      "crois": 6847,
      "night": 6848,
      "over": 6849,
      "passe": 6850,
      "rants": 6851,
      "umb": 6852,
      "ym": 6853,
      "oui": 6854,
      "Ġpushed": 6855,
      "Ġloupe": 6856,
      "Ġcents": 6857,
      "Ġmaire": 6858,
      "inet": 6859,
      "Ġnons": 6860,
      "Ġfan": 6861,
      "Ġfro": 6862,
      "ashed": 6863,
      "Ġbeur": 6864,
      "Ġviennes": 6865,
      "eure": 6866,
      "Ġivre": 6867,
      "ows": 6868,
      "elled": 6869,
      "Ġlift": 6870,
      "Ġparking": 6871,
      "icer": 6872,
      "uters": 6873,
      "endorm": 6874,
      "illon": 6875,
      "Ġallume": 6876,
      "Ġsoft": 6877,
      "Ġmonnaie": 6878,
      "Ġdiam": 6879,
      "Ġalent": 6880,
      "Ġrig": 6881,
      "Ġfaite": 6882,
      "ational": 6883,
      "Ġfroi": 6884,
      "Ġcompli": 6885,
      "Ġcomprom": 6886,
      "ateful": 6887,
      "Ġpartager": 6888,
      "Ġserved": 6889,
      "Ġeteint": 6890,
      "Ġgrateful": 6891,
      "Ġreposer": 6892,
      "Ġrepaired": 6893,
      "Ġcontract": 6894,
      "eteindre": 6895,
      "Ġdecouvrir": 6896,
      "seriez": 6897,
      "Ġeverywhere": 6898,
      "cond": 6899,
      "ption": 6900,
      "Ġdepar": 6901,
      "Ġguide": 6902,
      "Ġnoms": 6903,
      "Ġflower": 6904,
      "Ġrefriger": 6905,
      "Ġremark": 6906,
      "Ġremonter": 6907,
      "achete": 6908,
      "Ġtotalement": 6909,
      "Ġcoups": 6910,
      "Ġeleph": 6911,
      "Ġarriva": 6912,
      "Ġarriere": 6913,
      "Ġstudies": 6914,
      "Ġrendrai": 6915,
      "Ġsolved": 6916,
      "utilise": 6917,
      "utiliser": 6918,
      "Ġintern": 6919,
      "Ġsauter": 6920,
      "Ġpapa": 6921,
      "Ġfalling": 6922,
      "Ġappears": 6923,
      "Ġcomplicated": 6924,
      "Ġcomplex": 6925,
      "Ġsemblent": 6926,
      "Ġorders": 6927,
      "Ġslight": 6928,
      "Ġevidence": 6929,
      "Ġveh": 6930,
      "Ġparcour": 6931,
      "Ġfrapper": 6932,
      "Ġcontrat": 6933,
      "Ġatteindre": 6934,
      "interesse": 6935,
      "Ġimpatiente": 6936,
      "Ġpossession": 6937,
      "Ġdivorced": 6938,
      "Ġvendredi": 6939,
      "apprecierais": 6940,
      "irmiere": 6941,
      "Ġsuspicious": 6942,
      "Ġjumped": 6943,
      "Ġstrict": 6944,
      "Ġoperation": 6945,
      "Ġgraduated": 6946,
      "urgence": 6947,
      "board": 6948,
      "Ġpoeme": 6949,
      "Ġexciting": 6950,
      "Ġjaloux": 6951,
      "Ġefficace": 6952,
      "Ġfrightened": 6953,
      "Ġdrowned": 6954,
      "Ġpoupee": 6955,
      "Ġairplane": 6956,
      "arest": 6957,
      "bu": 6958,
      "part": 6959,
      "pock": 6960,
      "rin": 6961,
      "tour": 6962,
      "ouer": 6963,
      "ouill": 6964,
      "Ġdame": 6965,
      "Ġdating": 6966,
      "Ġsors": 6967,
      "ism": 6968,
      "Ġlately": 6969,
      "Ġcoi": 6970,
      "anca": 6971,
      "asons": 6972,
      "omac": 6973,
      "Ġbow": 6974,
      "Ġvan": 6975,
      "Ġquinze": 6976,
      "Ġnearest": 6977,
      "oter": 6978,
      "Ġod": 6979,
      "Ġsud": 6980,
      "Ġjoking": 6981,
      "Ġdoors": 6982,
      "Ġseats": 6983,
      "Ġplat": 6984,
      "Ġparvenu": 6985,
      "Ġtex": 6986,
      "irts": 6987,
      "osite": 6988,
      "ters": 6989,
      "imm": 6990,
      "Ġstairs": 6991,
      "Ġgoal": 6992,
      "Ġdessert": 6993,
      "Ġproof": 6994,
      "Ġknowing": 6995,
      "Ġalcohol": 6996,
      "Ġamount": 6997,
      "Ġverrai": 6998,
      "Ġverrouille": 6999,
      "oler": 7000,
      "allume": 7001,
      "Ġpartit": 7002,
      "ified": 7003,
      "Ġespe": 7004,
      "ecrivez": 7005,
      "Ġdecor": 7006,
      "Ġdecouv": 7007,
      "Ġpresents": 7008,
      "Ġbrush": 7009,
      "Ġgotta": 7010,
      "about": 7011,
      "Ġmalin": 7012,
      "Ġposter": 7013,
      "Ġaccustom": 7014,
      "Ġblock": 7015,
      "Ġtenue": 7016,
      "Ġcourte": 7017,
      "Ġjoueur": 7018,
      "Ġplanned": 7019,
      "Ġrecent": 7020,
      "Ġdisposes": 7021,
      "ledge": 7022,
      "Ġconfir": 7023,
      "Ġaffec": 7024,
      "Ġdemanded": 7025,
      "Ġconditions": 7026,
      "Ġpassa": 7027,
      "Ġphotograph": 7028,
      "Ġvivait": 7029,
      "Ġvivons": 7030,
      "Ġfatigues": 7031,
      "Ġrub": 7032,
      "Ġgrab": 7033,
      "Ġetrangers": 7034,
      "Ġegal": 7035,
      "Ġworrying": 7036,
      "Ġevident": 7037,
      "Ġcleaned": 7038,
      "Ġinformations": 7039,
      "Ġdescendre": 7040,
      "Ġconsideration": 7041,
      "Ġperfectly": 7042,
      "Ġsatisfaite": 7043,
      "Ġillness": 7044,
      "Ġprudentes": 7045,
      "Ġrecommend": 7046,
      "Ġorganized": 7047,
      "Ġpowerful": 7048,
      "Ġsmiled": 7049,
      "Ġcrossed": 7050,
      "emploi": 7051,
      "Ġoptions": 7052,
      "Ġerr": 7053,
      "Ġrelaxed": 7054,
      "Ġcigarettes": 7055,
      "Ġwoods": 7056,
      "Ġkilom": 7057,
      "Ġplaisanter": 7058,
      "ennemi": 7059,
      "Ġdemenage": 7060,
      "Ġskinny": 7061,
      "Ġecrivain": 7062,
      "Ġbarely": 7063,
      "Ġpantal": 7064,
      "Ġissue": 7065,
      "Ġguests": 7066,
      "Ġdisagree": 7067,
      "Ġbeurre": 7068,
      "..": 7069,
      "kk": 7070,
      "nable": 7071,
      "rure": 7072,
      "uves": 7073,
      "ville": 7074,
      "writ": 7075,
      "xy": 7076,
      "xante": 7077,
      "Ġtong": 7078,
      "Ġdine": 7079,
      "Ġmaman": 7080,
      "Ġnie": 7081,
      "Ġnone": 7082,
      "Ġbaisse": 7083,
      "etaient": 7084,
      "Ġhost": 7085,
      "Ġhated": 7086,
      "Ġqueue": 7087,
      "entrer": 7088,
      "Ġgain": 7089,
      "ott": 7090,
      "ources": 7091,
      "Ġiron": 7092,
      "Ġoil": 7093,
      "rif": 7094,
      "Ġchos": 7095,
      "Ġcommerci": 7096,
      "Ġjeans": 7097,
      "Ġwears": 7098,
      "Ġtues": 7099,
      "Ġamene": 7100,
      "Ġexist": 7101,
      "Ġtiend": 7102,
      "Ġarmes": 7103,
      "Ġwhose": 7104,
      "essence": 7105,
      "allen": 7106,
      "oya": 7107,
      "Ġbienvenue": 7108,
      "Ġbeaux": 7109,
      "Ġbeaute": 7110,
      "Ġoffert": 7111,
      "udes": 7112,
      "Ġspread": 7113,
      "quelques": 7114,
      "Ġdepri": 7115,
      "retour": 7116,
      "Ġlaiss": 7117,
      "Ġvisa": 7118,
      "Ġmontra": 7119,
      "Ġfutur": 7120,
      "Ġsentie": 7121,
      "Ġdifficulte": 7122,
      "Ġpromises": 7123,
      "Ġpromener": 7124,
      "Ġremise": 7125,
      "Ġscold": 7126,
      "Ġfriendship": 7127,
      "Ġunderstanding": 7128,
      "like": 7129,
      "Ġbadly": 7130,
      "Ġfich": 7131,
      "Ġhabitude": 7132,
      "Ġabsor": 7133,
      "Ġactions": 7134,
      "Ġruined": 7135,
      "Ġfallen": 7136,
      "Ġchatte": 7137,
      "Ġgarer": 7138,
      "anchement": 7139,
      "Ġchanteur": 7140,
      "Ġforet": 7141,
      "Ġignored": 7142,
      "Ġexperiment": 7143,
      "Ġapproach": 7144,
      "Ġintelligente": 7145,
      "Ġfrappa": 7146,
      "Ġrompu": 7147,
      "Ġsundays": 7148,
      "Ġesprit": 7149,
      "Ġambulance": 7150,
      "Ġfamilier": 7151,
      "Ġemprunte": 7152,
      "Ġpoulet": 7153,
      "Ġpressure": 7154,
      "Ġoccuper": 7155,
      "Ġcurieux": 7156,
      "Ġcolline": 7157,
      "Ġparlons": 7158,
      "Ġdeeply": 7159,
      "humeur": 7160,
      "Ġapplication": 7161,
      "marche": 7162,
      "Ġsejourne": 7163,
      "aissance": 7164,
      "Ġfifty": 7165,
      "celui": 7166,
      "Ġsepare": 7167,
      "Ġnegoti": 7168,
      "Ġsoudain": 7169,
      "Ġvolontaire": 7170,
      "Ġepuise": 7171,
      "Ġentirely": 7172,
      "Ġbrief": 7173,
      "Ġtremblement": 7174,
      "Ġsafety": 7175,
      "Ġjokes": 7176,
      "Ġmondiale": 7177,
      "Ġcelibataire": 7178,
      "Ġperformance": 7179,
      "Ġthirsty": 7180,
      "Ġtongue": 7181,
      "Ġchosen": 7182,
      "drai": 7183,
      "eat": 7184,
      "faire": 7185,
      "gr": 7186,
      "ope": 7187,
      "oiles": 7188,
      "selle": 7189,
      "only": 7190,
      "Ġmos": 7191,
      "ero": 7192,
      "Ġways": 7193,
      "Ġfirm": 7194,
      "lever": 7195,
      "ili": 7196,
      "oust": 7197,
      "unch": 7198,
      "Ġtheater": 7199,
      "Ġneither": 7200,
      "Ġreb": 7201,
      "Ġremb": 7202,
      "Ġredu": 7203,
      "Ġmex": 7204,
      "Ġequi": 7205,
      "Ġja": 7206,
      "Ġbehave": 7207,
      "key": 7208,
      "Ġparmi": 7209,
      "Ġteen": 7210,
      "ically": 7211,
      "imate": 7212,
      "Ġwealth": 7213,
      "Ġaupres": 7214,
      "Ġallions": 7215,
      "Ġallonge": 7216,
      "oreille": 7217,
      "Ġavis": 7218,
      "Ġavenir": 7219,
      "itez": 7220,
      "Ġconges": 7221,
      "Ġrasse": 7222,
      "Ġrussi": 7223,
      "Ġmangent": 7224,
      "ortable": 7225,
      "agnes": 7226,
      "law": 7227,
      "Ġcompose": 7228,
      "ify": 7229,
      "tence": 7230,
      "autor": 7231,
      "Ġjustice": 7232,
      "Ġages": 7233,
      "Ġgoods": 7234,
      "cking": 7235,
      "Ġimpol": 7236,
      "Ġdecede": 7237,
      "Ġspace": 7238,
      "selon": 7239,
      "issant": 7240,
      "Ġfermes": 7241,
      "anced": 7242,
      "Ġretrouver": 7243,
      "Ġcrise": 7244,
      "Ġdepends": 7245,
      "Ġconser": 7246,
      "Ġvaisselle": 7247,
      "essaye": 7248,
      "Ġpromesses": 7249,
      "Ġdemandez": 7250,
      "Ġremain": 7251,
      "Ġscrew": 7252,
      "Ġpiege": 7253,
      "enseigner": 7254,
      "Ġrappelles": 7255,
      "Ġpassion": 7256,
      "Ġboard": 7257,
      "Ġdouz": 7258,
      "Ġcorner": 7259,
      "Ġelection": 7260,
      "Ġobst": 7261,
      "Ġfiel": 7262,
      "Ġfirent": 7263,
      "Ġdebrouille": 7264,
      "Ġreviens": 7265,
      "Ġincor": 7266,
      "Ġpreferes": 7267,
      "Ġactiv": 7268,
      "Ġbeauty": 7269,
      "Ġcharm": 7270,
      "Ġcommenc": 7271,
      "ology": 7272,
      "ologie": 7273,
      "Ġcopie": 7274,
      "Ġtyp": 7275,
      "Ġutilis": 7276,
      "Ġsuivant": 7277,
      "Ġcamar": 7278,
      "Ġexamens": 7279,
      "Ġvalu": 7280,
      "Ġterminee": 7281,
      "Ġmourut": 7282,
      "Ġappelee": 7283,
      "echapper": 7284,
      "Ġpickpock": 7285,
      "Ġprogress": 7286,
      "Ġplaint": 7287,
      "Ġburst": 7288,
      "Ġpreferable": 7289,
      "Ġpousse": 7290,
      "Ġpossed": 7291,
      "incendie": 7292,
      "Ġproduct": 7293,
      "Ġsouth": 7294,
      "Ġmagazines": 7295,
      "Ġtendance": 7296,
      "Ġconduite": 7297,
      "devrais": 7298,
      "Ġgrimp": 7299,
      "esperais": 7300,
      "Ġencourage": 7301,
      "Ġsoudaine": 7302,
      "Ġasseoir": 7303,
      "neuf": 7304,
      "Ġlatin": 7305,
      "Ġpenetrer": 7306,
      "Ġadorable": 7307,
      "Ġmisunderstand": 7308,
      "Ġaudience": 7309,
      "without": 7310,
      "Ġhesit": 7311,
      "Ġcinquante": 7312,
      "Ġgentillesse": 7313,
      "Ġchandail": 7314,
      "Ġremercie": 7315,
      "Ġgreeted": 7316,
      "Ġquotidiennement": 7317,
      "Ġaccustomed": 7318,
      "cents": 7319,
      "from": 7320,
      "gnee": 7321,
      "huit": 7322,
      "ration": 7323,
      "vid": 7324,
      "Ġtat": 7325,
      "Ġtal": 7326,
      "Ġaction": 7327,
      "Ġaunt": 7328,
      "Ġaussitot": 7329,
      "Ġpill": 7330,
      "Ġpure": 7331,
      "Ġsink": 7332,
      "Ġsienne": 7333,
      "ones": 7334,
      "Ġcaut": 7335,
      "Ġmete": 7336,
      "Ġnord": 7337,
      "Ġdech": 7338,
      "atis": 7339,
      "Ġtower": 7340,
      "vement": 7341,
      "aigne": 7342,
      "education": 7343,
      "Ġmeas": 7344,
      "Ġmepris": 7345,
      "euble": 7346,
      "Ġunf": 7347,
      "Ġodd": 7348,
      "Ġleva": 7349,
      "section": 7350,
      "Ġheros": 7351,
      "Ġhauteur": 7352,
      "Ġchallen": 7353,
      "mped": 7354,
      "Ġonze": 7355,
      "Ġwasting": 7356,
      "Ġaside": 7357,
      "amuse": 7358,
      "urait": 7359,
      "Ġstun": 7360,
      "ciation": 7361,
      "Ġmarri": 7362,
      "Ġmanieres": 7363,
      "Ġargue": 7364,
      "Ġdeviner": 7365,
      "opin": 7366,
      "ifiques": 7367,
      "Ġupon": 7368,
      "cause": 7369,
      "stand": 7370,
      "Ġnoon": 7371,
      "Ġrepose": 7372,
      "Ġtrained": 7373,
      "because": 7374,
      "Ġcontents": 7375,
      "Ġattrib": 7376,
      "Ġpercent": 7377,
      "Ġorange": 7378,
      "Ġoranges": 7379,
      "Ġblag": 7380,
      "Ġfuri": 7381,
      "Ġfuji": 7382,
      "Ġterme": 7383,
      "Ġawful": 7384,
      "Ġpuzz": 7385,
      "Ġjobs": 7386,
      "Ġwherever": 7387,
      "parl": 7388,
      "Ġtotal": 7389,
      "Ġforest": 7390,
      "Ġpetites": 7391,
      "Ġgeneralement": 7392,
      "Ġpoker": 7393,
      "Ġpockets": 7394,
      "Ġpuisses": 7395,
      "cieuse": 7396,
      "Ġrappelez": 7397,
      "Ġkindness": 7398,
      "Ġregardes": 7399,
      "Ġelev": 7400,
      "Ġbegins": 7401,
      "Ġrestez": 7402,
      "Ġadvise": 7403,
      "Ġsauce": 7404,
      "Ġsuffering": 7405,
      "disp": 7406,
      "Ġamericans": 7407,
      "Ġrelieved": 7408,
      "Ġdelicious": 7409,
      "Ġcollect": 7410,
      "Ġsembla": 7411,
      "Ġvalises": 7412,
      "Ġartist": 7413,
      "Ġtrouva": 7414,
      "Ġversion": 7415,
      "Ġconnaissais": 7416,
      "Ġsupermark": 7417,
      "Ġsuffisant": 7418,
      "Ġapologized": 7419,
      "Ġlegal": 7420,
      "Ġordinateurs": 7421,
      "Ġcreme": 7422,
      "Ġbleue": 7423,
      "Ġviolin": 7424,
      "Ġpersuader": 7425,
      "Ġembarrasse": 7426,
      "Ġmensonges": 7427,
      "Ġridicul": 7428,
      "Ġreveillee": 7429,
      "Ġbathroom": 7430,
      "cope": 7431,
      "Ġreminds": 7432,
      "ordinateur": 7433,
      "arreta": 7434,
      "Ġcontrariee": 7435,
      "Ġmarchand": 7436,
      "Ġlourd": 7437,
      "Ġarrange": 7438,
      "Ġrequest": 7439,
      "Ġstealing": 7440,
      "Ġclients": 7441,
      "Ġeffective": 7442,
      "Ġbullet": 7443,
      "Ġliquide": 7444,
      "Ġanxious": 7445,
      "Ġsachiez": 7446,
      "Ġcaptain": 7447,
      "economie": 7448,
      "Ġbudget": 7449,
      "Ġescaliers": 7450,
      "Ġproperly": 7451,
      "envoyer": 7452,
      "Ġreliable": 7453,
      "bel": 7454,
      "fill": 7455,
      "rance": 7456,
      "Ġtante": 7457,
      "Ġayons": 7458,
      "Ġpus": 7459,
      "Ġmait": 7460,
      "Ġmente": 7461,
      "eral": 7462,
      "Ġnois": 7463,
      "Ġbound": 7464,
      "Ġbomb": 7465,
      "etude": 7466,
      "ordre": 7467,
      "Ġtheatre": 7468,
      "Ġreasons": 7469,
      "tere": 7470,
      "Ġlache": 7471,
      "aler": 7472,
      "Ġlev": 7473,
      "Ġleger": 7474,
      "Ġepar": 7475,
      "Ġheur": 7476,
      "Ġjoy": 7477,
      "Ġhaw": 7478,
      "Ġdozen": 7479,
      "Ġanger": 7480,
      "Ġseason": 7481,
      "Ġcommer": 7482,
      "Ġitself": 7483,
      "Ġastu": 7484,
      "ameliore": 7485,
      "Ġstars": 7486,
      "Ġaurions": 7487,
      "Ġpros": 7488,
      "Ġprover": 7489,
      "Ġsomeday": 7490,
      "Ġtrac": 7491,
      "Ġconven": 7492,
      "Ġexec": 7493,
      "Ġsable": 7494,
      "Ġservir": 7495,
      "rently": 7496,
      "Ġram": 7497,
      "ounce": 7498,
      "Ġcheated": 7499,
      "Ġdirectement": 7500,
      "Ġattaque": 7501,
      "Ġshelf": 7502,
      "Ġsavaient": 7503,
      "Ġcommettre": 7504,
      "Ġintri": 7505,
      "Ġposa": 7506,
      "Ġfautes": 7507,
      "Ġpouvions": 7508,
      "Ġvieill": 7509,
      "Ġblanche": 7510,
      "Ġcourri": 7511,
      "Ġcourut": 7512,
      "Ġrecol": 7513,
      "Ġhurler": 7514,
      "Ġfinding": 7515,
      "ankly": 7516,
      "Ġconsequ": 7517,
      "Ġelected": 7518,
      "Ġcoule": 7519,
      "Ġcraint": 7520,
      "Ġmission": 7521,
      "velop": 7522,
      "Ġrentree": 7523,
      "Ġintersection": 7524,
      "Ġnatif": 7525,
      "disposez": 7526,
      "Ġpermit": 7527,
      "Ġgram": 7528,
      "Ġwrites": 7529,
      "Ġhorreur": 7530,
      "ibly": 7531,
      "gardez": 7532,
      "Ġcambri": 7533,
      "Ġsouri": 7534,
      "Ġdreaming": 7535,
      "Ġartiste": 7536,
      "Ġblessees": 7537,
      "Ġaddition": 7538,
      "Ġbarg": 7539,
      "Ġdiscussed": 7540,
      "Ġechappe": 7541,
      "Ġsupermarche": 7542,
      "Ġproduits": 7543,
      "Ġfully": 7544,
      "Ġchaussettes": 7545,
      "Ġouvrage": 7546,
      "Ġparfaite": 7547,
      "Ġprogres": 7548,
      "Ġdraw": 7549,
      "Ġengaged": 7550,
      "Ġclimbed": 7551,
      "Ġindique": 7552,
      "aimais": 7553,
      "Ġtreated": 7554,
      "Ġcanadian": 7555,
      "desolee": 7556,
      "Ġmentionne": 7557,
      "Ġvictim": 7558,
      "allemagne": 7559,
      "Ġechec": 7560,
      "Ġaugmentation": 7561,
      "Ġcommittee": 7562,
      "Ġcapitaine": 7563,
      "Ġsignific": 7564,
      "Ġreprod": 7565,
      "Ġmagnifique": 7566,
      "Ġapparence": 7567,
      "Ġdepourvu": 7568,
      "Ġprevented": 7569,
      "abandonner": 7570,
      "Ġyellow": 7571,
      "Ġmonsieur": 7572,
      "oublierai": 7573,
      "Ġbenef": 7574,
      "Ġdisponible": 7575,
      "Ġharvard": 7576,
      "Ġpantalon": 7577,
      "Ġsupermarket": 7578,
      "gth": 7579,
      "hy": 7580,
      "iqu": 7581,
      "school": 7582,
      "rect": 7583,
      "ening": 7584,
      "ishing": 7585,
      "istence": 7586,
      "Ġlux": 7587,
      "Ġcd": 7588,
      "erk": 7589,
      "Ġwore": 7590,
      "assez": 7591,
      "ombre": 7592,
      "Ġbros": 7593,
      "Ġvir": 7594,
      "Ġdevelopp": 7595,
      "Ġhook": 7596,
      "orient": 7597,
      "Ġmemes": 7598,
      "Ġmeub": 7599,
      "Ġunif": 7600,
      "Ġoly": 7601,
      "rica": 7602,
      "Ġjog": 7603,
      "Ġbee": 7604,
      "aute": 7605,
      "Ġchim": 7606,
      "Ġlib": 7607,
      "Ġlibe": 7608,
      "Ġplants": 7609,
      "Ġparoles": 7610,
      "utation": 7611,
      "rences": 7612,
      "aces": 7613,
      "Ġcares": 7614,
      "thomas": 7615,
      "avions": 7616,
      "Ġshorter": 7617,
      "Ġshape": 7618,
      "Ġmanif": 7619,
      "Ġfaith": 7620,
      "Ġarmy": 7621,
      "Ġtape": 7622,
      "Ġverifie": 7623,
      "ageux": 7624,
      "doors": 7625,
      "Ġprince": 7626,
      "Ġcomputers": 7627,
      "Ġapply": 7628,
      "Ġdemie": 7629,
      "Ġlongues": 7630,
      "Ġfromage": 7631,
      "Ġcontest": 7632,
      "apportez": 7633,
      "Ġsaison": 7634,
      "Ġbrouill": 7635,
      "Ġroll": 7636,
      "obtenir": 7637,
      "Ġnowhere": 7638,
      "Ġintended": 7639,
      "Ġpriv": 7640,
      "Ġprices": 7641,
      "Ġlasted": 7642,
      "Ġaccus": 7643,
      "Ġsmaller": 7644,
      "Ġacqu": 7645,
      "Ġblow": 7646,
      "Ġblamer": 7647,
      "Ġcouramment": 7648,
      "perhaps": 7649,
      "Ġminim": 7650,
      "Ġdernieres": 7651,
      "Ġremede": 7652,
      "Ġconfon": 7653,
      "Ġwalks": 7654,
      "Ġgenial": 7655,
      "Ġrepondit": 7656,
      "Ġtableaux": 7657,
      "Ġ12": 7658,
      "Ġmoteur": 7659,
      "Ġdouce": 7660,
      "Ġeleven": 7661,
      "Ġcouch": 7662,
      "Ġshoe": 7663,
      "Ġarrivent": 7664,
      "Ġmiser": 7665,
      "Ġvolume": 7666,
      "Ġpapers": 7667,
      "Ġcoffre": 7668,
      "Ġlargest": 7669,
      "Ġbitter": 7670,
      "ibi": 7671,
      "Ġsource": 7672,
      "Ġparked": 7673,
      "Ġcontinua": 7674,
      "Ġcenter": 7675,
      "Ġparticulierement": 7676,
      "Ġsurvived": 7677,
      "Ġlumieres": 7678,
      "Ġthanks": 7679,
      "Ġprotection": 7680,
      "Ġstronger": 7681,
      "Ġromans": 7682,
      "papa": 7683,
      "Ġclimat": 7684,
      "embr": 7685,
      "Ġdirecteur": 7686,
      "luck": 7687,
      "Ġdoubts": 7688,
      "elect": 7689,
      "Ġtravaillent": 7690,
      "Ġprononcer": 7691,
      "Ġfleuve": 7692,
      "human": 7693,
      "parents": 7694,
      "Ġnational": 7695,
      "Ġscientifique": 7696,
      "Ġflying": 7697,
      "Ġailleurs": 7698,
      "Ġgratuite": 7699,
      "Ġtraduire": 7700,
      "Ġcompetition": 7701,
      "cinq": 7702,
      "Ġcriminal": 7703,
      "Ġneighborhood": 7704,
      "Ġbaiser": 7705,
      "Ġeventually": 7706,
      "Ġknocked": 7707,
      "Ġdescribe": 7708,
      "Ġoctober": 7709,
      "Ġoreilles": 7710,
      "Ġmalheureux": 7711,
      "Ġweapon": 7712,
      "Ġbecoming": 7713,
      "censeur": 7714,
      "Ġdestroyed": 7715,
      "Ġcraign": 7716,
      "Ġstrength": 7717,
      "Ġconsulter": 7718,
      "Ġcoiff": 7719,
      "Ġstunned": 7720,
      "Ġmarriage": 7721,
      "Ġelevator": 7722,
      "Ġhawai": 7723,
      "Ġolymp": 7724,
      "Ġbrouillard": 7725,
      "ba": 7726,
      "bs": 7727,
      "but": 7728,
      "cri": 7729,
      "cro": 7730,
      "iest": 7731,
      "lle": 7732,
      "ode": 7733,
      "ronne": 7734,
      "trois": 7735,
      "whe": 7736,
      "Ġath": 7737,
      "Ġaine": 7738,
      "Ġpond": 7739,
      "Ġsite": 7740,
      "onna": 7741,
      "Ġlower": 7742,
      "Ġmass": 7743,
      "Ġmord": 7744,
      "itely": 7745,
      "Ġnaissance": 7746,
      "Ġwit": 7747,
      "Ġbom": 7748,
      "Ġbaked": 7749,
      "Ġvague": 7750,
      "Ġdefe": 7751,
      "atif": 7752,
      "Ġhug": 7753,
      "aiment": 7754,
      "ailed": 7755,
      "Ġgren": 7756,
      "Ġneck": 7757,
      "Ġneiger": 7758,
      "otte": 7759,
      "Ġmembre": 7760,
      "almost": 7761,
      "Ġlecon": 7762,
      "sept": 7763,
      "Ġincome": 7764,
      "Ġincomp": 7765,
      "Ġjail": 7766,
      "Ġenv": 7767,
      "Ġenerve": 7768,
      "rol": 7769,
      "tomorrow": 7770,
      "Ġseche": 7771,
      "chante": 7772,
      "Ġparte": 7773,
      "Ġones": 7774,
      "Ġdonn": 7775,
      "Ġstared": 7776,
      "Ġcaf": 7777,
      "Ġlesson": 7778,
      "Ġsoph": 7779,
      "Ġtradu": 7780,
      "Ġdumb": 7781,
      "Ġhistoi": 7782,
      "while": 7783,
      "Ġrac": 7784,
      "fered": 7785,
      "ecl": 7786,
      "appellerai": 7787,
      "Ġadvert": 7788,
      "lettes": 7789,
      "Ġbrown": 7790,
      "Ġferas": 7791,
      "Ġdeuxieme": 7792,
      "Ġdeprime": 7793,
      "Ġaccue": 7794,
      "Ġsmiling": 7795,
      "Ġguard": 7796,
      "Ġminuit": 7797,
      "Ġpublie": 7798,
      "Ġhandy": 7799,
      "clear": 7800,
      "pected": 7801,
      "Ġacheve": 7802,
      "Ġdemandes": 7803,
      "Ġdemandais": 7804,
      "Ġassurance": 7805,
      "Ġpassage": 7806,
      "Ġpasseng": 7807,
      "Ġnuages": 7808,
      "Ġobjection": 7809,
      "Ġcrack": 7810,
      "Ġbegun": 7811,
      "Ġinfor": 7812,
      "Ġinterrom": 7813,
      "emporter": 7814,
      "anyone": 7815,
      "Ġepoque": 7816,
      "Ġsoixante": 7817,
      "Ġsituations": 7818,
      "Ġdecisions": 7819,
      "Ġdelayed": 7820,
      "Ġmedical": 7821,
      "Ġvalent": 7822,
      "Ġhumeur": 7823,
      "Ġdefaut": 7824,
      "Ġconnaissons": 7825,
      "Ġreflex": 7826,
      "Ġrecevoir": 7827,
      "Ġetrangeres": 7828,
      "ĠÅĵuv": 7829,
      "Ġburn": 7830,
      "Ġinvitee": 7831,
      "Ġtimid": 7832,
      "Ġconfection": 7833,
      "Ġtromper": 7834,
      "Ġrecognized": 7835,
      "Ġaccompan": 7836,
      "Ġconstamment": 7837,
      "Ġeconomy": 7838,
      "Ġindiffe": 7839,
      "Ġbillets": 7840,
      "Ġhoping": 7841,
      "Ġparticiper": 7842,
      "issement": 7843,
      "Ġholidays": 7844,
      "Ġrespecter": 7845,
      "Ġquantite": 7846,
      "Ġfassions": 7847,
      "Ġemotions": 7848,
      "Ġsurface": 7849,
      "Ġpreparing": 7850,
      "etagere": 7851,
      "Ġtextbook": 7852,
      "Ġannoying": 7853,
      "Ġmicro": 7854,
      "Ġenvisager": 7855,
      "Ġrejoindre": 7856,
      "Ġingen": 7857,
      "Ġnarrow": 7858,
      "Ġnonsense": 7859,
      "Ġaffecte": 7860,
      "Ġmeubles": 7861,
      "Ġhistoires": 7862,
      "Ġpassengers": 7863,
      "austral": 7864,
      "boy": 7865,
      "ias": 7866,
      "lou": 7867,
      "lait": 7868,
      "lir": 7869,
      "mom": 7870,
      "ste": 7871,
      "xpected": 7872,
      "reuses": 7873,
      "Ġaver": 7874,
      "Ġda": 7875,
      "Ġpneu": 7876,
      "onte": 7877,
      "Ġloup": 7878,
      "Ġloyer": 7879,
      "Ġcy": 7880,
      "Ġcult": 7881,
      "Ġcrie": 7882,
      "Ġmoust": 7883,
      "ining": 7884,
      "anou": 7885,
      "Ġwounded": 7886,
      "Ġber": 7887,
      "Ġbanc": 7888,
      "Ġtowel": 7889,
      "armee": 7890,
      "veled": 7891,
      "organ": 7892,
      "aido": 7893,
      "unfortunately": 7894,
      "Ġpassez": 7895,
      "Ġlack": 7896,
      "Ġeager": 7897,
      "iee": 7898,
      "Ġbeard": 7899,
      "Ġsearch": 7900,
      "Ġparla": 7901,
      "Ġcomite": 7902,
      "Ġdonnez": 7903,
      "Ġcandy": 7904,
      "Ġstress": 7905,
      "illons": 7906,
      "Ġdesir": 7907,
      "Ġtrous": 7908,
      "Ġrater": 7909,
      "oln": 7910,
      "Ġfrust": 7911,
      "check": 7912,
      "Ġserp": 7913,
      "Ġserre": 7914,
      "mbers": 7915,
      "Ġchecked": 7916,
      "fere": 7917,
      "Ġclassi": 7918,
      "Ġenth": 7919,
      "Ġreputation": 7920,
      "Ġhelpful": 7921,
      "ecout": 7922,
      "ecart": 7923,
      "Ġtravaillez": 7924,
      "Ġcontacter": 7925,
      "apporter": 7926,
      "article": 7927,
      "Ġordon": 7928,
      "Ġsometime": 7929,
      "etting": 7930,
      "Ġregler": 7931,
      "Ġspeed": 7932,
      "Ġdepasse": 7933,
      "Ġsmo": 7934,
      "attes": 7935,
      "Ġsentit": 7936,
      "phabet": 7937,
      "Ġfacons": 7938,
      "Ġinvente": 7939,
      "Ġsurpren": 7940,
      "Ġscol": 7941,
      "lied": 7942,
      "Ġfog": 7943,
      "Ġdifferents": 7944,
      "view": 7945,
      "Ġcherches": 7946,
      "Ġsupposee": 7947,
      "Ġpatronne": 7948,
      "Ġobs": 7949,
      "Ġobt": 7950,
      "Ġlugg": 7951,
      "Ġwarmer": 7952,
      "Ġgreatest": 7953,
      "Ġvolonte": 7954,
      "Ġrug": 7955,
      "Ġinterpre": 7956,
      "Ġfarm": 7957,
      "berte": 7958,
      "Ġcharges": 7959,
      "anybody": 7960,
      "Ġcopies": 7961,
      "Ġskill": 7962,
      "Ġsoigne": 7963,
      "Ġimagined": 7964,
      "Ġpartiel": 7965,
      "Ġspending": 7966,
      "Ġbitten": 7967,
      "Ġclassm": 7968,
      "Ġsilly": 7969,
      "Ġregardez": 7970,
      "Ġvalue": 7971,
      "Ġtrouvent": 7972,
      "Ġrejete": 7973,
      "Ġactuelle": 7974,
      "Ġtransp": 7975,
      "Ġconnaissent": 7976,
      "Ġregretter": 7977,
      "Ġacceptable": 7978,
      "Ġcleaning": 7979,
      "Ġokay": 7980,
      "Ġdisposais": 7981,
      "Ġouvrit": 7982,
      "Ġsacrif": 7983,
      "fumer": 7984,
      "Ġboxes": 7985,
      "Ġimpressionnee": 7986,
      "Ġplainte": 7987,
      "Ġblew": 7988,
      "lorsqu": 7989,
      "interess": 7990,
      "Ġcadeaux": 7991,
      "Ġtenter": 7992,
      "Ġteaches": 7993,
      "Ġstyl": 7994,
      "Ġviolent": 7995,
      "Ġholding": 7996,
      "Ġdeny": 7997,
      "Ġgermany": 7998,
      "Ġpaintings": 7999,
      "incoln": 8000,
      "Ġpoured": 8001,
      "Ġaccompli": 8002,
      "Ġtravaillons": 8003,
      "Ġconstant": 8004,
      "Ġindivid": 8005,
      "passez": 8006,
      "Ġessent": 8007,
      "Ġcitiz": 8008,
      "allemand": 8009,
      "Ġserviette": 8010,
      "Ġapplau": 8011,
      "Ġentraine": 8012,
      "Ġrobbed": 8013,
      "Ġhanging": 8014,
      "Ġdanced": 8015,
      "Ġreviendra": 8016,
      "Ġcommitted": 8017,
      "Ġinvestig": 8018,
      "Ġcott": 8019,
      "Ġcheaper": 8020,
      "Ġsurvecu": 8021,
      "Ġconclusion": 8022,
      "priate": 8023,
      "Ġprisonniers": 8024,
      "entendis": 8025,
      "Ġreligion": 8026,
      "Ġeffectue": 8027,
      "depeche": 8028,
      "Ġsquare": 8029,
      "Ġsupplementaire": 8030,
      "Ġfalse": 8031,
      "Ġcooperation": 8032,
      "atoes": 8033,
      "Ġresearch": 8034,
      "speak": 8035,
      "Ġsaoul": 8036,
      "addition": 8037,
      "Ġadopted": 8038,
      "Ġfroide": 8039,
      "Ġcompliment": 8040,
      "Ġdeparture": 8041,
      "kkaido": 8042,
      "Ġscolded": 8043,
      "Ġsophist": 8044,
      "Ġaccompanied": 8045,
      "Ġluggage": 8046,
      "bou": 8047,
      "bly": 8048,
      "bur": 8049,
      "conne": 8050,
      "cast": 8051,
      "cats": 8052,
      "ju": 8053,
      "ked": 8054,
      "lin": 8055,
      "lant": 8056,
      "loy": 8057,
      "mn": 8058,
      "money": 8059,
      "oll": 8060,
      "offe": 8061,
      "vaux": 8062,
      "wood": 8063,
      "word": 8064,
      "Ġamp": 8065,
      "Ġdy": 8066,
      "Ġdors": 8067,
      "Ġsaut": 8068,
      "Ġlance": 8069,
      "eras": 8070,
      "iti": 8071,
      "Ġnap": 8072,
      "quete": 8073,
      "Ġfate": 8074,
      "Ġfuss": 8075,
      "asing": 8076,
      "Ġvet": 8077,
      "Ġdevelop": 8078,
      "etant": 8079,
      "Ġhopital": 8080,
      "Ġhilar": 8081,
      "Ġqualite": 8082,
      "entraine": 8083,
      "estomac": 8084,
      "Ġthick": 8085,
      "ota": 8086,
      "Ġsum": 8087,
      "Ġjete": 8088,
      "Ġjume": 8089,
      "Ġetonne": 8090,
      "Ġchir": 8091,
      "Ġchateau": 8092,
      "Ġliberte": 8093,
      "Ġseated": 8094,
      "Ġplaign": 8095,
      "Ġceinture": 8096,
      "irais": 8097,
      "oos": 8098,
      "uted": 8099,
      "Ġcancel": 8100,
      "Ġstret": 8101,
      "Ġcad": 8102,
      "Ġallum": 8103,
      "Ġsocks": 8104,
      "Ġknowledge": 8105,
      "Ġtraveled": 8106,
      "Ġshook": 8107,
      "usting": 8108,
      "Ġalarm": 8109,
      "Ġamuses": 8110,
      "Ġexception": 8111,
      "Ġmanche": 8112,
      "sif": 8113,
      "allow": 8114,
      "Ġdisiez": 8115,
      "Ġapprend": 8116,
      "uiss": 8117,
      "apacite": 8118,
      "Ġdemeure": 8119,
      "Ġespere": 8120,
      "Ġimpuiss": 8121,
      "Ġdeced": 8122,
      "appa": 8123,
      "Ġvirer": 8124,
      "Ġperio": 8125,
      "Ġoffici": 8126,
      "Ġderobe": 8127,
      "Ġsaving": 8128,
      "issante": 8129,
      "Ġsupper": 8130,
      "attre": 8131,
      "Ġgueule": 8132,
      "Ġfaisiez": 8133,
      "dieu": 8134,
      "Åĵufs": 8135,
      "Ġjouait": 8136,
      "Ġhandsome": 8137,
      "Ġdeton": 8138,
      "Ġdetour": 8139,
      "Ġtrouvee": 8140,
      "Ġempeche": 8141,
      "Ġunderstands": 8142,
      "Ġstarts": 8143,
      "Ġclef": 8144,
      "Ġmoral": 8145,
      "Ġassum": 8146,
      "Ġassume": 8147,
      "Ġpassait": 8148,
      "Ġprofit": 8149,
      "Ġagee": 8150,
      "Ġdebt": 8151,
      "Ġarriv": 8152,
      "Ġsurprising": 8153,
      "Ġrealis": 8154,
      "Ġimportantes": 8155,
      "Ġwarning": 8156,
      "Ġstruck": 8157,
      "Ġincident": 8158,
      "Ġmistook": 8159,
      "Ġtric": 8160,
      "Ġtrick": 8161,
      "Ġsolaire": 8162,
      "rieuse": 8163,
      "Ġinforme": 8164,
      "Ġactor": 8165,
      "Ġsaute": 8166,
      "Ġrespond": 8167,
      "Ġmontrerai": 8168,
      "Ġmenu": 8169,
      "Ġmenage": 8170,
      "Ġgrace": 8171,
      "god": 8172,
      "Ġrelation": 8173,
      "Ġbags": 8174,
      "Ġinstitutrice": 8175,
      "Ġsourit": 8176,
      "Ġhumains": 8177,
      "Ġeviter": 8178,
      "Ġopinions": 8179,
      "Ġaimerais": 8180,
      "Ġpatients": 8181,
      "Ġapproche": 8182,
      "Ġgere": 8183,
      "Ġreflechi": 8184,
      "loge": 8185,
      "Ġzero": 8186,
      "Ġsuccessful": 8187,
      "Ġadopte": 8188,
      "Ġformulaire": 8189,
      "Ġselling": 8190,
      "incapacite": 8191,
      "americ": 8192,
      "Ġrempli": 8193,
      "Ġquelconques": 8194,
      "Ġfailli": 8195,
      "listen": 8196,
      "ecoutez": 8197,
      "honn": 8198,
      "Ġtradition": 8199,
      "Ġmerveilleuse": 8200,
      "Ġcrowded": 8201,
      "juste": 8202,
      "Ġsimil": 8203,
      "Ġlouer": 8204,
      "Ġlouder": 8205,
      "Ġincroyablement": 8206,
      "regard": 8207,
      "Ġemotion": 8208,
      "Ġsurveiller": 8209,
      "Ġconclus": 8210,
      "Ġlocuteur": 8211,
      "Ġnorth": 8212,
      "frankly": 8213,
      "Ġconsacre": 8214,
      "Ġlogique": 8215,
      "Ġnerveuse": 8216,
      "Ġtarte": 8217,
      "Ġmodern": 8218,
      "Ġoctobre": 8219,
      "Ġjeta": 8220,
      "Ġdrugs": 8221,
      "Ġdetruit": 8222,
      "Ġclouds": 8223,
      "malheureusement": 8224,
      "Ġappearance": 8225,
      "Ġtruly": 8226,
      "Ġconcentrate": 8227,
      "Ġcastle": 8228,
      "Ġpollution": 8229,
      "Ġinfluence": 8230,
      "Ġdisappeared": 8231,
      "Ġceremon": 8232,
      "Ġmenteuse": 8233,
      "Ġsophisticated": 8234,
      "aussi": 8235,
      "buy": 8236,
      "cils": 8237,
      "each": 8238,
      "lies": 8239,
      "mit": 8240,
      "mosp": 8241,
      "sit": 8242,
      "ueur": 8243,
      "umer": 8244,
      "wa": 8245,
      "ware": 8246,
      "Ġ:": 8247,
      "Ġessaie": 8248,
      "Ġtaux": 8249,
      "Ġatom": 8250,
      "Ġdata": 8251,
      "Ġpor": 8252,
      "Ġsites": 8253,
      "envir": 8254,
      "isez": 8255,
      "Ġlion": 8256,
      "Ġlines": 8257,
      "Ġmettez": 8258,
      "inconvenient": 8259,
      "anch": 8260,
      "Ġnana": 8261,
      "Ġbass": 8262,
      "Ġbale": 8263,
      "athered": 8264,
      "Ġgym": 8265,
      "Ġgathered": 8266,
      "Ġrech": 8267,
      "Ġretenir": 8268,
      "Ġreception": 8269,
      "europe": 8270,
      "Ġip": 8271,
      "Ġirons": 8272,
      "Ġunus": 8273,
      "Ġenreg": 8274,
      "tumn": 8275,
      "Ġoffered": 8276,
      "autom": 8277,
      "rap": 8278,
      "chent": 8279,
      "chite": 8280,
      "icien": 8281,
      "actu": 8282,
      "Ġunexpected": 8283,
      "Ġweigh": 8284,
      "herbe": 8285,
      "Ġcauser": 8286,
      "Ġdesper": 8287,
      "Ġsore": 8288,
      "Ġmaje": 8289,
      "Ġproches": 8290,
      "Ġras": 8291,
      "Ġrattraper": 8292,
      "Ġaliment": 8293,
      "Ġsurr": 8294,
      "Ġamitie": 8295,
      "Ġsigner": 8296,
      "Ġarmed": 8297,
      "Ġarrog": 8298,
      "Ġarchite": 8299,
      "six": 8300,
      "Ġverres": 8301,
      "Ġprevenu": 8302,
      "Ġpreuves": 8303,
      "laquelle": 8304,
      "Ġprat": 8305,
      "Ġhers": 8306,
      "indust": 8307,
      "Ġappet": 8308,
      "Ġpeau": 8309,
      "venant": 8310,
      "Ġtouchez": 8311,
      "Ġcheese": 8312,
      "Ġloan": 8313,
      "Ġdecue": 8314,
      "appel": 8315,
      "appartient": 8316,
      "Ġbranche": 8317,
      "Ġbruy": 8318,
      "Ġperman": 8319,
      "Ġspare": 8320,
      "resseux": 8321,
      "Ġmatiere": 8322,
      "Ġbug": 8323,
      "Ġparesse": 8324,
      "Ġparesseux": 8325,
      "Ġpleurait": 8326,
      "Ġblank": 8327,
      "Ġtravailles": 8328,
      "Ġsouleve": 8329,
      "Ġnomme": 8330,
      "Ġtenez": 8331,
      "ization": 8332,
      "endrez": 8333,
      "Ġjoues": 8334,
      "Ġplanete": 8335,
      "Ġrecupe": 8336,
      "Ġemporte": 8337,
      "Ġemplettes": 8338,
      "Ġearns": 8339,
      "Ġconfess": 8340,
      "Ġsensitive": 8341,
      "Ġmordu": 8342,
      "Ġfreez": 8343,
      "Ġangleterre": 8344,
      "Ġpassagers": 8345,
      "Ġgarant": 8346,
      "Ġdrove": 8347,
      "Ġdoux": 8348,
      "Ġfrancaise": 8349,
      "Ġraisonnable": 8350,
      "Ġtrouverais": 8351,
      "Ġeffet": 8352,
      "kyoto": 8353,
      "Ġrendent": 8354,
      "Ġcapables": 8355,
      "Ġinfirmiere": 8356,
      "Ġgrossier": 8357,
      "ignorer": 8358,
      "Ġembrasser": 8359,
      "Ġaurons": 8360,
      "erreurs": 8361,
      "anything": 8362,
      "Ġgentils": 8363,
      "Ġfacebook": 8364,
      "Ġtempor": 8365,
      "Ġannonce": 8366,
      "Ġrelated": 8367,
      "Ġrisques": 8368,
      "Ġplaisante": 8369,
      "Ġbague": 8370,
      "Ġmedecins": 8371,
      "Ġ25": 8372,
      "Ġheaded": 8373,
      "uya": 8374,
      "Ġtremb": 8375,
      "Ġdisappoint": 8376,
      "Ġrecovered": 8377,
      "Ġpleuvra": 8378,
      "enfin": 8379,
      "Ġbanan": 8380,
      "Ġbottom": 8381,
      "Ġnotebook": 8382,
      "forget": 8383,
      "agnol": 8384,
      "Ġnovels": 8385,
      "Ġpression": 8386,
      "Ġproducts": 8387,
      "overed": 8388,
      "Ġnewspapers": 8389,
      "Ġparlait": 8390,
      "Ġinquiete": 8391,
      "Ġperdue": 8392,
      "Ġnavig": 8393,
      "Ġhopes": 8394,
      "scur": 8395,
      "presque": 8396,
      "Ġfifteen": 8397,
      "Ġkilos": 8398,
      "Ġmidnight": 8399,
      "Ġsepte": 8400,
      "prices": 8401,
      "grab": 8402,
      "Ġpredict": 8403,
      "Ġrarely": 8404,
      "piration": 8405,
      "Ġauthority": 8406,
      "choisis": 8407,
      "Ġattempt": 8408,
      "Ġdisturbed": 8409,
      "Ġquartier": 8410,
      "Ġindustry": 8411,
      "Ġajouter": 8412,
      "Ġbench": 8413,
      "Ġstatue": 8414,
      "Ġsevere": 8415,
      "etudiants": 8416,
      "Ġneglig": 8417,
      "Ġvehicule": 8418,
      "Ġdouzaine": 8419,
      "Ġpickpockets": 8420,
      "Ġmisunderstanding": 8421,
      "Ġtalents": 8422,
      "Ġcambriole": 8423,
      "Ġbargain": 8424,
      "electric": 8425,
      "croyez": 8426,
      "australie": 8427,
      "Ġcottage": 8428,
      "mosphere": 8429,
      "10": 8430,
      "ah": 8431,
      "aled": 8432,
      "bois": 8433,
      "ceux": 8434,
      "iven": 8435,
      "pet": 8436,
      "pard": 8437,
      "tie": 8438,
      "tles": 8439,
      "uch": 8440,
      "utement": 8441,
      "women": 8442,
      "xe": 8443,
      "yond": 8444,
      "Ġdor": 8445,
      "Ġpattes": 8446,
      "ende": 8447,
      "ison": 8448,
      "Ġmall": 8449,
      "inf": 8450,
      "anish": 8451,
      "quant": 8452,
      "Ġfill": 8453,
      "Ġfainted": 8454,
      "asser": 8455,
      "ascenseur": 8456,
      "Ġbol": 8457,
      "Ġvilles": 8458,
      "Ġdeaf": 8459,
      "Ġtoy": 8460,
      "Ġhole": 8461,
      "estre": 8462,
      "ourage": 8463,
      "Ġuni": 8464,
      "Ġunde": 8465,
      "aly": 8466,
      "anted": 8467,
      "Ġinev": 8468,
      "Ġhautement": 8469,
      "Ġbeyond": 8470,
      "ids": 8471,
      "Ġlignes": 8472,
      "chait": 8473,
      "icile": 8474,
      "Ġassi": 8475,
      "Ġstories": 8476,
      "three": 8477,
      "Ġdesign": 8478,
      "aviez": 8479,
      "Ġdiable": 8480,
      "Ġshame": 8481,
      "Ġrues": 8482,
      "Ġmanques": 8483,
      "Ġquels": 8484,
      "Ġapporter": 8485,
      "Ġclar": 8486,
      "Ġentree": 8487,
      "Ġreproche": 8488,
      "Ġtrains": 8489,
      "Ġhelps": 8490,
      "apprends": 8491,
      "approche": 8492,
      "Ġsaisi": 8493,
      "Ġadap": 8494,
      "Ġspont": 8495,
      "Ġlitter": 8496,
      "Ġdepenser": 8497,
      "Ġecrite": 8498,
      "Ġvaches": 8499,
      "Ġphys": 8500,
      "Ġfaisaient": 8501,
      "Ġarrivees": 8502,
      "Ġaper": 8503,
      "Ġpleuve": 8504,
      "Ġconnue": 8505,
      "Ġwhoever": 8506,
      "aches": 8507,
      "Ġplanet": 8508,
      "Ġflag": 8509,
      "Ġputting": 8510,
      "Ġmetres": 8511,
      "reading": 8512,
      "Ġfold": 8513,
      "Ġmaybe": 8514,
      "icip": 8515,
      "Ġcroyez": 8516,
      "Ġgenie": 8517,
      "Ġforts": 8518,
      "Ġcondam": 8519,
      "Ġtroisieme": 8520,
      "aiderai": 8521,
      "Ġdebrouiller": 8522,
      "Ġdoctors": 8523,
      "Ġmeilleures": 8524,
      "Ġvisiting": 8525,
      "Ġsaurait": 8526,
      "Ġpapiers": 8527,
      "shall": 8528,
      "prep": 8529,
      "Ġvoient": 8530,
      "Ġreduire": 8531,
      "Ġcrimes": 8532,
      "Ġmessages": 8533,
      "Ġdistra": 8534,
      "Ġattended": 8535,
      "ronom": 8536,
      "Ġdreamed": 8537,
      "iaque": 8538,
      "Ġinformed": 8539,
      "Ġsouhaiter": 8540,
      "Ġconvaincue": 8541,
      "Ġhabits": 8542,
      "Ġsounded": 8543,
      "Ġgele": 8544,
      "arrives": 8545,
      "Ġcreve": 8546,
      "Ġcomplaints": 8547,
      "Ġcontraire": 8548,
      "interet": 8549,
      "Ġressources": 8550,
      "Ġpossibly": 8551,
      "Ġpossibilites": 8552,
      "Ġcamping": 8553,
      "Ġconcern": 8554,
      "Ġadorent": 8555,
      "Ġclimate": 8556,
      "Ġdomicile": 8557,
      "Ġinjus": 8558,
      "Ġelectron": 8559,
      "Ġendormie": 8560,
      "Ġaccompagne": 8561,
      "Ġmountains": 8562,
      "Ġexcellente": 8563,
      "Ġflex": 8564,
      "Ġeclate": 8565,
      "Ġsuspic": 8566,
      "admire": 8567,
      "Ġcensee": 8568,
      "draw": 8569,
      "devine": 8570,
      "Ġaugmente": 8571,
      "Ġemmene": 8572,
      "Ġemmener": 8573,
      "Ġclosely": 8574,
      "Ġfournir": 8575,
      "Ġdemenager": 8576,
      "Ġattacked": 8577,
      "Ġjalouse": 8578,
      "Ġblessure": 8579,
      "ophone": 8580,
      "Ġeffectuer": 8581,
      "Ġdefinitely": 8582,
      "Ġelectricity": 8583,
      "Ġobliges": 8584,
      "Ġennemi": 8585,
      "Ġetasuniens": 8586,
      "Ġdisturb": 8587,
      "Ġmiroir": 8588,
      "Ġmirror": 8589,
      "Ġchauffeur": 8590,
      "Ġcivil": 8591,
      "Ġgenius": 8592,
      "Ġconstruction": 8593,
      "Ġtapis": 8594,
      "Ġalentours": 8595,
      "Ġelephants": 8596,
      "Ġvaluable": 8597,
      "Ġmeteo": 8598,
      "Ġchallenge": 8599,
      "Ġjogging": 8600,
      "Ġsoigneusement": 8601,
      "Ġunusual": 8602,
      "Ġrecuperer": 8603,
      "dles": 8604,
      "four": 8605,
      "fied": 8606,
      "gence": 8607,
      "gues": 8608,
      "having": 8609,
      "ike": 8610,
      "ians": 8611,
      "mons": 8612,
      "pend": 8613,
      "pass": 8614,
      "place": 8615,
      "prenons": 8616,
      "rud": 8617,
      "town": 8618,
      "vais": 8619,
      "york": 8620,
      "Ġaie": 8621,
      "Ġpac": 8622,
      "onn": 8623,
      "Ġlois": 8624,
      "Ġloy": 8625,
      "Ġcure": 8626,
      "Ġmouve": 8627,
      "Ġmile": 8628,
      "Ġna": 8629,
      "Ġnin": 8630,
      "Ġnamed": 8631,
      "Ġfra": 8632,
      "Ġfoire": 8633,
      "Ġfetes": 8634,
      "asy": 8635,
      "ilos": 8636,
      "Ġhig": 8637,
      "entrez": 8638,
      "Ġgree": 8639,
      "Ġthro": 8640,
      "Ġneat": 8641,
      "Ġreject": 8642,
      "ottes": 8643,
      "ourdi": 8644,
      "Ġocean": 8645,
      "rich": 8646,
      "oile": 8647,
      "celed": 8648,
      "Ġeve": 8649,
      "Ġheight": 8650,
      "Ġancient": 8651,
      "aint": 8652,
      "Ġkicked": 8653,
      "acquerir": 8654,
      "Ġcanceled": 8655,
      "Ġstamp": 8656,
      "think": 8657,
      "Ġdesespere": 8658,
      "orer": 8659,
      "Ġrat": 8660,
      "aved": 8661,
      "Ġamical": 8662,
      "Ġtaches": 8663,
      "Ġwhist": 8664,
      "Ġpreced": 8665,
      "Ġprevenir": 8666,
      "ago": 8667,
      "agir": 8668,
      "agissait": 8669,
      "ignez": 8670,
      "oiseau": 8671,
      "Ġparts": 8672,
      "iforn": 8673,
      "uisent": 8674,
      "Ġusa": 8675,
      "onnement": 8676,
      "Ġgras": 8677,
      "Ġgranted": 8678,
      "Ġentrance": 8679,
      "Ġagir": 8680,
      "Ġconten": 8681,
      "eteins": 8682,
      "apped": 8683,
      "Ġperple": 8684,
      "Ġfinit": 8685,
      "Ġspite": 8686,
      "Ġferons": 8687,
      "Ġvenait": 8688,
      "Ġexprimer": 8689,
      "Ġretrouve": 8690,
      "Ġbelt": 8691,
      "Ġpassees": 8692,
      "Ġpaquet": 8693,
      "Ġbluff": 8694,
      "Ġfumee": 8695,
      "Ġsentait": 8696,
      "Ġsimply": 8697,
      "Ġpolicy": 8698,
      "Ġinteret": 8699,
      "Ġportez": 8700,
      "Ġhandled": 8701,
      "Ġsortis": 8702,
      "Ġflood": 8703,
      "Ġrefer": 8704,
      "Ġpayee": 8705,
      "Ġsecours": 8706,
      "Ġempecher": 8707,
      "Ġdiscovered": 8708,
      "accuse": 8709,
      "accorde": 8710,
      "Ġscare": 8711,
      "Ġconfront": 8712,
      "Ġetudes": 8713,
      "Ġconcours": 8714,
      "Ġturning": 8715,
      "Ġpoil": 8716,
      "enseign": 8717,
      "Ġ14": 8718,
      "Ġpassword": 8719,
      "Ġelu": 8720,
      "Ġdoulou": 8721,
      "Ġexplications": 8722,
      "Ġexplosion": 8723,
      "Ġcorresp": 8724,
      "Ġchanceuse": 8725,
      "Ġlangage": 8726,
      "Ġfiers": 8727,
      "Ġfiance": 8728,
      "Ġenseigner": 8729,
      "Ġinsult": 8730,
      "Ġrealiser": 8731,
      "Ġincons": 8732,
      "Ġgrossiere": 8733,
      "Ġinterdit": 8734,
      "Ġpassera": 8735,
      "Ġfatiguees": 8736,
      "Ġnatale": 8737,
      "Ġappeared": 8738,
      "Ġemployer": 8739,
      "Ġepaule": 8740,
      "adorerais": 8741,
      "Ġcooked": 8742,
      "Ġdollar": 8743,
      "Ġbaggage": 8744,
      "Ġstupides": 8745,
      "Ġegois": 8746,
      "Ġrouges": 8747,
      "Ġ200": 8748,
      "Ġfourche": 8749,
      "Ġbattu": 8750,
      "Ġbatter": 8751,
      "Ġbarking": 8752,
      "Ġboissons": 8753,
      "Ġjuger": 8754,
      "looking": 8755,
      "Ġouvre": 8756,
      "Ġvoleurs": 8757,
      "Ġapology": 8758,
      "Ġcentaines": 8759,
      "Ġsweat": 8760,
      "Ġswear": 8761,
      "Ġpuni": 8762,
      "Ġrecover": 8763,
      "Ġurgence": 8764,
      "Ġdarker": 8765,
      "Ġbleeding": 8766,
      "Ġpolitics": 8767,
      "Ġtentative": 8768,
      "Ġbuildings": 8769,
      "Ġsatisfaits": 8770,
      "remettez": 8771,
      "Ġorganise": 8772,
      "Ġgenerous": 8773,
      "Ġdivorcer": 8774,
      "Ġbattle": 8775,
      "Ġenseignante": 8776,
      "Ġambition": 8777,
      "Ġsells": 8778,
      "Ġproductive": 8779,
      "Ġentendit": 8780,
      "Ġimprove": 8781,
      "Ġemployes": 8782,
      "Ġpurse": 8783,
      "Ġtoilet": 8784,
      "Ġfausse": 8785,
      "Ġirrit": 8786,
      "Ġeclair": 8787,
      "Ġeclata": 8788,
      "Ġoption": 8789,
      "Ġembarrassing": 8790,
      "aigner": 8791,
      "Ġennuye": 8792,
      "important": 8793,
      "Ġvoted": 8794,
      "Ġressenti": 8795,
      "Ġtelephoner": 8796,
      "Ġprincipal": 8797,
      "Ġreviendrai": 8798,
      "Ġparticularly": 8799,
      "Ġcloset": 8800,
      "Ġstrike": 8801,
      "Ġsignification": 8802,
      "Ġcustomers": 8803,
      "Ġcreative": 8804,
      "Ġhypnot": 8805,
      "Ġmoderne": 8806,
      "abandonne": 8807,
      "choisissez": 8808,
      "Ġdespise": 8809,
      "Ġincredible": 8810,
      "Ġincredibly": 8811,
      "Ġequal": 8812,
      "Ġchicago": 8813,
      "Ġambitious": 8814,
      "Ġtiroir": 8815,
      "Ġsouvenez": 8816,
      "Ġmarchandises": 8817,
      "Ġcommerce": 8818,
      "Ġcourriel": 8819,
      "Ġminimum": 8820,
      "Ġwitness": 8821,
      "Ġaverage": 8822,
      "Ġhigher": 8823,
      "aments": 8824,
      "bra": 8825,
      "cing": 8826,
      "either": 8827,
      "had": 8828,
      "hang": 8829,
      "iant": 8830,
      "ium": 8831,
      "lend": 8832,
      "maman": 8833,
      "oved": 8834,
      "seu": 8835,
      "Ġtatt": 8836,
      "Ġtels": 8837,
      "rete": 8838,
      "remp": 8839,
      "Ġaig": 8840,
      "Ġsne": 8841,
      "Ġsons": 8842,
      "enjoy": 8843,
      "encre": 8844,
      "ondes": 8845,
      "heart": 8846,
      "Ġcore": 8847,
      "Ġmaid": 8848,
      "Ġmirent": 8849,
      "itue": 8850,
      "Ġwild": 8851,
      "Ġfought": 8852,
      "omes": 8853,
      "Ġvar": 8854,
      "Ġvente": 8855,
      "etoffe": 8856,
      "arily": 8857,
      "Ġquas": 8858,
      "orce": 8859,
      "entendu": 8860,
      "aises": 8861,
      "Ġrele": 8862,
      "Ġrecon": 8863,
      "Ġunes": 8864,
      "oires": 8865,
      "oiled": 8866,
      "oignez": 8867,
      "Ġhello": 8868,
      "Ġetendu": 8869,
      "Ġetoiles": 8870,
      "ieuses": 8871,
      "auff": 8872,
      "Ġsele": 8873,
      "verrouille": 8874,
      "Ġplaf": 8875,
      "icit": 8876,
      "icale": 8877,
      "Ġpourraient": 8878,
      "endue": 8879,
      "acy": 8880,
      "Ġstaff": 8881,
      "Ġcave": 8882,
      "Ġprocess": 8883,
      "Ġconce": 8884,
      "Ġtied": 8885,
      "igine": 8886,
      "Ġdisais": 8887,
      "Ġcomposition": 8888,
      "Ġsonner": 8889,
      "oyons": 8890,
      "Ġrabb": 8891,
      "Ġdemoc": 8892,
      "idees": 8893,
      "ounced": 8894,
      "Ġcheek": 8895,
      "Ġgrown": 8896,
      "Ġcontient": 8897,
      "aides": 8898,
      "serais": 8899,
      "Ġperds": 8900,
      "obil": 8901,
      "abs": 8902,
      "abilites": 8903,
      "Ġregion": 8904,
      "Ġprenom": 8905,
      "Ġprenons": 8906,
      "Ġafrica": 8907,
      "Ġintent": 8908,
      "Ġintime": 8909,
      "Ġexpose": 8910,
      "Ġmesures": 8911,
      "Ġretira": 8912,
      "Ġcris": 8913,
      "Ġcrash": 8914,
      "Ġecoule": 8915,
      "Ġaccro": 8916,
      "Ġphras": 8917,
      "Ġpetro": 8918,
      "Ġpetrin": 8919,
      "Ġblo": 8920,
      "Ġterms": 8921,
      "essayais": 8922,
      "essayons": 8923,
      "Ġrecr": 8924,
      "Ġdisput": 8925,
      "Ġsurprendre": 8926,
      "Ġemporter": 8927,
      "Ġscand": 8928,
      "Ġconfidence": 8929,
      "liqua": 8930,
      "Ġcleared": 8931,
      "Ġfuneral": 8932,
      "Ġpoet": 8933,
      "Ġchangements": 8934,
      "Ġboug": 8935,
      "Ġassiste": 8936,
      "activ": 8937,
      "Ġeloi": 8938,
      "vingt": 8939,
      "Ġinsane": 8940,
      "Ġrevienne": 8941,
      "Ġincendie": 8942,
      "Ġsalon": 8943,
      "Ġautrement": 8944,
      "Ġrendra": 8945,
      "Ġactress": 8946,
      "Ġentretenir": 8947,
      "Ġdevenus": 8948,
      "Ġnecessaires": 8949,
      "emprun": 8950,
      "Ġlarger": 8951,
      "aidez": 8952,
      "Ġapprecier": 8953,
      "Ġetudiante": 8954,
      "Ġportent": 8955,
      "Ġprisoner": 8956,
      "Ġmedicaments": 8957,
      "ronte": 8958,
      "Ġsouris": 8959,
      "Ġhaircut": 8960,
      "Ġhumor": 8961,
      "Ġevite": 8962,
      "Ġtaxes": 8963,
      "Ġpublished": 8964,
      "Ġechange": 8965,
      "attendait": 8966,
      "attendrai": 8967,
      "Ġstopping": 8968,
      "Ġarretee": 8969,
      "espace": 8970,
      "Ġhitting": 8971,
      "Ġgear": 8972,
      "Ġstreets": 8973,
      "Ġsoucier": 8974,
      "Ġpublicite": 8975,
      "Ġpleuvait": 8976,
      "soon": 8977,
      "Ġburning": 8978,
      "Ġobligees": 8979,
      "Ġtenta": 8980,
      "Ġpouss": 8981,
      "Ġ195": 8982,
      "Ġ500": 8983,
      "Ġmilliers": 8984,
      "Ġpanier": 8985,
      "Ġedge": 8986,
      "Ġpauvres": 8987,
      "Ġjoli": 8988,
      "Ġbothering": 8989,
      "humour": 8990,
      "Ġtendit": 8991,
      "Ġballon": 8992,
      "Ġlicen": 8993,
      "Ġgratuit": 8994,
      "Ġaimeriez": 8995,
      "Ġsuitcases": 8996,
      "Ġmaterial": 8997,
      "Ġinstrument": 8998,
      "assieds": 8999,
      "Ġcotes": 9000,
      "Ġitaly": 9001,
      "esperons": 9002,
      "Ġdoigts": 9003,
      "Ġmathematics": 9004,
      "Ġplaisanterie": 9005,
      "Ġbaisser": 9006,
      "Ġlourde": 9007,
      "Ġvolunteered": 9008,
      "Ġallergic": 9009,
      "Ġfrequence": 9010,
      "Ġrepeat": 9011,
      "Ġmethod": 9012,
      "Ġmethode": 9013,
      "Ġthreatened": 9014,
      "Ġtowards": 9015,
      "Ġmechant": 9016,
      "Ġprocure": 9017,
      "Ġpointe": 9018,
      "Ġcontemp": 9019,
      "mangez": 9020,
      "Ġmix": 9021,
      "Ġdistinguer": 9022,
      "Ġdissim": 9023,
      "Ġpropriet": 9024,
      "Ġexperiences": 9025,
      "Ġalternative": 9026,
      "Ġpromotion": 9027,
      "Ġwebsite": 9028,
      "endormir": 9029,
      "Ġkilometres": 9030,
      "Ġrassemb": 9031,
      "Ġrussian": 9032,
      "Ġgrimper": 9033,
      "Ġsoudainement": 9034,
      "Ġhesitate": 9035,
      "Ġsignificant": 9036,
      "Ġperiode": 9037,
      "Ġsimilaire": 9038,
      "automne": 9039,
      "Ġdesperate": 9040,
      "Ġinjuste": 9041,
      "13": 9042,
      "din": 9043,
      "gard": 9044,
      "stu": 9045,
      "tant": 9046,
      "tation": 9047,
      "ua": 9048,
      "ules": 9049,
      "ugg": 9050,
      "vol": 9051,
      "valent": 9052,
      "xophone": 9053,
      "Ġtask": 9054,
      "ouff": 9055,
      "refle": 9056,
      "Ġdare": 9057,
      "Ġdurer": 9058,
      "Ġpy": 9059,
      "Ġpants": 9060,
      "Ġpitie": 9061,
      "Ġsien": 9062,
      "escal": 9063,
      "enfu": 9064,
      "heures": 9065,
      "Ġloose": 9066,
      "Ġcord": 9067,
      "Ġcuire": 9068,
      "Ġcurt": 9069,
      "Ġmud": 9070,
      "Ġmult": 9071,
      "Ġnue": 9072,
      "quatre": 9073,
      "Ġwre": 9074,
      "Ġfout": 9075,
      "Ġvig": 9076,
      "Ġvoila": 9077,
      "Ġdefait": 9078,
      "ilities": 9079,
      "attu": 9080,
      "ators": 9081,
      "Ġhoney": 9082,
      "Ġquarante": 9083,
      "unate": 9084,
      "Ġgro": 9085,
      "Ġgather": 9086,
      "Ġgache": 9087,
      "usa": 9088,
      "Ġreel": 9089,
      "Ġrequis": 9090,
[...]
